[UNK]
[CLS]
[SEP]
[PAD]
[MASK]
!
"
#
$
%
&
'
(
)
*
+
,
-
.
/
0
1
2
3
4
5
6
7
8
9
:
;
<
=
>
?
@
[
\
]
^
_
`
a
b
c
d
e
f
g
h
i
j
k
l
m
n
o
p
q
r
s
t
u
v
w
x
y
z
{
|
}
~
¡
¢
£
¤
¥
¦
§
¨
©
ª
«
¬
®
¯
°
±
²
³
´
µ
¶
·
¸
¹
º
»
¼
½
¾
¿
×
ß
æ
ð
÷
ø
þ
đ
ħ
ı
ĳ
ĸ
ŀ
ł
ŉ
ŋ
œ
ŧ
ſ
ƀ
ƃ
ƅ
ƒ
ƙ
ƚ
ƛ
ƞ
ƣ
ƫ
ƭ
ƴ
ƶ
ƿ
ǀ
ǁ
ǃ
ǉ
ǌ
ǝ
ǥ
ǳ
ȝ
ɉ
ɐ
ɑ
ɒ
ɓ
ɔ
ɕ
ɖ
ɗ
ɘ
ə
ɚ
ɛ
ɜ
ɝ
ɞ
ɟ
ɠ
ɡ
ɣ
ɤ
ɥ
ɦ
ɧ
ɨ
ɩ
ɪ
ɫ
ɬ
ɭ
ɮ
ɯ
ɰ
ɱ
ɲ
ɳ
ɴ
ɵ
ɶ
ɸ
ɹ
ɻ
ɽ
ɾ
ʀ
ʁ
ʂ
ʃ
ʅ
ʆ
ʇ
ʈ
ʉ
ʊ
ʋ
ʌ
ʍ
ʎ
ʏ
ʐ
ʑ
ʒ
ʔ
ʕ
ʙ
ʜ
ʝ
ʟ
ʣ
ʤ
ʦ
ʧ
ʨ
ʰ
ʱ
ʲ
ʷ
ʹ
ʺ
ʻ
ʼ
ʽ
ʾ
ʿ
ˀ
ˁ
˄
ˆ
ˇ
ˈ
ˉ
ˊ
ˋ
ˌ
ː
ˑ
˗
˘
˙
˚
˛
˜
˝
˟
ˠ
ˡ
ˢ
ˣ
ˤ
˥
˧
˨
˩
˭
ˮ
ͱ
͵
ͻ
΄
α
β
γ
δ
ε
ζ
η
θ
ι
κ
λ
μ
ν
ξ
ο
π
ρ
ς
σ
τ
υ
φ
χ
ψ
ω
ϐ
ϑ
ϕ
ϖ
ϗ
ϙ
ϛ
ϝ
ϟ
ϡ
ϩ
ϯ
ϰ
ϱ
ϲ
ϸ
а
б
в
г
д
е
ж
з
и
к
л
м
н
о
п
р
с
т
у
ф
х
ц
ч
ш
щ
ъ
ы
ь
э
ю
я
ђ
є
ѕ
і
ј
љ
њ
ћ
џ
ѡ
ѣ
ѥ
ѧ
ѩ
ѫ
ѭ
ѱ
ѳ
ѵ
ѹ
ҁ
҂
ҍ
ҏ
ґ
ғ
ҕ
җ
ҙ
қ
ҝ
ҟ
ҡ
ң
ҥ
ҧ
ҩ
ҫ
ҭ
ү
ұ
ҳ
ҵ
ҷ
ҹ
һ
ӄ
ӈ
ӊ
ӌ
ӏ
ӕ
ә
ӡ
ө
ӽ
ԁ
ԑ
ԥ
ՙ
՚
՛
՜
՝
՞
՟
ա
բ
գ
դ
ե
զ
է
ը
թ
ժ
ի
լ
խ
ծ
կ
հ
ձ
ղ
ճ
մ
յ
ն
շ
ո
չ
պ
ջ
ռ
ս
վ
տ
ր
ց
ւ
փ
ք
օ
ֆ
և
։
֊
־
׃
׆
א
ב
ג
ד
ה
ו
ז
ח
ט
י
ך
כ
ל
ם
מ
ן
נ
ס
ע
ף
פ
ץ
צ
ק
ר
ש
ת
װ
ױ
ײ
׳
״
؋
،
؍
؎
؛
؞
؟
ء
ا
ب
ة
ت
ث
ج
ح
خ
د
ذ
ر
ز
س
ش
ص
ض
ط
ظ
ع
غ
ؽ
ـ
ف
ق
ك
ل
م
ن
ه
و
ى
ي
٠
١
٢
٣
٤
٥
٦
٧
٨
٩
٪
٫
٬
٭
ٱ
ٲ
ٴ
ٶ
ٹ
ٺ
ٻ
ټ
ٽ
پ
ٿ
ڀ
ځ
ڃ
ڄ
څ
چ
ڇ
ڈ
ډ
ڊ
ڌ
ڍ
ڎ
ڏ
ڑ
ڒ
ړ
ڕ
ږ
ژ
ڙ
ښ
ڜ
ڠ
ڢ
ڤ
ڥ
ڦ
ڧ
ڨ
ک
ڪ
ګ
ڬ
ڭ
گ
ڱ
ڳ
ڵ
ں
ڻ
ڼ
ڽ
ھ
ہ
ۃ
ۄ
ۆ
ۇ
ۈ
ۉ
ۊ
ۋ
ی
ۍ
ێ
ۏ
ې
ے
۔
ە
۞
ۦ
۰
۱
۲
۳
۴
۵
۶
۷
۸
۹
ۻ
۽
۾
܀
܂
ܐ
ܒ
ܓ
ܕ
ܖ
ܗ
ܘ
ܙ
ܚ
ܛ
ܝ
ܟ
ܠ
ܡ
ܢ
ܣ
ܥ
ܦ
ܩ
ܪ
ܫ
ܬ
ݢ
ݣ
ݨ
ހ
ނ
ރ
ބ
ޅ
ކ
އ
ވ
މ
ފ
ދ
ތ
ލ
ގ
ސ
ޑ
ޔ
ޖ
ޝ
ޢ
ߏ
ߒ
ߞ
ߦ
࠲
ࡏ
ः
अ
आ
इ
ई
उ
ऊ
ऋ
ऌ
ऍ
ऎ
ए
ऐ
ऑ
ऒ
ओ
औ
क
ख
ग
घ
ङ
च
छ
ज
झ
ञ
ट
ठ
ड
ढ
ण
त
थ
द
ध
न
प
फ
ब
भ
म
य
र
ल
ळ
व
श
ष
स
ह
ऽ
ा
ि
ी
ॉ
ॊ
ो
ौ
ॐ
ॠ
ॡ
।
॥
०
१
२
३
४
५
६
७
८
९
॰
ॲ
ং
ঃ
অ
আ
ই
ঈ
উ
ঊ
ঋ
এ
ঐ
ও
ঔ
ক
খ
গ
ঘ
ঙ
চ
ছ
জ
ঝ
ঞ
ট
ঠ
ড
ঢ
ণ
ত
থ
দ
ধ
ন
প
ফ
ব
ভ
ম
য
র
ল
শ
ষ
স
হ
ঽ
া
ি
ী
ে
ৈ
ৎ
ৗ
ৠ
০
১
২
৩
৪
৫
৬
৭
৮
৯
ৰ
ৱ
৳
৷
৹
৺
৻
ਃ
ਅ
ਆ
ਇ
ਈ
ਉ
ਊ
ਏ
ਐ
ਓ
ਔ
ਕ
ਖ
ਗ
ਘ
ਙ
ਚ
ਛ
ਜ
ਝ
ਞ
ਟ
ਠ
ਡ
ਢ
ਣ
ਤ
ਥ
ਦ
ਧ
ਨ
ਪ
ਫ
ਬ
ਭ
ਮ
ਯ
ਰ
ਲ
ਵ
ਸ
ਹ
ਾ
ਿ
ੀ
ੜ
੦
੧
੨
੩
੪
੫
੬
੭
੮
੯
ੲ
ੳ
ੴ
ઃ
અ
આ
ઇ
ઈ
ઉ
ઊ
ઋ
ઍ
એ
ઐ
ઑ
ઓ
ઔ
ક
ખ
ગ
ઘ
ઙ
ચ
છ
જ
ઝ
ઞ
ટ
ઠ
ડ
ઢ
ણ
ત
થ
દ
ધ
ન
પ
ફ
બ
ભ
મ
ય
ર
લ
ળ
વ
શ
ષ
સ
હ
ા
િ
ી
ૉ
ો
ૌ
ૐ
ૠ
૦
૧
૨
૩
૪
૫
૬
૭
૮
૯
૰
ଂ
ଃ
ଅ
ଆ
ଇ
ଈ
ଉ
ଊ
ଋ
ଌ
ଏ
ଐ
ଓ
ଔ
କ
ଖ
ଗ
ଘ
ଙ
ଚ
ଛ
ଜ
ଝ
ଞ
ଟ
ଠ
ଡ
ଢ
ଣ
ତ
ଥ
ଦ
ଧ
ନ
ପ
ଫ
ବ
ଭ
ମ
ଯ
ର
ଲ
ଳ
ଵ
ଶ
ଷ
ସ
ହ
ଽ
ା
ୀ
େ
ୗ
ୟ
ୠ
ୡ
୦
୧
୨
୩
୪
୫
୬
୭
୮
୯
ୱ
ஃ
அ
ஆ
இ
ஈ
உ
ஊ
எ
ஏ
ஐ
ஒ
ஓ
க
ங
ச
ஜ
ஞ
ட
ண
த
ந
ன
ப
ம
ய
ர
ற
ல
ள
ழ
வ
ஶ
ஷ
ஸ
ஹ
ா
ி
ு
ூ
ெ
ே
ை
ௗ
௦
௨
௩
௫
௬
௮
௯
ఁ
ం
ః
అ
ఆ
ఇ
ఈ
ఉ
ఊ
ఋ
ఌ
ఎ
ఏ
ఐ
ఒ
ఓ
ఔ
క
ఖ
గ
ఘ
ఙ
చ
ఛ
జ
ఝ
ఞ
ట
ఠ
డ
ఢ
ణ
త
థ
ద
ధ
న
ప
ఫ
బ
భ
మ
య
ర
ఱ
ల
ళ
వ
శ
ష
స
హ
ఽ
ు
ూ
ృ
ౄ
ౘ
ౙ
ౠ
ౡ
౦
౧
౨
౩
౪
౫
౬
౭
౮
౯
ಂ
ಃ
ಅ
ಆ
ಇ
ಈ
ಉ
ಊ
ಋ
ಎ
ಏ
ಐ
ಒ
ಓ
ಔ
ಕ
ಖ
ಗ
ಘ
ಙ
ಚ
ಛ
ಜ
ಝ
ಞ
ಟ
ಠ
ಡ
ಢ
ಣ
ತ
ಥ
ದ
ಧ
ನ
ಪ
ಫ
ಬ
ಭ
ಮ
ಯ
ರ
ಱ
ಲ
ಳ
ವ
ಶ
ಷ
ಸ
ಹ
ಽ
ಾ
ು
ೂ
ೃ
ೄ
ೕ
ೖ
ೞ
೦
೧
೨
೩
೪
೫
೬
೭
೮
೯
ം
ഃ
അ
ആ
ഇ
ഈ
ഉ
ഊ
ഋ
ഌ
എ
ഏ
ഐ
ഒ
ഓ
ഔ
ക
ഖ
ഗ
ഘ
ങ
ച
ഛ
ജ
ഝ
ഞ
ട
ഠ
ഡ
ഢ
ണ
ത
ഥ
ദ
ധ
ന
പ
ഫ
ബ
ഭ
മ
യ
ര
റ
ല
ള
ഴ
വ
ശ
ഷ
സ
ഹ
ഽ
ാ
ി
ീ
െ
േ
ൈ
ൎ
ൗ
ൠ
ൡ
൦
൧
൨
൩
൪
൫
൬
൮
൯
൹
ൺ
ൻ
ർ
ൽ
ൾ
ൿ
ං
ඃ
අ
ආ
ඇ
ඈ
ඉ
ඊ
උ
ඌ
ඍ
ඏ
එ
ඒ
ඓ
ඔ
ඕ
ඖ
ක
ඛ
ග
ඝ
ඞ
ඟ
ච
ඡ
ජ
ඣ
ඤ
ඥ
ඦ
ට
ඨ
ඩ
ඪ
ණ
ඬ
ත
ථ
ද
ධ
න
ඳ
ප
ඵ
බ
භ
ම
ඹ
ය
ර
ල
ව
ශ
ෂ
ස
හ
ළ
ෆ
ා
ැ
ෑ
ෘ
ෙ
ෛ
ෟ
ෲ
ෳ
ก
ข
ฃ
ค
ฅ
ฆ
ง
จ
ฉ
ช
ซ
ฌ
ญ
ฎ
ฏ
ฐ
ฑ
ฒ
ณ
ด
ต
ถ
ท
ธ
น
บ
ป
ผ
ฝ
พ
ฟ
ภ
ม
ย
ร
ฤ
ล
ฦ
ว
ศ
ษ
ส
ห
ฬ
อ
ฮ
ฯ
ะ
า
ำ
฿
เ
แ
โ
ใ
ไ
ๅ
ๆ
๐
๑
๒
๓
๔
๕
๖
๗
๘
๙
ກ
ຂ
ຄ
ງ
ຈ
ຊ
ຍ
ດ
ຕ
ຖ
ທ
ນ
ບ
ປ
ຜ
ຝ
ພ
ຟ
ມ
ຢ
ຣ
ລ
ວ
ສ
ຫ
ອ
ຮ
ຯ
ະ
າ
ຳ
ຽ
ເ
ແ
ໂ
ໃ
ໄ
ໆ
໐
໑
໒
໓
໔
໕
໖
໗
໘
໙
ໜ
ໝ
༄
༅
༆
༈
་
༌
།
༎
༑
༔
༗
༚
༠
༡
༢
༣
༤
༥
༦
༧
༨
༩
༸
༼
༽
ཀ
ཁ
ག
ང
ཅ
ཆ
ཇ
ཉ
ཊ
ཋ
ཌ
ཎ
ཏ
ཐ
ད
ན
པ
ཕ
བ
མ
ཙ
ཚ
ཛ
ཝ
ཞ
ཟ
འ
ཡ
ར
ལ
ཤ
ཥ
ས
ཧ
ཨ
ཪ
ཿ
྅
ྉ
ྋ
က
ခ
ဂ
ဃ
င
စ
ဆ
ဇ
ဈ
ဉ
ည
ဋ
ဌ
ဍ
ဎ
ဏ
တ
ထ
ဒ
ဓ
န
ပ
ဖ
ဗ
ဘ
မ
ယ
ရ
လ
ဝ
သ
ဟ
ဠ
အ
ဢ
ဣ
ဤ
ဥ
ဧ
ဩ
ဪ
ါ
ာ
ေ
း
ျ
ြ
ဿ
၀
၁
၂
၃
၄
၅
၆
၇
၈
၉
၊
။
၌
၍
၎
၏
ၐ
ၚ
ၜ
ၡ
ၢ
ၣ
ၤ
ၥ
ၦ
ၩ
ၮ
ၵ
ၶ
ၷ
ၸ
ၹ
ၺ
ၻ
ၼ
ၽ
ၾ
ၿ
ႀ
ႁ
ႃ
ႄ
ႇ
ႈ
ႉ
ႊ
ႋ
ႌ
ႏ
႐
႑
႒
႓
႔
႕
႖
႗
႘
႙
႞
ა
ბ
გ
დ
ე
ვ
ზ
თ
ი
კ
ლ
მ
ნ
ო
პ
ჟ
რ
ს
ტ
უ
ფ
ქ
ღ
ყ
შ
ჩ
ც
ძ
წ
ჭ
ხ
ჯ
ჰ
ჱ
ჲ
ჳ
ჴ
ჵ
ᄀ
ᄁ
ᄂ
ᄃ
ᄄ
ᄅ
ᄆ
ᄇ
ᄈ
ᄉ
ᄊ
ᄋ
ᄌ
ᄍ
ᄎ
ᄏ
ᄐ
ᄑ
ᄒ
ᅡ
ᅢ
ᅣ
ᅤ
ᅥ
ᅦ
ᅧ
ᅨ
ᅩ
ᅪ
ᅫ
ᅬ
ᅭ
ᅮ
ᅯ
ᅰ
ᅱ
ᅲ
ᅳ
ᅴ
ᅵ
ᆞ
ᆨ
ᆩ
ᆪ
ᆫ
ᆬ
ᆭ
ᆮ
ᆯ
ᆰ
ᆱ
ᆲ
ᆳ
ᆴ
ᆵ
ᆶ
ᆷ
ᆸ
ᆹ
ᆺ
ᆻ
ᆼ
ᆽ
ᆾ
ᆿ
ᇀ
ᇁ
ᇂ
ᇡ
ሀ
ሁ
ሂ
ሃ
ሄ
ህ
ሆ
ሇ
ለ
ሉ
ሊ
ላ
ሌ
ል
ሎ
ሏ
ሐ
ሑ
ሒ
ሓ
ሔ
ሕ
ሖ
ሗ
መ
ሙ
ሚ
ማ
ሜ
ም
ሞ
ሟ
ሠ
ሡ
ሢ
ሣ
ሤ
ሥ
ሦ
ሧ
ረ
ሩ
ሪ
ራ
ሬ
ር
ሮ
ሯ
ሰ
ሱ
ሲ
ሳ
ሴ
ስ
ሶ
ሷ
ሸ
ሹ
ሺ
ሻ
ሼ
ሽ
ሾ
ሿ
ቀ
ቁ
ቂ
ቃ
ቄ
ቅ
ቆ
ቇ
ቈ
ቊ
ቋ
ቌ
ቍ
ቐ
ቑ
ቒ
ቓ
ቔ
ቕ
ቖ
ቘ
ቚ
ቛ
ቜ
ቝ
በ
ቡ
ቢ
ባ
ቤ
ብ
ቦ
ቧ
ቨ
ቩ
ቪ
ቫ
ቬ
ቭ
ቮ
ቯ
ተ
ቱ
ቲ
ታ
ቴ
ት
ቶ
ቷ
ቸ
ቹ
ቺ
ቻ
ቼ
ች
ቾ
ቿ
ኀ
ኁ
ኂ
ኃ
ኄ
ኅ
ኆ
ኈ
ኊ
ኋ
ኌ
ኍ
ነ
ኑ
ኒ
ና
ኔ
ን
ኖ
ኗ
ኘ
ኙ
ኚ
ኛ
ኜ
ኝ
ኞ
ኟ
አ
ኡ
ኢ
ኣ
ኤ
እ
ኦ
ኧ
ከ
ኩ
ኪ
ካ
ኬ
ክ
ኮ
ኯ
ኰ
ኲ
ኳ
ኴ
ኵ
ኸ
ኹ
ኺ
ኻ
ኼ
ኽ
ኾ
ዀ
ዂ
ዃ
ዄ
ዅ
ወ
ዉ
ዊ
ዋ
ዌ
ው
ዎ
ዐ
ዑ
ዒ
ዓ
ዔ
ዕ
ዖ
ዘ
ዙ
ዚ
ዛ
ዜ
ዝ
ዞ
ዟ
ዠ
ዡ
ዢ
ዣ
ዤ
ዥ
ዦ
ዧ
የ
ዩ
ዪ
ያ
ዬ
ይ
ዮ
ዯ
ደ
ዱ
ዲ
ዳ
ዴ
ድ
ዶ
ዷ
ዸ
ዹ
ዺ
ዻ
ዼ
ዽ
ዾ
ዿ
ጀ
ጁ
ጂ
ጃ
ጄ
ጅ
ጆ
ጇ
ገ
ጉ
ጊ
ጋ
ጌ
ግ
ጎ
ጏ
ጐ
ጒ
ጓ
ጔ
ጕ
ጘ
ጙ
ጚ
ጛ
ጝ
ጠ
ጡ
ጢ
ጣ
ጤ
ጥ
ጦ
ጧ
ጨ
ጩ
ጪ
ጫ
ጬ
ጭ
ጮ
ጯ
ጰ
ጱ
ጲ
ጳ
ጴ
ጵ
ጶ
ጷ
ጸ
ጹ
ጺ
ጻ
ጼ
ጽ
ጾ
ጿ
ፀ
ፁ
ፂ
ፃ
ፄ
ፅ
ፆ
ፇ
ፈ
ፉ
ፊ
ፋ
ፌ
ፍ
ፎ
ፏ
ፐ
ፑ
ፒ
ፓ
ፔ
ፕ
ፖ
ፗ
፠
፡
።
፣
፤
፥
፦
፧
፨
፩
፪
፫
፬
፭
፮
፯
፰
፱
፲
፳
፴
፵
፶
፷
፸
፹
፺
፻
፼
ᎁ
ᎍ
ᐃ
ᐊ
ᐧ
ᐱ
ᑎ
ᑐ
ᑕ
ᑖ
ᑦ
ᑭ
ᒃ
ᓂ
ᓄ
ᓇ
ᓗ
ᓱ
ᓴ
ᔪ
ᕐ
ᕗ
ᕿ
ᖅ
ᖽ
ᖿ
ᗅ
ᗩ
ᗰ
ᗷ
ᗺ
ᙱ
ᚄ
ᚅ
ᚋ
ᚌ
ᚏ
ᚒ
ᚠ
ᚢ
ᚦ
ᚨ
ᚩ
ᚪ
ᚫ
ᚱ
ᚹ
ᚻ
ᚾ
ᛁ
ᛉ
ᛋ
ᛏ
ᛖ
ᛗ
ᛚ
ᛞ
ᛠ
ᛣ
ᜁ
ᜄ
ᜆ
ᜊ
ᜎ
ក
ខ
គ
ឃ
ង
ច
ឆ
ជ
ឈ
ញ
ដ
ឋ
ឌ
ឍ
ណ
ត
ថ
ទ
ធ
ន
ប
ផ
ព
ភ
ម
យ
រ
ល
វ
ឝ
ឞ
ស
ហ
ឡ
អ
ឣ
ឤ
ឥ
ឦ
ឧ
ឩ
ឪ
ឫ
ឬ
ឭ
ឮ
ឯ
ឰ
ឱ
ឲ
ឳ
ា
ើ
ឿ
ៀ
េ
ែ
ៃ
ោ
ៅ
ះ
ៈ
។
៕
៖
ៗ
៘
៙
៚
៛
០
១
២
៣
៤
៥
៦
៧
៨
៩
᠁
ᠠ
ᠣ
ᠤ
ᠨ
ᠪ
ᠭ
ᠮ
ᠯ
ᠰ
ᠱ
ᠲ
ᠵ
ᠷ
ᡀ
ᡠ
ᡤ
ᡩ
ᡳ
ᡵ
ᥪ
᧠
᧣
᧤
᧦
ᨀ
ᨃ
ᨅ
ᨆ
ᨇ
ᨈ
ᨉ
ᨊ
ᨋ
ᨏ
ᨑ
ᨒ
ᨔ
ᨕ
ᨖ
ᨙ
ᨚ
᨞
᨟
ᬭ
ᬯ
ᬲ
᭄
ᮂ
ᮃ
ᮄ
ᮅ
ᮆ
ᮇ
ᮈ
ᮊ
ᮌ
ᮍ
ᮎ
ᮏ
ᮒ
ᮓ
ᮔ
ᮕ
ᮖ
ᮘ
ᮙ
ᮚ
ᮛ
ᮜ
ᮝ
ᮞ
ᮠ
ᮡ
ᮦ
ᮧ
᮪
᮶
᱐
᱑
᱒
᱓
᱔
᱕
᱖
᱗
᱘
᱙
ᱚ
ᱛ
ᱜ
ᱝ
ᱞ
ᱟ
ᱠ
ᱡ
ᱢ
ᱣ
ᱤ
ᱥ
ᱦ
ᱧ
ᱨ
ᱩ
ᱪ
ᱫ
ᱬ
ᱭ
ᱮ
ᱯ
ᱰ
ᱱ
ᱲ
ᱳ
ᱴ
ᱵ
ᱶ
ᱷ
ᱸ
ᱹ
ᱺ
ᱻ
ᱼ
ᱽ
᱾
᱿
ᴀ
ᴇ
ᴡ
ᵁ
ᵃ
ᵏ
ᵐ
ᵑ
ᵒ
ᵗ
ᵘ
ᵠ
ᵶ
ᵻ
ᶀ
ᶜ
᾽
᾿
῀
῾
‐
‑
‒
–
—
―
‖
‘
’
‚
‛
“
”
„
‟
†
‡
•
․
‥
…
‧
‰
′
″
‴
‵
‹
›
※
‼
‽
‾
‿
⁃
⁄
⁊
⁚
⁰
⁴
⁵
⁶
⁷
⁸
⁹
⁺
⁻
ⁿ
₀
₁
₂
₃
₄
₆
₇
₈
₠
₡
₣
₤
₦
₨
₩
₪
₫
€
₮
₰
₱
₲
₵
₹
⃠
ℂ
℃
℅
℉
ℎ
ℏ
ℓ
№
ℛ
ℜ
ℝ
™
ℤ
ℳ
ℵ
ℶ
⅓
⅔
⅕
⅚
⅛
⅜
⅝
⅞
ⅰ
ⅱ
ⅲ
ⅳ
ⅴ
ⅵ
ⅶ
ⅷ
ⅸ
ⅹ
ↄ
←
↑
→
↓
↔
↝
↦
↵
⇄
⇆
⇌
⇐
⇒
⇔
⇦
⇧
⇨
⇩
∀
∂
∃
∅
∆
∇
∈
∋
∍
∏
∑
−
∕
∗
∘
∙
√
∛
∜
∝
∞
∠
∣
∥
∧
∨
∩
∪
∫
∴
∶
∼
∿
≃
≅
≈
≒
≡
≤
≥
≦
≧
≪
≫
≽
⊂
⊃
⊆
⊇
⊊
⊋
⊕
⊙
⊥
⊴
⊿
⋂
⋅
⋆
⋯
⌀
⌒
⌦
⌻
⍺
⎢
⎥
⏬
①
②
③
④
⑤
⑥
⑦
⑧
⑨
⑩
⑬
⑴
⑵
⑶
⑷
⑸
⑹
⑺
⑻
⑼
⑾
⑿
⒁
⒂
⒄
⒆
⒇
ⓐ
ⓒ
ⓝ
─
━
│
┃
┆
┐
└
┕
┗
┘
┚
┛
├
┞
┠
┡
┢
┩
┰
┱
┴
┵
┷
┻
┼
┾
╃
╆
╊
═
║
╗
╬
╭
╮
╯
╰
╱
╲
╳
╴
╶
▀
▂
▄
▅
█
▉
▐
▒
▓
■
□
▪
▫
▬
▭
▲
△
▴
▶
▸
▹
►
▼
▽
▾
◀
◂
◄
◆
◇
◊
○
◌
◎
●
◗
◘
◤
◦
◯
◾
☀
☁
☃
★
☆
☉
☊
☐
☒
☔
☚
☛
☜
☝
☞
☢
☭
☰
☱
☲
☴
☷
☸
☹
☺
☻
☼
☾
☿
♀
♁
♂
♃
♄
♅
♆
♇
♈
♉
♍
♎
♏
♐
♓
♕
♖
♗
♙
♛
♜
♝
♠
♡
♣
♥
♦
♩
♪
♫
♭
♯
♻
⚈
⚘
⚠
⚡
⚵
⛢
✃
✅
✈
✊
✋
✌
✍
✎
✏
✓
✔
✕
✖
✗
✘
✜
✞
✡
✶
✿
❀
❁
❄
❉
❌
❍
❏
❑
❖
❗
❚
❝
❞
❤
❱
❶
❷
❸
➈
➊
➋
➌
➍
➎
➏
➔
➖
➗
➙
➛
➜
➡
➢
➣
➤
➥
➧
➨
➾
⟨
⟩
⟶
⠀
⠲
⡪
⤙
⤜
⭐
ⱳ
ⱺ
ⲁ
ⲃ
ⲅ
ⲇ
ⲉ
ⲏ
ⲑ
ⲓ
ⲕ
ⲗ
ⲙ
ⲛ
ⲟ
ⲡ
ⲣ
ⲥ
ⲧ
ⲩ
ⲫ
ⲭ
ⲱ
ⴌ
ⴍ
ⴓ
ⴡ
ⴣ
ⴰ
ⴱ
ⴳ
ⴴ
ⴶ
ⴷ
ⴹ
ⴺ
ⴻ
ⴼ
ⴽ
ⴾ
ⵀ
ⵁ
ⵂ
ⵃ
ⵄ
ⵅ
ⵆ
ⵇ
ⵈ
ⵉ
ⵊ
ⵋ
ⵌ
ⵍ
ⵎ
ⵏ
ⵐ
ⵒ
ⵓ
ⵔ
ⵕ
ⵖ
ⵗ
ⵙ
ⵚ
ⵛ
ⵜ
ⵝ
ⵟ
ⵠ
ⵡ
ⵢ
ⵣ
ⵤ
ⵥ
ⵧ
ⵯ
⵰
ⶀ
ⶁ
ⶂ
ⶄ
ⶅ
ⶇ
ⶉ
ⶋ
ⶍ
ⶏ
ⶐ
ⶸ
ⶼ
ⷄ
ⷎ
⺰
⺶
⺼
⻄
⻋
⻎
⻮
⼀
⼂
⼗
⼤
⼭
⼼
⽂
⽅
⽷
⾂
⾄
⾊
⾞
⾯
⾸
⾼
⿒
、
。
〃
々
〆
〇
〈
〉
《
》
「
」
『
』
【
】
〒
〓
〔
〕
〜
〝
〞
〟
〡
〢
〣
〮
〲
ぁ
あ
ぃ
い
ぅ
う
ぇ
え
ぉ
お
か
き
く
け
こ
さ
し
す
せ
そ
た
ち
っ
つ
て
と
な
に
ぬ
ね
の
は
ひ
ふ
へ
ほ
ま
み
む
め
も
ゃ
や
ゅ
ゆ
ょ
よ
ら
り
る
れ
ろ
ゎ
わ
ゐ
ゑ
を
ん
゛
゜
ゝ
ァ
ア
ィ
イ
ゥ
ウ
ェ
エ
ォ
オ
カ
キ
ク
ケ
コ
サ
シ
ス
セ
ソ
タ
チ
ッ
ツ
テ
ト
ナ
ニ
ヌ
ネ
ノ
ハ
ヒ
フ
ヘ
ホ
マ
ミ
ム
メ
モ
ャ
ヤ
ュ
ユ
ョ
ヨ
ラ
リ
ル
レ
ロ
ヮ
ワ
ヰ
ヱ
ヲ
ン
ヵ
ヶ
・
ー
ヽ
ㄅ
ㄆ
ㄇ
ㄈ
ㄉ
ㄊ
ㄋ
ㄌ
ㄍ
ㄎ
ㄏ
ㄒ
ㄓ
ㄔ
ㄕ
ㄖ
ㄗ
ㄘ
ㄙ
ㄚ
ㄛ
ㄜ
ㄞ
ㄟ
ㄠ
ㄡ
ㄢ
ㄣ
ㄤ
ㄥ
ㄦ
ㄧ
ㄨ
ㄩ
ㄪ
ㄫ
ㄬ
ㄭ
ㄱ
ㄳ
ㄴ
ㄷ
ㄹ
ㅁ
ㅂ
ㅃ
ㅅ
ㅆ
ㅇ
ㅈ
ㅉ
ㅊ
ㅋ
ㅌ
ㅍ
ㅎ
ㅏ
ㅐ
ㅑ
ㅒ
ㅓ
ㅔ
ㅕ
ㅖ
ㅗ
ㅚ
ㅛ
ㅜ
ㅟ
ㅠ
ㅡ
ㅢ
ㅣ
ㅿ
ㆀ
ㆁ
ㆉ
ㆌ
ㆍ
ㆎ
ㇰ
㈜
㈱
㊣
㋹
㌐
㌔
㌘
㌦
㍍
㎉
㎎
㎏
㎐
㎒
㎜
㎝
㎞
㎠
㎡
㎢
㎥
㎦
㎾
㏄
㏎
㐨
㐫
㐮
㐻
㑊
㑯
㑺
㒊
㒟
㒦
㒧
㒰
㒿
㓤
㓬
㓯
㓹
㔉
㔎
㔓
㔪
㔴
㔷
㔻
㕄
㕅
㕈
㕔
㕠
㕣
㕸
㖇
㖡
㖣
㖭
㖿
㗄
㗎
㗓
㗘
㗳
㗼
㗽
㘁
㘊
㘍
㘑
㘝
㘧
㙒
㙡
㙪
㙲
㙷
㚅
㚇
㚤
㚥
㚻
㛏
㛭
㜉
㜊
㜋
㜸
㜽
㜿
㝓
㝜
㝫
㝷
㝼
㞔
㞕
㞗
㞘
㞡
㞨
㞶
㞷
㟁
㟈
㟊
㟌
㟨
㟩
㟫
㟭
㠁
㠑
㠘
㠜
㠝
㠪
㠭
㠱
㠶
㡂
㡕
㡛
㡣
㡧
㡫
㡳
㡶
㡹
㢁
㢋
㢌
㢕
㢚
㢺
㣂
㣒
㣭
㣯
㣰
㤡
㤢
㤬
㤸
㥓
㥠
㥣
㦆
㦉
㦕
㦘
㦤
㦵
㦽
㧗
㧘
㧣
㧨
㧬
㧯
㧿
㨁
㨑
㨖
㨵
㨹
㩒
㩤
㩨
㩾
㪀
㪍
㪫
㫃
㫊
㫑
㫪
㫺
㫻
㬗
㭈
㭊
㭌
㭒
㭝
㭪
㭫
㭬
㭰
㮅
㮈
㮔
㮙
㮨
㮩
㮬
㮶
㮹
㯌
㯫
㯭
㯮
㯰
㯶
㯹
㰍
㰔
㰚
㰣
㰲
㰷
㰸
㰽
㱀
㱅
㱇
㱠
㱲
㱴
㱽
㲊
㲗
㲛
㲠
㲤
㲺
㲽
㳊
㳿
㴇
㴒
㴓
㴛
㴮
㴽
㵓
㵝
㵫
㵰
㵵
㵶
㶆
㶞
㶠
㶴
㶾
㷊
㷑
㷥
㷦
㷫
㷸
㸂
㸉
㸊
㸋
㹄
㹈
㹣
㹴
㺋
㺓
㺘
㺣
㺪
㺭
㺮
㻗
㻡
㻰
㼅
㼰
㼷
㽊
㽝
㽫
㾅
㾊
㾐
㾞
㾮
㾽
㿂
㿈
㿎
㿓
㿛
䀂
䀃
䀫
䀬
䀽
䁃
䁋
䁐
䁓
䁕
䁙
䁭
䁴
䁷
䁺
䂖
䂠
䂥
䂱
䂾
䃉
䃊
䃍
䃧
䃴
䃿
䄂
䄒
䄓
䄜
䄨
䄩
䄭
䄮
䄯
䅁
䅆
䅉
䅒
䅚
䅛
䅣
䅩
䅺
䅻
䅼
䆁
䆍
䆘
䆟
䆫
䆰
䆶
䇓
䇔
䇕
䇗
䇛
䇤
䇭
䇰
䇿
䈌
䈝
䈦
䈪
䈬
䈵
䈺
䉅
䉐
䉚
䉛
䉝
䉥
䉮
䉶
䊆
䊍
䊒
䊔
䊗
䊚
䊝
䊣
䊩
䊪
䊵
䊸
䊼
䊿
䋊
䋋
䋒
䋗
䋘
䋚
䋝
䋞
䋣
䋥
䋦
䋵
䋶
䌮
䌵
䌻
䌼
䍂
䍖
䍠
䍦
䍾
䍿
䎍
䎔
䎚
䎫
䎺
䎽
䏊
䏣
䏭
䏯
䏹
䐈
䐉
䐑
䐗
䐚
䑓
䑟
䑧
䑸
䒐
䒒
䒘
䒨
䒱
䒾
䓈
䓌
䓪
䓲
䓹
䔀
䔆
䔏
䔰
䔷
䔸
䕃
䕄
䕈
䕊
䕍
䕑
䕛
䕻
䖁
䖏
䖟
䖲
䖽
䖿
䗈
䗉
䗥
䗷
䗻
䘃
䘒
䘙
䘝
䘧
䘭
䘴
䙂
䙃
䙈
䙝
䙰
䙳
䚩
䛂
䛲
䜠
䜴
䜵
䝄
䝤
䝷
䞃
䞇
䞌
䞹
䟨
䟱
䟴
䟵
䠋
䠦
䠭
䠱
䡋
䡑
䡤
䡪
䡮
䡹
䡺
䢓
䢕
䢖
䢥
䣇
䣎
䣐
䣧
䣷
䤌
䤛
䤠
䤭
䤵
䥊
䥍
䥡
䥮
䥰
䥷
䦃
䦆
䦛
䦠
䦦
䦧
䦫
䦯
䦴
䦻
䦽
䧌
䧐
䧝
䧟
䧥
䧳
䧹
䨇
䨉
䨗
䨛
䨥
䨨
䩅
䩒
䩡
䩺
䩽
䩿
䪄
䪊
䪋
䪎
䪤
䪶
䪸
䬥
䬺
䭐
䭒
䭞
䭲
䭵
䮖
䮲
䮳
䮽
䯀
䯆
䯐
䯚
䯠
䯯
䯶
䯽
䰋
䰖
䰚
䰧
䰩
䱐
䱑
䱘
䱬
䱵
䱼
䱽
䲀
䲐
䲚
䲝
䳄
䳅
䳑
䳓
䳕
䳡
䳨
䳬
䳭
䴀
䴖
䴡
䴣
䴬
䴸
䴻
䴾
䵁
䵃
䵋
䵏
䵐
䵝
䵨
䵮
䵰
䵱
䵼
䶆
䷀
䷁
䷸
䷹
一
丁
七
万
丈
三
上
下
不
与
丏
丐
丑
专
且
丕
世
丘
丙
业
丛
东
丝
丞
丟
両
丢
两
严
並
丧
丨
个
丫
中
丰
串
临
丶
丸
丹
为
主
丼
丽
举
丿
乂
乃
久
么
义
之
乌
乍
乎
乏
乐
乒
乓
乔
乕
乖
乗
乘
乙
乜
九
乞
也
习
乡
书
乩
乭
买
乱
乳
乸
乾
亀
亂
亄
了
亇
予
争
亊
事
二
亍
于
亏
云
互
亓
五
井
亖
亘
亙
亚
些
亜
亞
亟
亡
亢
交
亥
亦
产
亨
亩
享
京
亭
亮
亲
亳
亵
亶
亹
人
亻
亿
什
仁
仃
仄
仅
仆
仇
仉
今
介
仍
从
仏
仑
仓
仔
仕
他
仗
付
仙
仚
仝
仞
仟
仡
代
令
以
仨
仪
仫
们
仭
仮
仰
仲
仳
仵
件
价
任
仼
份
仿
伀
企
伂
伉
伊
伍
伎
伏
伐
休
伕
众
优
伙
会
伜
伝
伞
伟
传
伢
伤
伥
伦
伪
伫
伯
估
伲
伳
伴
伶
伷
伸
伺
似
伽
伾
佁
佃
但
佇
佈
佉
佌
位
低
住
佐
佑
体
佔
何
佖
佗
佘
余
佚
佛
作
佝
佞
佟
你
佢
佣
佤
佩
佪
佬
佮
佯
佰
佳
佴
併
佶
佷
佺
佻
佼
佾
使
侂
侃
侄
來
侇
侈
侉
例
侍
侏
侐
侑
侓
侔
侖
侗
侘
供
依
侞
侠
価
侣
侥
侦
侧
侨
侩
侪
侫
侬
侭
侮
侯
侲
侵
侶
侷
便
俀
俁
係
促
俄
俅
俉
俊
俋
俍
俎
俏
俐
俑
俔
俖
俗
俘
俚
保
俞
俟
俠
信
俢
俣
俤
俨
俩
俪
俫
俬
俭
修
俯
俱
俳
俵
俶
俸
俺
俾
倀
倂
倅
倆
倉
個
倌
倍
倏
們
倒
倓
倔
倖
倗
倘
候
倚
倜
倞
借
倠
倡
倢
倣
値
倥
倦
倧
倨
倩
倪
倫
倬
倭
倱
倲
倳
倵
倶
倹
债
倻
值
倾
偃
假
偈
偉
偊
偋
偌
偎
偏
偐
偓
偕
做
停
偟
健
偪
偰
偲
側
偵
偶
偷
偸
偻
偽
偿
傀
傅
傈
傋
傌
傍
傑
傓
傔
傕
傖
傘
備
傚
傢
傣
傥
储
傩
催
傭
傯
傲
傳
傴
債
傷
傻
傾
僁
僂
僅
僆
僈
僉
僊
働
像
僑
僔
僕
僖
僚
僜
僞
僣
僥
僦
僧
僭
僮
僰
僱
僳
僴
僵
價
僻
儀
儁
儂
億
儆
儇
儈
儉
儋
儌
儍
儐
儒
儔
儕
儘
儚
儛
儞
償
儡
儦
優
儬
儲
儴
儷
儸
儺
儻
儼
儾
儿
兀
允
元
兄
充
兆
兇
先
光
克
兌
免
兎
児
兑
兒
兔
兕
兖
兗
党
兜
兟
兢
入
兦
內
全
兩
兪
八
公
六
兮
兰
共
兲
关
兴
兵
其
具
典
兹
养
兼
兽
冀
冂
内
円
冇
冈
冉
冊
册
再
冏
冑
冒
冓
冕
冗
写
冚
军
农
冠
冢
冤
冥
冦
冧
冨
冩
冪
冬
冮
冯
冰
冱
冲
决
冴
况
冶
冷
冺
冻
冼
冽
冾
净
凃
凄
准
凇
凈
凉
凋
凌
凍
减
凑
凖
凛
凜
凝
凞
凟
几
凡
凢
凤
処
凧
凪
凫
凭
凯
凰
凱
凳
凴
凶
凸
凹
出
击
凼
函
凾
凿
刀
刁
刃
刄
分
切
刈
刊
刋
刍
刎
刑
划
刕
列
刘
则
刚
创
初
删
判
別
刧
刨
利
刪
别
刮
到
刱
刳
刵
制
刷
券
刹
刺
刻
刼
刽
剁
剂
剃
剄
則
剉
削
剋
剌
前
剎
剐
剑
剒
剔
剕
剖
剗
剚
剛
剜
剝
剞
剡
剣
剤
剥
剧
剩
剪
剮
副
剰
剱
割
剳
剴
創
剷
剺
剽
剿
劃
劄
劇
劈
劉
劊
劌
劍
劏
劑
劒
劓
劔
劖
劗
劘
力
劝
办
功
加
务
劣
劤
劦
动
助
努
劫
劬
劭
励
劲
劳
労
劵
効
劻
劼
劾
势
勁
勃
勅
勇
勉
勋
勍
勐
勑
勒
動
勗
勘
務
勛
勝
勞
募
勢
勣
勤
勦
勧
勩
勰
勱
勲
勳
勵
勷
勸
勺
勻
勾
勿
匀
匁
匂
包
匆
匈
匍
匏
匐
匕
化
北
匙
匜
匝
匠
匡
匣
匦
匪
匭
匮
匯
匱
匲
匵
匹
区
医
匾
匿
區
十
千
卄
卅
升
午
卉
半
卌
卍
华
协
卐
卑
卒
卓
協
单
卖
南
単
博
卜
卞
卟
占
卡
卢
卣
卤
卦
卧
卨
卩
卫
卬
卯
印
危
卲
即
却
卵
卷
卸
卹
卻
卽
卿
厂
厄
厅
历
厉
压
厌
厎
厐
厓
厕
厖
厘
厚
厝
原
厠
厢
厥
厦
厨
厩
厬
厭
厮
厰
厲
厳
厹
去
县
叁
参
參
叄
又
叉
及
友
双
反
収
发
叔
取
受
变
叙
叛
叟
叠
叡
叢
口
古
句
另
叨
叩
只
叫
召
叭
叮
可
台
叱
史
右
叴
叵
叶
号
司
叹
叻
叼
叽
吀
吁
吃
各
吆
合
吉
吊
吋
同
名
后
吏
吐
向
吒
吓
吔
吕
吖
吗
君
吝
吞
吟
吠
吡
吥
否
吧
吨
吩
含
听
吭
吮
启
吱
吲
吳
吴
吵
吶
吸
吹
吻
吼
吽
吾
吿
呀
呂
呃
呆
呈
呉
告
呋
呎
呐
呑
呒
呓
呔
呕
呖
呗
员
呙
呛
呜
呟
呢
呣
呤
呦
周
呪
呯
呰
呱
呲
味
呴
呵
呶
呷
呸
呻
呼
命
咀
咁
咂
咃
咄
咅
咆
咈
咋
和
咎
咏
咐
咒
咓
咔
咕
咖
咗
咙
咚
咛
咝
咣
咤
咥
咦
咧
咨
咩
咪
咫
咬
咭
咮
咯
咱
咲
咳
咸
咻
咼
咽
咾
咿
哀
品
哂
哄
哆
哇
哈
哉
哋
哌
响
哎
哏
哐
哑
哒
哔
哖
哗
哚
哝
哞
哟
員
哢
哤
哥
哦
哧
哨
哩
哪
哫
哬
哭
哮
哲
哺
哼
哽
唁
唄
唅
唆
唇
唉
唊
唎
唏
唐
唑
唓
唔
唖
唘
唚
唛
唞
唠
唢
唤
唥
唦
唧
唨
唪
唬
售
唯
唰
唱
唲
唳
唵
唶
唷
唸
唻
唼
唾
唿
啀
啁
啃
啄
商
啉
啊
啋
啍
問
啐
啓
啕
啖
啜
啝
啞
啟
啡
啣
啤
啥
啦
啧
啩
啪
啫
啬
啮
啰
啱
啲
啵
啶
啷
啸
啹
啻
啼
啾
喀
喂
喃
善
喆
喇
喉
喊
喋
喎
喏
喐
喑
喔
喘
喙
喚
喜
喝
喟
喤
喥
喦
喧
喨
喩
喪
喫
喬
單
喰
喱
喲
喳
喵
営
喷
喹
喺
喻
喼
喽
嗁
嗄
嗅
嗆
嗇
嗉
嗌
嗍
嗎
嗐
嗑
嗒
嗓
嗔
嗖
嗙
嗚
嗜
嗝
嗞
嗟
嗡
嗣
嗤
嗥
嗦
嗨
嗩
嗪
嗬
嗮
嗯
嗰
嗱
嗲
嗵
嗶
嗷
嗽
嗾
嘀
嘁
嘄
嘅
嘆
嘈
嘉
嘌
嘍
嘎
嘏
嘑
嘓
嘔
嘖
嘗
嘘
嘚
嘛
嘜
嘞
嘟
嘢
嘣
嘥
嘧
嘩
嘬
嘭
嘮
嘯
嘰
嘱
嘲
嘴
嘵
嘶
嘸
嘹
嘺
嘻
嘽
嘿
噁
噂
噃
噉
噌
噍
噎
噏
噓
噔
噗
噘
噙
噚
噛
噜
噝
噠
噢
噣
噤
噥
器
噩
噪
噫
噬
噯
噱
噲
噳
噴
噶
噸
噹
噺
噻
噼
嚀
嚄
嚅
嚆
嚇
嚎
嚏
嚐
嚓
嚔
嚕
嚗
嚙
嚜
嚟
嚡
嚢
嚣
嚥
嚨
嚩
嚫
嚮
嚳
嚴
嚶
嚷
嚸
嚹
嚼
嚽
嚿
囀
囁
囂
囃
囄
囈
囉
囊
囍
囑
囓
囔
囖
囗
囘
囚
四
囝
回
因
囡
团
団
囤
囦
囧
囪
囫
园
囮
囯
困
囱
囲
図
围
囵
囶
囹
固
国
图
囿
圀
圂
圃
圄
圆
圇
圈
圉
國
圌
圍
圏
圐
圑
園
圓
圖
團
圙
圜
土
圣
圦
圧
在
圩
圪
圬
圭
圮
圯
地
圳
圴
圷
圹
场
圻
圾
址
坁
坂
均
坊
坌
坍
坎
坏
坐
坑
块
坚
坛
坜
坝
坞
坟
坠
坡
坤
坦
坧
坨
坩
坪
坫
坭
坯
坰
坳
坴
坵
坷
坻
垂
垃
垄
型
垌
垒
垓
垙
垚
垛
垝
垟
垠
垡
垢
垣
垤
垦
垧
垩
垫
垬
垭
垮
垰
垱
垴
垵
垸
垺
垾
埂
埃
埇
埈
埋
城
埏
埐
埒
埓
埔
埕
埗
埚
埜
埞
域
埠
埡
埤
埦
埭
埰
埲
埴
埵
執
埸
培
基
埼
埾
埿
堀
堂
堃
堅
堆
堇
堉
堊
堑
堔
堕
堝
堞
堠
堡
堤
堦
堪
堭
堯
堰
報
堲
場
堵
堷
堺
堿
塀
塁
塅
塊
塋
塌
塏
塑
塒
塔
塗
塘
塙
塚
塜
塞
塡
塢
塤
塩
塪
填
塬
塭
塰
塱
塲
塵
塹
塼
塽
塾
墀
境
墅
墈
墉
墊
墐
墑
墓
増
墘
墙
墜
增
墟
墣
墦
墨
墩
墫
墬
墮
墳
墶
墺
墻
墾
壁
壅
壆
壇
壊
壌
壎
壐
壑
壓
壕
壘
壙
壚
壜
壞
壟
壠
壢
壤
壩
士
壬
壮
壯
声
壱
売
壳
壶
壷
壹
壺
壻
壼
壽
夂
处
夆
备
変
夊
复
夏
夔
夕
外
夙
多
夜
够
夠
夢
夣
夥
大
夨
天
太
夫
夬
夭
央
夯
失
夲
头
夷
夸
夹
夺
夾
奀
奂
奄
奇
奈
奉
奋
奌
奎
奏
奐
契
奓
奔
奕
奖
套
奘
奚
奛
奝
奠
奢
奥
奧
奨
奩
奪
奬
奭
奮
奯
奱
女
奴
奵
奶
奸
她
奻
奼
好
妁
如
妃
妄
妆
妇
妈
妊
妍
妏
妐
妒
妓
妖
妗
妙
妝
妞
妣
妤
妥
妨
妩
妪
妬
妮
妯
妲
妳
妹
妺
妻
妾
姆
姈
姉
姊
始
姍
姐
姑
姒
姓
委
姗
姘
姚
姜
姝
姞
姣
姥
姦
姧
姨
姪
姫
姬
姮
姵
姶
姹
姻
姼
姿
威
娃
娄
娅
娆
娇
娈
娉
娌
娍
娑
娒
娓
娘
娛
娜
娟
娠
娡
娣
娥
娩
娬
娯
娰
娱
娳
娴
娵
娶
娼
婀
婁
婆
婉
婊
婕
婚
婜
婞
婢
婥
婦
婧
婪
婬
婭
婴
婵
婶
婷
婺
婼
婿
媄
媒
媓
媚
媛
媜
媞
媟
媦
媧
媯
媱
媲
媳
媺
媼
媽
媾
媿
嫁
嫂
嫄
嫈
嫉
嫋
嫌
嫐
嫔
嫕
嫖
嫗
嫚
嫠
嫡
嫣
嫦
嫩
嫪
嫲
嫵
嫺
嫻
嫿
嬃
嬅
嬇
嬈
嬉
嬋
嬌
嬗
嬛
嬝
嬡
嬢
嬤
嬥
嬪
嬬
嬰
嬲
嬴
嬶
嬷
嬸
嬾
嬿
孀
孁
孃
孋
孌
子
孑
孓
孔
孕
孖
字
存
孙
孚
孛
孜
孝
孟
孢
季
孤
孥
学
孩
孪
孫
孬
孭
孰
孱
孲
孳
孵
學
孺
孻
孼
孽
孿
宀
宁
它
宅
宇
守
安
宊
宋
完
宍
宏
宓
宕
宗
官
宙
定
宛
宜
宝
实
実
宠
审
客
宣
室
宥
宦
宧
宪
宫
宬
宮
宰
害
宴
宵
家
宸
容
宽
宾
宿
寂
寃
寄
寅
密
寇
寉
富
寐
寑
寒
寓
寔
寘
寛
寝
寞
察
寡
寢
寥
實
寧
寨
審
寪
寫
寬
寮
寯
寰
寳
寵
寶
寸
对
寺
寻
导
寽
対
寿
封
専
尃
射
尅
将
將
專
尉
尊
尋
對
導
小
尐
少
尓
尔
尕
尖
尘
尙
尚
尝
尠
尢
尤
尧
尨
尪
尬
尭
尰
就
尴
尶
尷
尸
尹
尺
尻
尼
尽
尾
尿
局
屁
层
屄
居
屆
屇
屈
屉
届
屋
屌
屍
屎
屏
屐
屑
屓
展
屘
屙
屛
屜
屝
属
屠
屡
屢
屣
層
履
屧
屨
屬
屯
山
屳
屹
屺
屻
屾
屿
岀
岁
岂
岃
岌
岐
岑
岔
岕
岖
岗
岘
岚
岛
岜
岡
岢
岥
岦
岨
岩
岫
岬
岭
岱
岳
岷
岸
岻
岿
峅
峇
峋
峒
峙
峠
峡
峥
峦
峨
峪
峭
峯
峰
峴
島
峻
峽
崀
崁
崃
崆
崇
崋
崌
崍
崎
崐
崑
崔
崕
崖
崗
崙
崚
崛
崠
崢
崦
崧
崩
崬
崭
崮
崴
崽
崾
嵆
嵇
嵊
嵋
嵌
嵎
嵐
嵒
嵕
嵗
嵘
嵙
嵜
嵨
嵩
嵫
嵬
嵯
嵴
嶀
嶂
嶄
嶇
嶋
嶌
嶒
嶗
嶙
嶝
嶠
嶬
嶲
嶷
嶸
嶹
嶺
嶼
嶽
巀
巂
巃
巅
巉
巋
巌
巍
巑
巒
巓
巔
巖
巗
巘
川
州
巡
巢
巣
工
左
巧
巨
巩
巫
差
巯
巰
己
已
巳
巴
巵
巷
巻
巽
巾
巿
币
市
布
帅
帆
师
希
帐
帑
帒
帔
帕
帖
帘
帙
帚
帛
帜
帝
帥
带
帧
師
席
帮
帯
帰
帳
帴
帶
帷
常
帻
帼
帽
帾
幀
幂
幃
幄
幅
幇
幌
幔
幕
幗
幘
幛
幟
幠
幡
幢
幣
幨
幪
幫
干
平
年
并
幷
幸
幹
幺
幻
幼
幽
幾
广
庁
広
庄
庆
庇
床
庋
序
庐
庒
库
应
底
庖
店
庙
庚
庛
府
庞
废
庠
庥
度
座
庫
庬
庭
庯
庲
庳
庵
庶
康
庸
庹
庾
廁
廂
廃
廄
廈
廉
廊
廋
廌
廎
廐
廑
廓
廕
廖
廙
廚
廝
廞
廟
廠
廡
廢
廣
廨
廩
廪
廬
廰
廳
延
廷
廸
建
廻
廼
廿
开
弁
异
弃
弄
弈
弉
弊
弋
弌
弍
式
弐
弑
弒
弓
弔
引
弖
弗
弘
弛
弟
张
弢
弣
弥
弦
弧
弩
弭
弯
弱
弴
張
強
弸
弹
强
弼
弽
弾
彀
彅
彆
彈
彊
彌
彎
归
当
彔
录
彗
彘
彙
彚
彜
彝
彞
彡
形
彣
彤
彥
彦
彧
彩
彪
彫
彬
彭
彰
影
彳
彷
彸
役
彻
彼
彿
往
征
徂
径
待
徇
很
徉
徊
律
後
徐
徑
徒
従
徕
得
徘
徙
徛
徜
從
徠
御
徧
徨
復
循
徫
徬
徭
微
徳
徴
徵
德
徸
徹
徼
徽
忀
心
必
忆
忉
忌
忍
忏
忐
忑
忒
忖
志
忘
忙
応
忝
忞
忟
忠
忡
忤
忧
忪
快
忮
忯
忱
念
忸
忻
忽
忾
忿
怀
态
怂
怄
怅
怆
怋
怍
怎
怏
怒
怔
怕
怖
怙
怚
怛
怜
思
怠
怡
怤
急
怦
性
怨
怩
怪
怯
怱
怵
总
怼
恀
恁
恂
恃
恅
恆
恉
恊
恋
恍
恐
恒
恕
恙
恚
恠
恢
恣
恤
恥
恨
恩
恪
恫
恬
恭
恮
息
恰
恳
恵
恶
恸
恹
恺
恻
恼
恿
悃
悄
悅
悉
悊
悋
悌
悍
悒
悔
悖
悚
悛
悝
悟
悠
患
悦
悧
您
悩
悪
悫
悬
悭
悯
悰
悱
悲
悳
悴
悵
悶
悷
悸
悻
悼
悽
情
惆
惇
惊
惋
惑
惕
惗
惘
惚
惛
惜
惟
惠
惡
惣
惦
惧
惨
惩
惫
惬
惭
惮
惯
惰
惱
惲
想
惴
惶
惹
惺
惻
惾
愁
愃
愆
愈
愉
愍
愎
意
愓
愔
愕
愗
愚
愛
愜
感
愠
愣
愤
愧
愨
愫
愭
愴
愷
愼
愾
愿
慂
慄
慇
慈
慊
態
慌
慍
慎
慑
慒
慕
慘
慙
慚
慜
慟
慢
慣
慤
慥
慧
慨
慪
慫
慮
慰
慲
慳
慵
慶
慷
慼
慾
憂
憃
憊
憋
憍
憎
憐
憑
憓
憔
憙
憚
憤
憧
憨
憩
憫
憬
憮
憲
憶
憺
憼
憾
懂
懃
懇
懈
應
懊
懋
懌
懍
懐
懑
懒
懟
懠
懣
懥
懦
懨
懫
懮
懲
懵
懶
懷
懸
懺
懼
懽
懾
懿
戀
戇
戈
戉
戊
戋
戌
戍
戎
戏
成
我
戒
戓
戔
戕
或
战
戙
戚
戛
戟
戡
戢
戥
戦
戧
戩
截
戬
戮
戯
戰
戱
戲
戳
戴
戶
户
戸
戻
戽
戾
房
所
扁
扂
扇
扈
扉
手
才
扎
扐
扑
扒
打
扔
払
托
扙
扚
扛
扞
扠
扡
扣
扥
扦
执
扨
扩
扪
扫
扬
扭
扮
扯
扰
扱
扳
扶
批
扺
扻
扼
扽
找
承
技
抃
抄
抆
抉
把
抌
抎
抑
抒
抓
抔
投
抖
抗
折
抚
抛
抜
抝
択
抟
抠
抡
抢
护
报
抦
抨
披
抬
抱
抲
抵
抹
抺
抻
押
抽
抿
拂
拃
拄
担
拆
拇
拈
拉
拋
拌
拍
拎
拏
拐
拑
拒
拓
拔
拖
拗
拘
拙
拚
招
拜
拝
拟
拠
拡
拢
拣
拥
拦
拧
拨
择
拫
括
拭
拮
拯
拱
拳
拴
拵
拶
拷
拸
拼
拽
拾
拿
挀
持
挂
指
挈
按
挌
挍
挎
挑
挓
挖
挙
挚
挛
挝
挞
挟
挠
挡
挣
挤
挥
挨
挪
挫
挭
振
挲
挹
挺
挼
挽
挾
挿
捂
捃
捅
捆
捈
捉
捋
捌
捍
捎
捏
捐
捔
捕
捗
捜
捞
损
捡
换
捣
捥
捧
捨
捩
捫
捭
据
捯
捱
捲
捶
捷
捹
捺
捻
捽
掀
掁
掂
掃
掄
掅
掇
授
掉
掌
掎
掏
掐
排
掕
掖
掘
掙
掛
掟
掠
採
探
掣
接
控
推
掩
措
掬
掮
掯
掰
掲
掳
掴
掵
掷
掸
掹
掺
掻
掾
揀
揃
揄
揆
揈
揉
揍
描
提
揑
插
揖
揚
換
揜
揞
揠
握
揣
揦
揨
揩
揪
揭
揮
揲
揳
援
揶
揸
揹
揺
揼
揽
揾
揿
搀
搁
搂
搅
搆
搋
搌
損
搏
搐
搓
搔
搖
搗
搜
搞
搟
搠
搡
搣
搥
搦
搧
搨
搪
搫
搬
搭
搯
搲
搴
搵
搶
携
搽
搾
搿
摀
摁
摂
摃
摄
摆
摇
摈
摊
摑
摒
摔
摘
摛
摜
摞
摟
摠
摥
摧
摩
摭
摯
摰
摱
摳
摶
摷
摸
摹
摺
摻
摽
撂
撃
撅
撇
撈
撉
撐
撑
撒
撓
撕
撖
撘
撙
撚
撞
撠
撣
撤
撥
撨
撩
撫
撬
播
撮
撰
撲
撳
撵
撷
撸
撹
撺
撻
撼
撾
撿
擀
擁
擂
擄
擅
擇
擊
擋
操
擎
擒
擔
擕
擗
擘
據
擝
擞
擠
擡
擢
擣
擤
擦
擧
擩
擬
擯
擰
擱
擲
擳
擴
擶
擷
擸
擺
擻
擼
擽
擾
攀
攄
攅
攆
攈
攏
攒
攔
攖
攘
攙
攜
攝
攞
攢
攣
攤
攥
攦
攪
攫
攬
支
攰
攴
攵
收
攷
攸
改
攺
攻
放
政
敁
故
效
敉
敌
敍
敎
敏
救
敒
敔
敕
敖
敗
敘
教
敛
敝
敞
敢
散
敦
敩
敫
敬
数
敲
整
敵
敷
數
斁
斂
斃
斅
文
斉
斋
斌
斎
斐
斑
斓
斕
斗
料
斛
斜
斞
斟
斡
斤
斥
斧
斨
斩
斫
斬
断
斯
新
斲
斵
斷
斸
方
於
施
旁
旂
旃
旄
旅
旉
旋
旌
旍
旎
族
旒
旖
旗
旛
无
旡
既
旣
日
旦
旧
旨
早
旬
旭
旮
旯
旰
旱
旳
时
旷
旸
旺
旻
旼
旿
昀
昂
昃
昄
昆
昇
昉
昊
昌
昍
明
昏
昐
昑
易
昔
昕
昙
昜
昝
星
映
昤
春
昧
昨
昩
昪
昫
昭
是
昰
昱
昴
昵
昶
昹
昺
昻
昼
昽
显
晁
時
晃
晄
晈
晉
晋
晌
晏
晒
晓
晔
晕
晖
晗
晙
晚
晛
晝
晞
晟
晡
晢
晤
晦
晧
晨
晩
晫
普
景
晰
晳
晴
晶
晷
晹
智
晾
暁
暂
暄
暇
暈
暉
暋
暌
暍
暎
暏
暐
暑
暖
暗
暘
暝
暟
暠
暢
暦
暧
暨
暪
暫
暮
暱
暲
暴
暶
暸
暹
暻
暾
曁
曄
曆
曇
曈
曉
曌
曖
曙
曚
曜
曝
曠
曦
曨
曩
曬
曯
曰
曱
曲
曳
更
曵
曷
書
曹
曺
曻
曼
曽
曾
替
最
會
朄
朅
月
有
朊
朋
服
朏
朐
朔
朕
朗
朘
望
朝
朞
期
朦
朧
木
未
末
本
札
朮
术
朱
朴
朵
朶
朸
朹
机
朼
朽
朾
朿
杀
杁
杂
权
杆
杈
杉
李
杏
材
村
杓
杕
杖
杗
杘
杙
杜
杝
杞
束
杠
条
杢
杣
杤
来
杧
杨
杪
杭
杮
杯
杰
東
杲
杳
杵
杷
杻
杼
松
板
极
构
枅
枇
枉
枋
析
枒
枓
枕
枖
林
枘
枚
枛
果
枝
枞
枠
枡
枢
枣
枥
枩
枪
枫
枭
枯
枰
枱
枳
枴
架
枷
枸
枹
枻
柀
柁
柂
柃
柄
柊
柎
柏
某
柑
柒
染
柔
柕
柘
柙
柚
柜
柝
柞
柠
柢
查
柩
柪
柬
柯
柰
柱
柲
柳
柴
柵
柷
柺
査
柾
柿
栀
栂
栃
栄
栅
标
栈
栉
栊
栋
栎
栏
树
栓
栖
栗
栘
栞
校
栢
栩
株
栭
栱
栲
栳
栴
栵
样
核
根
栻
格
栽
栾
桀
桁
桂
桃
桅
框
案
桉
桋
桌
桎
桐
桑
桓
桔
桕
桙
桛
桜
桝
桟
桠
桡
桢
档
桥
桦
桧
桨
桩
桯
桴
桶
桷
桾
桿
梁
梂
梃
梅
梆
梌
梏
梓
梔
梗
梘
梛
梜
條
梟
梠
梢
梣
梦
梧
梨
梩
梭
梯
械
梱
梲
梳
梵
梶
梼
检
棂
棃
棄
棈
棉
棊
棋
棍
棐
棑
棒
棓
棔
棕
棗
棘
棙
棚
棟
棠
棣
棧
棨
棪
棫
棭
森
棰
棱
棲
棵
棹
棺
棻
棼
椀
椁
椄
椅
椊
椋
椌
植
椎
椏
椒
椙
椚
検
椥
椨
椪
椭
椰
椴
椶
椸
椹
椽
椿
楀
楂
楈
楊
楓
楔
楕
楗
楙
楚
楝
楞
楠
楡
楢
楣
楦
楨
楩
楪
楫
業
楮
楯
楳
極
楷
楸
楹
楼
楽
榀
榁
概
榄
榆
榈
榉
榊
榍
榎
榔
榕
榖
榗
榘
榙
榚
榛
榜
榦
榧
榨
榫
榭
榮
榰
榱
榲
榴
榷
榻
榿
槁
槃
槇
槊
構
槌
槍
槎
槐
槓
様
槙
槛
槝
槟
槠
槤
槥
槨
槪
槭
槲
槳
槴
槻
槽
槿
樁
樂
樅
樆
樉
樊
樋
樌
樍
樑
樒
樓
樔
樖
樗
樘
標
樞
樟
模
樣
樨
権
横
樫
樯
樱
樴
樵
樷
樸
樹
樺
樻
樽
樾
樿
橄
橅
橇
橈
橋
橐
橑
橖
橘
橙
橚
橛
橞
機
橡
橢
橥
橦
橫
橱
橹
橿
檀
檁
檄
檉
檍
檎
檐
檔
檗
檜
檟
檠
檢
檣
檥
檪
檫
檬
檮
檯
檳
檸
檻
櫂
櫃
櫆
櫈
櫍
櫐
櫓
櫔
櫚
櫛
櫝
櫞
櫟
櫥
櫧
櫨
櫪
櫫
櫲
櫳
櫶
櫸
櫺
櫻
欀
欄
欅
欉
權
欐
欑
欒
欖
欘
欝
欞
欠
次
欢
欣
欧
欲
欵
欷
欸
欺
欼
欽
款
歀
歂
歃
歆
歇
歉
歋
歌
歎
歐
歑
歓
歔
歙
歛
歟
歡
止
正
此
步
武
歧
歨
歩
歪
歯
歲
歳
歴
歷
歸
歹
歺
死
歼
歿
殀
殁
殂
殃
殄
殆
殇
殉
殊
残
殍
殒
殓
殖
殘
殚
殛
殞
殡
殤
殫
殭
殮
殯
殱
殲
殳
殴
段
殷
殺
殻
殼
殿
毀
毁
毂
毅
毆
毋
毌
母
毎
每
毐
毑
毒
毓
比
毕
毖
毗
毘
毙
毛
毡
毫
毬
毯
毽
氂
氅
氇
氈
氊
氌
氏
氐
民
氓
气
氖
気
氘
氙
氚
氛
氟
氠
氡
氢
氣
氤
氥
氦
氧
氨
氩
氪
氫
氬
氮
氯
氰
氲
氳
水
氷
永
氹
氼
氾
汀
汁
求
汆
汇
汈
汉
汊
汎
汐
汒
汔
汕
汗
汙
汚
汛
汜
汝
汞
江
池
污
汤
汥
汨
汩
汪
汭
汰
汱
汲
汴
汶
汹
決
汽
汾
沁
沂
沃
沅
沆
沈
沉
沊
沌
沏
沐
沒
沓
沔
沕
沖
沘
沙
沚
沛
沟
没
沢
沥
沦
沧
沩
沪
沫
沬
沭
沮
沱
河
沴
沶
沸
油
沺
治
沼
沽
沾
沿
況
泃
泄
泅
泇
泉
泊
泌
泐
泒
泓
泔
法
泗
泙
泚
泛
泝
泞
泠
泡
波
泣
泥
注
泪
泫
泭
泮
泯
泰
泱
泲
泳
泵
泷
泸
泺
泻
泼
泽
泾
洁
洄
洇
洋
洌
洎
洏
洑
洒
洗
洙
洚
洛
洞
洟
洣
津
洧
洩
洪
洮
洱
洲
洳
洴
洵
洶
洸
洹
活
洼
洽
派
流
浃
浄
浅
浆
浇
浈
浊
测
济
浏
浐
浑
浒
浓
浔
浙
浚
浜
浞
浠
浡
浣
浤
浥
浦
浩
浪
浬
浮
浯
浴
浵
海
浸
浹
涂
涅
涇
消
涉
涌
涎
涏
涑
涓
涔
涕
涙
涚
涛
涜
涝
涞
涟
涠
涡
涣
涤
润
涧
涨
涩
涪
涬
涮
涯
液
涵
涷
涸
涺
涼
涿
淀
淁
淂
淄
淅
淆
淇
淋
淌
淍
淏
淑
淒
淖
淘
淙
淚
淛
淝
淞
淡
淤
淥
淦
淨
淩
淪
淫
淬
淮
淯
淰
深
淲
淳
淵
淶
混
淸
淹
淺
添
淼
清
渇
済
渉
渊
渋
渍
渎
渐
渓
渔
渕
渗
渙
渚
減
渝
渟
渠
渡
渣
渤
渥
渦
温
渫
測
渭
港
渰
渲
渴
游
渺
渾
湃
湄
湅
湉
湊
湌
湍
湎
湑
湔
湖
湘
湛
湜
湞
湟
湣
湧
湫
湮
湯
湲
湳
湴
湼
湾
湿
満
溃
溅
溆
溈
溉
溌
溏
源
準
溘
溙
溜
溝
溟
溢
溣
溥
溦
溧
溪
溫
溯
溱
溲
溴
溶
溷
溺
溼
溽
滁
滂
滄
滅
滇
滉
滋
滌
滎
滏
滑
滓
滔
滕
滘
滙
滚
滝
滞
滟
满
滢
滤
滥
滦
滨
滩
滪
滬
滮
滯
滲
滳
滴
滷
滸
滹
滻
滾
滿
漁
漂
漃
漆
漇
漉
漎
漏
漑
漓
演
漕
漖
漚
漠
漢
漣
漥
漦
漩
漪
漫
漬
漯
漰
漱
漲
漳
漵
漶
漷
漸
漾
漿
潁
潅
潇
潋
潍
潑
潔
潘
潙
潚
潛
潜
潞
潟
潢
潤
潦
潭
潮
潯
潰
潲
潴
潸
潺
潼
潽
潾
潿
澀
澁
澂
澄
澆
澇
澈
澉
澌
澍
澎
澐
澔
澗
澜
澟
澠
澡
澣
澤
澥
澦
澧
澪
澱
澳
澶
澹
激
濁
濂
濃
濇
濉
濊
濑
濒
濔
濕
濘
濛
濞
濟
濠
濡
濤
濫
濬
濮
濯
濰
濱
濳
濵
濶
濹
濺
濼
濾
濿
瀁
瀅
瀆
瀉
瀋
瀌
瀍
瀏
瀑
瀕
瀘
瀚
瀛
瀝
瀞
瀟
瀠
瀡
瀣
瀦
瀧
瀨
瀫
瀬
瀰
瀱
瀲
瀷
瀹
瀼
瀾
瀿
灂
灃
灄
灌
灏
灑
灕
灘
灜
灝
灞
灠
灡
灣
灤
灦
火
灬
灭
灯
灰
灵
灶
灸
灼
災
灾
灿
炀
炁
炅
炆
炉
炊
炎
炒
炔
炕
炖
炘
炙
炜
炣
炤
炫
炬
炭
炮
炯
炳
炷
炸
点
為
炻
炼
炽
烁
烂
烃
烈
烊
烏
烒
烔
烘
烙
烚
烛
烜
烝
烟
烤
烦
烧
烨
烩
烫
烬
热
烯
烴
烷
烹
烺
烽
焄
焉
焊
焌
焔
焕
焖
焗
焘
焙
焚
焜
焠
無
焢
焦
焫
焮
焯
焰
焱
然
焼
煅
煆
煇
煉
煊
煌
煎
煐
煒
煕
煖
煙
煜
煞
煟
煠
煤
煥
煦
照
煨
煩
煬
煮
煲
煳
煸
煽
熄
熇
熈
熊
熏
熒
熔
熕
熗
熘
熙
熛
熜
熟
熠
熣
熤
熨
熬
熰
熱
熲
熵
熹
熺
熻
熾
燀
燁
燃
燄
燈
燉
燊
燎
燐
燒
燔
燕
燗
燙
燚
燜
營
燠
燢
燥
燦
燧
燨
燬
燭
燮
燴
燵
燶
燹
燻
燼
燾
燿
爀
爆
爌
爍
爐
爛
爨
爪
爫
爬
爭
爰
爱
爲
爵
父
爷
爸
爹
爺
爻
爼
爽
爾
爿
牀
牄
牆
片
版
牋
牌
牍
牒
牓
牔
牕
牖
牗
牘
牙
牛
牝
牟
牠
牡
牢
牤
牦
牧
物
牮
牯
牲
牴
牵
牷
牸
特
牺
牻
牽
牾
犀
犁
犂
犄
犆
犇
犊
犍
犒
犖
犛
犟
犠
犡
犢
犧
犬
犮
犯
犰
状
犷
犸
犹
狀
狂
狄
狆
狈
狋
狍
狎
狐
狒
狗
狙
狛
狞
狠
狡
狢
狥
狨
狩
狫
独
狭
狮
狰
狱
狲
狳
狵
狷
狸
狹
狼
狽
猁
猂
猊
猋
猎
猒
猕
猖
猗
猙
猛
猜
猝
猞
猟
猡
猢
猥
猨
猩
猪
猫
猬
献
猴
猶
猷
猻
猾
猿
獀
獁
獃
獄
獅
獎
獏
獐
獒
獗
獚
獞
獠
獣
獨
獪
獬
獭
獮
獰
獲
獴
獵
獷
獸
獺
獻
獼
獽
獾
玀
玄
玅
玆
率
玉
王
玎
玑
玒
玖
玘
玚
玛
玟
玠
玢
玥
玦
玧
玨
玩
玫
玮
环
现
玱
玲
玳
玷
玹
玺
玻
玼
玿
珀
珂
珅
珈
珉
珊
珍
珎
珏
珐
珑
珒
珓
珖
珘
珙
珞
珠
珣
珥
珩
珪
班
珮
珲
珶
珺
珽
現
琁
球
琅
理
琇
琉
琊
琍
琏
琐
琔
琚
琛
琟
琡
琢
琤
琥
琦
琨
琪
琫
琬
琮
琯
琰
琲
琳
琴
琵
琶
琹
琺
琼
琿
瑀
瑁
瑂
瑄
瑈
瑋
瑒
瑕
瑗
瑙
瑚
瑛
瑜
瑝
瑞
瑟
瑠
瑢
瑣
瑤
瑧
瑩
瑪
瑫
瑭
瑯
瑰
瑱
瑲
瑳
瑶
瑷
瑽
瑾
璀
璁
璂
璃
璄
璆
璇
璈
璉
璋
璎
璐
璘
璜
璞
璟
璠
璡
璣
璥
璦
璧
璨
璩
璫
環
璵
璷
璽
璿
瓈
瓉
瓊
瓏
瓒
瓔
瓖
瓘
瓚
瓜
瓞
瓠
瓢
瓣
瓤
瓦
瓩
瓮
瓯
瓴
瓶
瓷
瓿
甀
甁
甂
甃
甄
甌
甍
甎
甏
甑
甓
甕
甘
甙
甚
甜
甞
生
甡
產
産
甥
甦
用
甩
甪
甫
甬
甭
甯
田
由
甲
申
甴
电
男
甸
町
画
甾
甿
畀
畅
畆
畈
畊
畋
界
畏
畑
畔
留
畚
畛
畜
畝
畟
畠
畡
畢
畤
略
畦
畧
畩
番
畫
畬
畯
異
畲
畳
畴
畵
當
畷
畸
畹
畺
畽
畿
疃
疄
疆
疇
疊
疋
疍
疎
疏
疐
疑
疒
疓
疔
疗
疙
疚
疝
疟
疠
疡
疣
疤
疥
疪
疫
疮
疯
疱
疲
疳
疴
疵
疶
疸
疹
疻
疼
疽
疾
痀
痂
病
症
痈
痉
痊
痌
痍
痒
痔
痕
痘
痙
痛
痞
痟
痠
痡
痢
痣
痤
痦
痧
痨
痩
痪
痫
痰
痱
痲
痳
痴
痷
痹
痺
痻
痼
痾
痿
瘀
瘁
瘂
瘃
瘆
瘉
瘋
瘍
瘐
瘓
瘕
瘖
瘙
瘜
瘝
瘟
瘠
瘡
瘢
瘤
瘦
瘧
瘩
瘪
瘫
瘭
瘰
瘴
瘸
瘺
瘻
瘼
瘾
癀
療
癃
癆
癇
癈
癋
癌
癐
癒
癔
癖
癘
癜
癞
癟
癡
癢
癣
癤
癥
癧
癩
癪
癫
癬
癭
癮
癯
癰
癱
癲
癸
発
登
發
白
百
皀
皂
的
皆
皇
皈
皊
皋
皎
皐
皑
皓
皖
皙
皚
皞
皮
皰
皱
皴
皺
皽
皿
盂
盃
盅
盆
盈
益
盍
盎
盏
盐
监
盒
盔
盖
盗
盘
盛
盜
盞
盟
盡
監
盤
盥
盦
盧
盪
盬
目
盯
盱
盲
直
盷
相
盹
盼
盾
眀
省
眄
眇
眈
眉
看
県
眐
眙
眚
眛
眞
真
眠
眥
眦
眨
眩
眬
眭
眯
眱
眵
眶
眷
眸
眺
眼
眾
着
睁
睄
睇
睌
睏
睐
睑
睒
睖
睚
睛
睜
睞
睡
睢
督
睥
睦
睨
睪
睫
睬
睭
睹
睺
睽
睾
睿
瞂
瞄
瞅
瞇
瞋
瞌
瞎
瞑
瞒
瞓
瞞
瞟
瞠
瞥
瞧
瞩
瞪
瞬
瞭
瞰
瞳
瞶
瞹
瞻
瞼
瞽
瞿
矇
矋
矌
矍
矓
矖
矗
矚
矛
矜
矞
矢
矣
知
矧
矩
矫
矬
短
矮
矯
石
矶
矸
矼
矽
矾
矿
砀
码
砂
砅
砆
砌
砍
砑
砒
研
砕
砖
砚
砝
砠
砣
砥
砦
砧
砩
砬
砭
砯
砰
砱
砲
破
砵
砷
砸
砺
砻
砼
砾
础
硃
硅
硌
硎
硏
硐
硒
硕
硖
硚
硝
硞
硤
硫
硬
硭
确
硯
硷
硼
硾
碁
碇
碉
碌
碍
碎
碏
碑
碓
碕
碖
碗
碘
碚
碛
碜
碟
碣
碧
碩
碭
碰
碱
碲
碳
碴
碶
確
碻
碼
碾
磁
磅
磊
磋
磐
磑
磔
磕
磗
磚
磝
磠
磡
磣
磧
磨
磪
磬
磯
磴
磷
磺
磽
礀
礁
礄
礅
礎
礑
礒
礔
礙
礜
礡
礦
礩
礪
礫
礬
礮
礱
礴
礵
示
礼
礽
社
祀
祁
祂
祆
祇
祈
祉
祎
祏
祐
祓
祕
祖
祗
祘
祚
祛
祜
祝
神
祟
祠
祢
祥
祧
票
祩
祭
祯
祷
祸
祺
祼
祿
禀
禁
禄
禅
禊
禍
禎
福
禑
禓
禔
禕
禖
禚
禛
禝
禠
禡
禤
禥
禦
禧
禨
禪
禫
禮
禰
禱
禳
禶
禹
禺
离
禽
禾
禿
秀
私
秃
秄
秆
秈
秉
秊
秋
种
秏
科
秒
秕
秘
租
秣
秤
秦
秧
秩
秬
秭
积
称
秶
秸
移
秽
秾
稀
稃
稅
稈
程
稍
税
稔
稗
稙
稚
稜
稞
稟
稠
稡
稣
種
稯
稰
稱
稲
稳
稷
稹
稻
稼
稽
稿
穀
穂
穆
穌
積
穎
穏
穐
穑
穗
穜
穠
穡
穢
穣
穩
穫
穮
穰
穴
穵
究
穷
穸
穹
空
穾
穿
突
窃
窄
窈
窉
窍
窑
窒
窓
窕
窖
窗
窘
窜
窝
窞
窟
窠
窣
窥
窦
窨
窩
窪
窮
窯
窰
窳
窴
窸
窺
窻
窿
竃
竄
竅
竇
竈
竉
竊
立
竑
竖
站
竜
竝
竞
竟
章
竣
竤
童
竦
竪
竭
端
竴
競
竸
竹
竺
竽
竿
笀
笃
笄
笆
笈
笊
笋
笏
笑
笔
笕
笙
笛
笞
笠
笢
笤
笥
符
笨
笪
笫
第
笭
笮
笱
笲
笳
笵
笹
笺
笼
筅
筆
筇
筈
等
筊
筋
筌
筍
筏
筐
筑
筒
答
策
筚
筛
筝
筠
筣
筥
筦
筧
筩
筬
筮
筯
筰
筱
筲
筴
筵
筷
筹
签
简
箆
箇
箈
箋
箍
箎
箏
箐
箒
箔
箕
算
箙
箚
箜
箝
箠
管
箥
箩
箪
箫
箬
箭
箱
箴
箷
箸
節
篁
範
篆
篇
篈
築
篋
篌
篑
篓
篔
篙
篝
篠
篡
篤
篥
篦
篩
篪
篭
篮
篱
篲
篳
篶
篷
篼
篾
簀
簃
簆
簇
簋
簌
簍
簏
簑
簒
簗
簙
簜
簞
簠
簡
簣
簧
簪
簫
簮
簷
簸
簹
簺
簽
簾
簿
籀
籁
籃
籌
籍
籐
籓
籔
籙
籜
籟
籠
籡
籣
籤
籥
籬
籮
籲
米
籹
类
籽
籾
粂
粄
粉
粋
粍
粑
粒
粕
粗
粘
粛
粝
粞
粟
粢
粤
粥
粦
粧
粪
粮
粯
粱
粲
粳
粵
粹
粼
粽
精
粿
糀
糅
糈
糉
糊
糌
糍
糎
糒
糕
糖
糗
糙
糜
糝
糞
糟
糠
糢
糥
糧
糨
糬
糭
糯
糰
糲
糴
糶
糸
糺
系
糼
糾
紀
紂
約
紅
紆
紇
紈
紉
紊
紋
納
紐
紓
純
紕
紗
紘
紙
級
紛
紜
紝
紞
素
紡
索
紥
紧
紪
紫
紬
紭
紮
累
細
紱
紲
紳
紵
紸
紹
紺
紿
絀
絁
終
絃
組
絅
絆
絇
経
絎
絏
結
絓
絕
絖
絙
絛
絜
絝
絞
絡
絢
絣
給
絨
絪
絭
絮
統
絲
絳
絵
絶
絹
絽
絿
綁
綃
綉
綏
綑
經
継
続
綜
綝
綟
綠
綢
綣
綦
綪
綫
綬
維
綮
綰
綱
網
綴
綵
綷
綸
綹
綺
綻
綽
綾
綿
緃
緆
緇
緊
緋
緌
緍
緎
総
緑
緒
緖
緗
緘
緙
線
緜
緝
緞
締
緡
緣
緤
緥
編
緩
緬
緭
緯
緱
緲
練
緹
緻
縁
縄
縅
縈
縉
縊
縋
縐
縑
縒
縓
縛
縝
縞
縟
縢
縣
縦
縫
縭
縮
縯
縱
縳
縴
縵
縷
縹
縺
縻
總
績
繁
繃
繅
繆
繇
繊
繋
繌
繍
繑
繒
織
繕
繖
繙
繚
繝
繞
繟
繡
繦
繧
繩
繪
繫
繭
繮
繯
繰
繳
繹
繻
繼
繽
繾
纂
纇
纈
續
纍
纏
纐
纒
纓
纔
纕
纖
纘
纙
纛
纜
纟
纠
纡
红
纣
纤
纥
约
级
纨
纪
纫
纬
纭
纮
纯
纰
纱
纲
纳
纵
纶
纷
纸
纹
纺
纽
纾
线
绀
绁
练
组
绅
细
织
终
绉
绊
绌
绍
绎
经
绑
绒
结
绔
绕
绗
绘
给
绚
绛
络
绝
绞
统
绢
绣
绥
绦
继
绩
绪
绫
续
绮
绯
绰
绳
维
绵
绶
绷
绸
绺
绻
综
绽
绿
缀
缂
缃
缄
缅
缆
缇
缈
缉
缎
缒
缓
缔
缕
编
缗
缘
缚
缛
缜
缝
缠
缡
缢
缤
缥
缨
缩
缪
缭
缮
缰
缱
缴
缵
缶
缷
缸
缺
缽
罂
罄
罅
罈
罉
罊
罌
罍
罎
罐
网
罔
罕
罗
罘
罚
罝
罟
罠
罡
罢
罣
罦
罧
罩
罪
罫
置
罰
署
罵
罷
罹
罽
羁
羂
羅
羆
羇
羈
羊
羋
羌
美
羔
羕
羚
羝
羞
羟
羠
羡
羣
群
羥
羧
羨
義
羮
羯
羰
羲
羳
羶
羸
羹
羼
羽
羿
翀
翁
翅
翆
翊
翌
翎
習
翔
翕
翘
翚
翛
翝
翟
翠
翡
翥
翦
翩
翪
翫
翬
翮
翰
翱
翳
翹
翺
翻
翼
耀
老
考
耄
者
耆
耇
耋
而
耍
耏
耐
耑
耒
耔
耕
耖
耗
耘
耙
耜
耤
耦
耨
耬
耳
耵
耶
耷
耸
耻
耽
耿
聂
聃
聆
聊
聋
职
聍
聏
聒
联
聖
聘
聚
聝
聞
聟
聡
聨
聩
聪
聯
聰
聱
聲
聳
聴
聵
聶
職
聹
聼
聽
聾
聿
肃
肄
肅
肆
肇
肉
肋
肌
肓
肖
肘
肚
肛
肝
肟
肠
股
肢
肤
肥
肧
肩
肪
肫
肭
肮
肯
肱
育
肴
肶
肸
肺
肼
肽
肾
肿
胀
胁
胂
胃
胄
胆
背
胍
胎
胏
胔
胕
胖
胗
胙
胚
胛
胜
胝
胞
胡
胣
胤
胥
胧
胪
胫
胭
胯
胰
胱
胳
胴
胶
胸
胹
胺
胼
能
胾
脂
脅
脆
脇
脈
脉
脊
脍
脏
脐
脑
脓
脔
脕
脖
脗
脘
脚
脛
脢
脣
脤
脧
脩
脫
脯
脱
脲
脳
脷
脸
脹
脽
脾
脿
腆
腈
腊
腋
腌
腍
腎
腐
腑
腓
腔
腕
腘
腠
腢
腤
腥
腦
腧
腩
腫
腭
腮
腰
腱
腳
腴
腸
腹
腺
腻
腼
腾
腿
膀
膂
膃
膆
膇
膈
膊
膏
膓
膕
膘
膚
膛
膜
膝
膠
膣
膥
膦
膨
膩
膬
膰
膱
膳
膴
膵
膶
膺
膻
膽
膾
膿
臀
臂
臃
臅
臆
臈
臉
臊
臍
臏
臑
臓
臕
臖
臘
臙
臚
臟
臠
臢
臣
臤
臥
臧
臨
自
臬
臭
至
致
臺
臻
臼
臾
臿
舀
舁
舂
舄
舅
舆
與
興
舉
舊
舋
舌
舍
舎
舐
舒
舔
舖
舗
舘
舛
舜
舞
舟
舢
舤
舨
舩
航
舫
般
舯
舰
舱
舲
舳
舵
舶
舷
舸
船
舺
舾
艀
艄
艇
艉
艋
艎
艏
艘
艙
艟
艣
艤
艦
艨
艪
艫
艭
艮
良
艰
艱
色
艳
艶
艷
艸
艹
艺
艽
艾
艿
节
芃
芊
芋
芍
芎
芐
芑
芒
芓
芘
芙
芜
芝
芟
芠
芡
芥
芦
芧
芨
芩
芪
芫
芬
芭
芮
芯
芰
花
芳
芶
芷
芸
芹
芻
芼
芽
芾
芿
苁
苃
苅
苇
苋
苍
苏
苑
苒
苓
苔
苕
苖
苗
苙
苛
苜
苞
苟
苠
苡
苣
若
苦
苧
苩
苫
苯
英
苳
苴
苷
苹
苺
苻
苾
苿
茀
茁
茂
范
茄
茅
茈
茉
茌
茍
茎
茏
茔
茗
茘
茛
茜
茝
茞
茣
茧
茨
茫
茬
茭
茯
茱
茲
茴
茵
茶
茷
茸
茹
茻
茼
荀
荃
荅
荆
荇
草
荊
荋
荍
荏
荐
荑
荒
荔
荖
荘
荙
荚
荜
荞
荟
荠
荡
荣
荤
荥
荧
荨
荪
荫
药
荳
荴
荵
荷
荸
荻
荼
荽
荾
荿
莃
莅
莆
莇
莉
莊
莎
莒
莓
莖
莘
莙
莚
莛
莜
莞
莟
莠
莢
莧
莨
莩
莪
莫
莬
莱
莲
莳
莴
莵
获
莹
莺
莼
莽
莾
莿
菀
菁
菅
菇
菈
菊
菌
菎
菏
菓
菔
菖
菘
菜
菝
菟
菠
菡
菥
菩
菪
菫
華
菰
菱
菲
菴
菸
菹
菽
萁
萃
萄
萇
萊
萋
萌
萍
萎
萏
萘
萜
萝
萠
萢
萣
萤
营
萦
萧
萨
萩
萬
萭
萱
萵
萸
萼
落
萾
葀
葅
葆
葉
葊
葎
葑
葒
著
葙
葚
葛
葜
葟
葡
董
葦
葩
葫
葬
葭
葯
葰
葱
葳
葵
葷
葸
葺
蒂
蒇
蒋
蒌
蒐
蒓
蒔
蒗
蒙
蒜
蒝
蒞
蒟
蒠
蒡
蒨
蒭
蒯
蒲
蒴
蒸
蒹
蒻
蒼
蒿
蓀
蓁
蓂
蓄
蓆
蓉
蓊
蓋
蓐
蓑
蓓
蓖
蓙
蓝
蓟
蓠
蓣
蓧
蓨
蓬
蓮
蓯
蓴
蓼
蓽
蓾
蓿
蔀
蔆
蔈
蔏
蔑
蔓
蔔
蔕
蔗
蔘
蔚
蔞
蔟
蔠
蔡
蔣
蔥
蔦
蔧
蔪
蔫
蔬
蔭
蔯
蔴
蔵
蔷
蔺
蔻
蔼
蔽
蕀
蕁
蕃
蕆
蕈
蕉
蕊
蕎
蕓
蕔
蕕
蕖
蕗
蕘
蕙
蕞
蕠
蕢
蕤
蕨
蕩
蕪
蕫
蕭
蕮
蕲
蕴
蕷
蕸
蕹
蕻
蕾
薀
薄
薅
薇
薈
薊
薌
薏
薑
薔
薗
薘
薙
薛
薜
薠
薡
薤
薦
薨
薩
薪
薫
薬
薭
薮
薯
薰
薳
薹
薺
薾
藁
藇
藉
藍
藎
藏
藐
藓
藕
藜
藝
藤
藥
藨
藩
藪
藴
藷
藸
藹
藺
藻
藿
蘂
蘄
蘅
蘆
蘇
蘉
蘊
蘋
蘌
蘐
蘑
蘗
蘘
蘚
蘞
蘢
蘧
蘩
蘭
蘵
蘸
蘺
蘿
虍
虎
虏
虐
虑
虓
虔
處
虖
虙
虚
虛
虜
虞
號
虢
虧
虫
虬
虯
虱
虹
虺
虻
虼
虽
虾
蚀
蚁
蚂
蚊
蚌
蚍
蚓
蚕
蚚
蚜
蚝
蚣
蚤
蚧
蚩
蚪
蚫
蚬
蚯
蚰
蚱
蚴
蚵
蚶
蛀
蛄
蛆
蛇
蛉
蛊
蛋
蛍
蛎
蛐
蛔
蛘
蛙
蛛
蛞
蛟
蛤
蛭
蛮
蛯
蛰
蛱
蛳
蛷
蛸
蛹
蛺
蛻
蛾
蜀
蜁
蜂
蜃
蜆
蜇
蜈
蜉
蜊
蜋
蜍
蜎
蜑
蜒
蜓
蜕
蜗
蜘
蜚
蜜
蜞
蜡
蜢
蜥
蜩
蜱
蜴
蜷
蜻
蜼
蜿
蝇
蝉
蝋
蝌
蝍
蝎
蝑
蝓
蝕
蝗
蝙
蝟
蝠
蝣
蝤
蝥
蝦
蝨
蝪
蝮
蝯
蝰
蝱
蝴
蝶
蝸
蝻
蝼
蝾
蝿
螂
螃
螄
螅
螈
融
螔
螞
螟
螢
螣
螨
螫
螭
螯
螳
螺
螻
螽
蟀
蟄
蟆
蟇
蟊
蟋
蟎
蟑
蟒
蟙
蟚
蟛
蟜
蟝
蟠
蟣
蟥
蟧
蟪
蟬
蟯
蟲
蟳
蟶
蟷
蟹
蟻
蟾
蠁
蠃
蠄
蠅
蠆
蠋
蠍
蠏
蠐
蠑
蠓
蠔
蠕
蠖
蠜
蠟
蠡
蠢
蠣
蠪
蠰
蠱
蠲
蠵
蠶
蠹
蠻
蠾
血
衄
衅
衆
衊
衋
行
衍
衎
衒
術
衔
街
衙
衚
衛
衝
衞
衡
衢
衣
补
表
衩
衪
衫
衬
衭
衮
衰
衲
衴
衵
衷
衹
衽
衾
衿
袁
袂
袄
袅
袆
袈
袋
袍
袒
袓
袖
袗
袘
袙
袛
袜
袞
袢
袤
袪
被
袭
袰
袱
袲
袴
袷
袾
袿
裀
裁
裂
裃
裄
装
裆
裇
裊
裌
裎
裏
裔
裕
裘
裙
補
裝
裟
裡
裤
裥
裨
裱
裲
裳
裴
裵
裸
裹
製
裾
褀
褁
褂
褄
褆
複
褊
褌
褐
褒
褓
褔
褕
褚
褛
褞
褟
褡
褥
褦
褧
褪
褫
褯
褰
褲
褳
褴
褵
褶
褸
褹
褻
襁
襃
襄
襅
襉
襌
襖
襞
襟
襠
襤
襦
襪
襫
襬
襯
襱
襲
襴
襷
西
要
覂
覃
覆
覇
覈
見
規
覓
視
覗
覚
覡
覤
覦
覧
覩
親
覬
覮
覯
覲
観
覷
覺
覽
觀
见
观
规
觅
视
览
觉
觊
觍
觎
觐
觑
角
觓
觚
觜
觞
解
觥
触
觩
觯
觱
觴
觶
觸
觺
言
訂
訃
訄
訇
計
訉
訊
訌
討
訐
訑
訓
訕
訖
託
記
訛
訝
訟
訢
訣
訥
訪
設
許
訳
訴
訶
診
註
証
訾
訿
詁
詆
詈
詎
詏
詐
詑
詒
詔
評
詛
詞
詠
詡
詢
詣
詤
試
詨
詩
詫
詬
詭
詮
詰
話
該
詳
詵
詹
詼
誂
誃
誄
誅
誆
誇
誉
誊
誌
認
誑
誒
誓
誔
誕
誘
誚
語
誠
誡
誢
誣
誤
誥
誦
誧
誨
說
説
読
誰
課
誴
誹
誼
誾
調
諂
諄
諅
談
諉
請
諌
諍
諏
諑
諒
諓
論
諗
諚
諛
諜
諝
諟
諡
諢
諤
諦
諧
諫
諭
諮
諱
諳
諴
諶
諷
諸
諺
諼
諾
謀
謁
謂
謄
謅
謇
謊
謌
謎
謐
謑
謒
謔
謖
謗
謙
謚
講
謝
謠
謡
謢
謦
謧
謨
謪
謫
謬
謳
謷
謹
謻
謼
謾
譁
譄
譅
證
譎
譏
譓
譖
識
譙
譚
譛
譜
譞
譟
譠
警
譪
譫
譬
譭
譯
議
譲
譴
護
譽
譾
讀
讃
讆
讉
變
讌
讎
讐
讑
讒
讓
讕
讖
讚
讜
讞
计
订
讣
认
讥
讦
讧
讨
让
讪
讬
训
议
讯
记
讲
讳
讴
讶
讷
许
讹
论
讼
讽
设
访
诀
证
诃
评
诅
识
诈
诉
诊
诋
诌
词
诏
译
诒
诓
试
诗
诘
诙
诚
诛
话
诞
诟
诠
诡
询
诣
诤
该
详
诧
诨
诩
诫
诬
语
误
诰
诱
诲
诳
说
诵
诶
请
诸
诹
诺
读
诽
课
诿
谀
谁
谂
调
谄
谅
谆
谈
谊
谋
谌
谍
谎
谏
谐
谑
谒
谓
谔
谕
谗
谘
谙
谚
谛
谜
谞
谟
谠
谡
谢
谣
谤
谦
谧
谨
谩
谪
谫
谬
谭
谯
谰
谱
谲
谳
谴
谵
谶
谷
谿
豁
豆
豇
豈
豉
豊
豋
豌
豎
豐
豔
豕
豚
象
豢
豪
豫
豬
豰
豳
豵
豸
豹
豺
貂
貅
貆
貉
貊
貌
貍
貎
貐
貑
貓
貔
貘
貙
貝
貞
負
財
貢
貤
貧
貨
販
貪
貫
責
貮
貯
貰
貲
貳
貴
貶
買
貸
費
貼
貽
貿
賀
賁
賂
賃
賄
賅
資
賈
賊
賎
賑
賒
賓
賔
賕
賙
賚
賛
賜
賞
賠
賡
賢
賣
賤
賦
賧
賨
質
賬
賭
賴
賸
賺
賻
購
賽
賾
贄
贅
贇
贈
贊
贋
贍
贏
贓
贔
贖
贗
贘
贛
贜
贝
贞
负
贠
贡
财
责
贤
败
账
货
质
贩
贪
贫
贬
购
贮
贯
贰
贱
贲
贴
贵
贷
贸
费
贺
贻
贼
贽
贾
贿
赁
赂
赃
资
赅
赇
赈
赊
赋
赌
赎
赏
赐
赓
赔
赖
赘
赚
赛
赝
赞
赟
赠
赡
赢
赣
赤
赦
赧
赩
赫
赭
走
赳
赴
赵
赶
起
趁
趄
超
越
趋
趎
趐
趑
趔
趕
趖
趙
趟
趣
趨
趪
趫
趬
足
趴
趷
趸
趺
趾
趿
跂
跃
跄
跆
跋
跌
跎
跏
跐
跑
跖
跗
跙
跚
跛
距
跟
跡
跣
跤
跦
跧
跨
跩
跪
跫
路
跲
跳
践
跶
跷
跺
跻
跼
踀
踄
踅
踉
踊
踌
踎
踏
踐
踔
踖
踘
踝
踞
踟
踢
踦
踧
踨
踩
踪
踫
踬
踭
踮
踯
踰
踱
踴
踵
踹
踼
踽
蹂
蹄
蹇
蹈
蹉
蹊
蹋
蹌
蹍
蹎
蹑
蹒
蹓
蹔
蹕
蹙
蹚
蹞
蹟
蹠
蹡
蹢
蹣
蹤
蹦
蹧
蹩
蹬
蹭
蹯
蹰
蹱
蹲
蹴
蹶
蹺
蹻
蹼
蹿
躁
躂
躄
躅
躇
躉
躊
躋
躍
躏
躑
躓
躔
躕
躗
躘
躙
躚
躝
躞
躟
躠
躡
躤
躥
躦
躪
身
躬
躯
躰
躲
躹
躺
躽
躾
軀
軂
軄
軆
軈
車
軋
軌
軍
軑
軒
軓
軔
軚
軛
軟
転
軫
軬
軭
軸
軹
軺
軻
軼
軽
軾
輀
較
輇
載
輊
輋
輌
輒
輓
輔
輕
輘
輛
輜
輝
輞
輟
輥
輦
輩
輪
輭
輯
輳
輷
輸
輻
輾
輿
轂
轄
轅
轆
轇
轉
轍
轎
轑
轓
轕
轖
轘
轚
轜
轝
轟
轡
轢
轤
车
轧
轨
轩
轫
转
轭
轮
软
轰
轲
轴
轵
轶
轸
轻
轼
载
轾
轿
辁
较
辄
辅
辆
辈
辉
辍
辎
辐
辑
输
辔
辕
辖
辗
辘
辙
辛
辜
辞
辟
辠
辣
辥
辦
辧
辨
辩
辫
辭
辮
辯
辰
辱
農
辷
边
辺
辻
込
辽
达
辿
迁
迂
迄
迅
迆
过
迈
迊
迎
迏
运
近
返
还
这
迚
进
远
违
连
迟
迢
迣
迤
迥
迦
迨
迩
迪
迫
迭
述
迳
迴
迷
迸
迹
迺
迻
迼
追
迾
退
送
适
逃
逄
逅
逆
选
逊
逋
逍
透
逐
逑
递
逓
途
逕
逖
逗
這
通
逛
逝
逞
速
造
逡
逢
連
逤
逦
逭
逮
逯
週
進
逳
逵
逶
逷
逸
逹
逻
逼
逾
遁
遂
遄
遅
遇
遉
遊
運
遍
過
遏
遐
遑
遒
道
達
違
遗
遘
遙
遛
遜
遝
遞
遠
遡
遢
遣
遥
遨
適
遪
遭
遮
遯
遲
遴
遵
遶
遷
選
遺
遼
遽
避
邀
邁
邂
邃
還
邇
邈
邉
邊
邋
邏
邐
邑
邓
邕
邗
邙
邛
邝
邠
邡
邢
那
邦
邨
邪
邬
邮
邯
邰
邱
邳
邴
邵
邸
邹
邺
邻
邽
邾
郁
郃
郄
郅
郊
郎
郏
郑
郓
郗
郛
郜
郝
郞
郟
郡
郢
郤
郦
郧
部
郫
郭
郯
郱
郴
郵
郷
郸
都
郾
鄂
鄄
鄅
鄆
鄉
鄎
鄒
鄔
鄕
鄖
鄗
鄙
鄚
鄜
鄞
鄠
鄢
鄧
鄭
鄮
鄯
鄰
鄱
鄲
鄳
鄴
鄶
鄺
酆
酈
酉
酊
酋
酌
配
酎
酏
酐
酒
酔
酗
酚
酛
酝
酞
酡
酢
酣
酥
酩
酪
酬
酮
酯
酰
酱
酲
酵
酶
酷
酸
酹
酺
酿
醂
醃
醅
醇
醉
醋
醌
醍
醐
醒
醗
醚
醛
醜
醞
醢
醣
醤
醨
醪
醫
醬
醮
醯
醱
醳
醴
醵
醸
醺
釀
釁
釅
釆
采
釈
釉
释
釋
里
重
野
量
釐
金
釔
釕
釗
釘
釙
釚
釜
針
釞
釣
釤
釦
釧
釩
釵
釷
釹
釻
釼
釿
鈀
鈁
鈄
鈇
鈈
鈉
鈊
鈍
鈎
鈐
鈑
鈔
鈕
鈙
鈞
鈣
鈦
鈧
鈪
鈮
鈰
鈳
鈴
鈷
鈸
鈺
鈽
鈾
鈿
鉀
鉄
鉅
鉆
鉇
鉈
鉉
鉋
鉍
鉎
鉏
鉑
鉕
鉗
鉚
鉛
鉞
鉢
鉤
鉦
鉬
鉭
鉱
鉲
鉳
鉴
鉶
鉷
鉸
鉻
鉼
鉾
銀
銃
銅
銈
銍
銑
銒
銓
銕
銖
銘
銙
銚
銛
銜
銠
銡
銣
銥
銦
銧
銨
銪
銫
銬
銭
銮
銲
銳
銶
銷
銹
銻
銼
鋁
鋂
鋃
鋅
鋆
鋇
鋈
鋌
鋍
鋏
鋐
鋑
鋒
鋓
鋕
鋖
鋘
鋙
鋜
鋝
鋞
鋟
鋠
鋡
鋣
鋤
鋥
鋨
鋩
鋪
鋬
鋭
鋮
鋯
鋰
鋲
鋳
鋸
鋹
鋺
鋻
鋼
鋿
錀
錁
錄
錆
錇
錍
錐
錒
錔
錕
錘
錙
錚
錛
錞
錠
錡
錢
錣
錤
錥
錦
錨
錩
錫
錬
錮
錯
錱
録
錳
錵
錶
錸
錺
鍁
鍇
鍊
鍋
鍍
鍐
鍑
鍔
鍘
鍚
鍛
鍠
鍥
鍬
鍮
鍰
鍱
鍵
鍶
鍺
鍼
鍾
鎂
鎅
鎈
鎊
鎌
鎏
鎔
鎖
鎗
鎘
鎚
鎛
鎢
鎣
鎦
鎧
鎩
鎬
鎭
鎮
鎯
鎰
鎳
鎴
鎵
鎸
鎹
鏃
鏇
鏈
鏊
鏌
鏏
鏐
鏑
鏖
鏗
鏘
鏜
鏝
鏞
鏟
鏠
鏡
鏢
鏤
鏦
鏧
鏨
鏱
鏵
鏸
鏹
鏽
鐃
鐇
鐐
鐔
鐖
鐘
鐙
鐚
鐠
鐡
鐧
鐪
鐫
鐮
鐲
鐳
鐵
鐶
鐸
鐺
鐽
鑀
鑁
鑄
鑅
鑊
鑌
鑐
鑑
鑒
鑓
鑚
鑛
鑞
鑠
鑢
鑣
鑨
鑪
鑫
鑭
鑰
鑲
鑴
鑵
鑷
鑼
鑽
鑾
鑿
钁
钆
钇
针
钉
钊
钋
钌
钍
钎
钏
钒
钓
钕
钖
钗
钙
钚
钛
钜
钝
钞
钟
钠
钡
钢
钥
钦
钧
钨
钩
钪
钮
钯
钰
钱
钲
钳
钴
钵
钸
钹
钺
钻
钼
钽
钾
钿
铀
铁
铂
铃
铄
铅
铆
铉
铊
铋
铌
铎
铐
铑
铓
铗
铛
铜
铝
铟
铠
铡
铢
铣
铤
铧
铨
铩
铬
铭
铮
铯
铰
铱
铲
铵
银
铷
铸
铺
铻
铽
链
铿
销
锁
锂
锃
锄
锅
锆
锇
锈
锉
锋
锌
锏
锐
锑
锒
锕
错
锚
锟
锠
锡
锢
锣
锤
锥
锦
锨
锭
键
锯
锰
锱
锲
锴
锵
锶
锷
锹
锺
锻
锽
锾
镀
镁
镂
镇
镉
镊
镌
镍
镏
镐
镑
镒
镔
镕
镖
镙
镛
镜
镝
镞
镠
镣
镧
镨
镫
镬
镭
镯
镰
镳
镶
長
镸
镻
镼
长
門
閂
閃
閆
閇
閉
開
閎
閏
閑
閒
間
閔
閘
閙
閞
閡
関
閣
閤
閥
閦
閨
閩
閪
閬
閭
閯
閰
閱
閲
閶
閹
閻
閼
閾
閿
闃
闅
闆
闇
闈
闊
闋
闌
闍
闐
闓
闔
闕
闖
闗
闘
關
闞
闡
闢
闥
门
闩
闪
闫
闭
问
闯
闰
闲
间
闵
闷
闸
闹
闺
闻
闼
闽
闾
阀
阁
阂
阄
阅
阆
阇
阈
阉
阊
阋
阌
阎
阐
阑
阔
阕
阖
阗
阙
阚
阜
阝
队
阡
阨
阪
阮
阯
阰
阱
防
阳
阴
阵
阶
阻
阽
阿
陀
陁
陂
陃
附
际
陆
陇
陈
陉
陋
陌
降
限
陑
陔
陕
陘
陛
陜
陝
陞
陟
陡
院
陣
除
陥
陨
险
陪
陬
陰
陲
陳
陴
陵
陶
陷
陸
険
陽
隃
隅
隆
隈
隊
隋
隍
階
随
隐
隔
隕
隖
隗
隘
隙
際
障
隠
隣
隧
隨
險
隱
隲
隳
隴
隶
隷
隸
隹
隻
隼
隽
难
雀
雁
雄
雅
集
雇
雈
雉
雊
雋
雌
雍
雎
雏
雑
雒
雕
雖
雙
雛
雜
雞
離
難
雨
雩
雪
雫
雯
雰
雲
雳
零
雷
雹
電
雾
需
霁
霄
霅
霆
震
霈
霉
霊
霍
霎
霏
霑
霓
霖
霙
霜
霞
霧
霨
霭
霰
露
霸
霹
霽
霾
靂
靄
靈
靏
靑
青
靓
靖
静
靚
靛
靜
非
靠
靡
面
靥
靦
靨
革
靫
靬
靭
靱
靳
靴
靶
靷
靺
靼
靾
鞁
鞄
鞅
鞆
鞈
鞋
鞍
鞏
鞑
鞕
鞘
鞜
鞞
鞠
鞢
鞣
鞦
鞨
鞭
鞮
鞴
韁
韃
韆
韈
韋
韌
韐
韓
韙
韜
韞
韡
韦
韧
韩
韪
韫
韬
韭
韮
音
韴
韵
韶
韻
韾
響
頁
頂
頃
項
順
頇
須
頊
頌
頎
預
頑
頒
頓
頔
頗
領
頚
頜
頡
頤
頦
頫
頬
頭
頰
頴
頵
頷
頸
頹
頻
頼
頽
顃
顆
題
額
顎
顏
顒
顓
顔
顕
顗
願
顙
顚
顛
類
顢
顥
顧
顪
顫
顯
顰
顱
顳
顴
页
顶
顷
顸
项
顺
须
顽
顾
顿
颀
颁
颂
预
颅
领
颇
颈
颊
颌
颍
颐
频
颓
颕
颖
颗
题
颚
颜
额
颞
颟
颠
颢
颤
颥
颦
颧
風
颩
颪
颮
颯
颱
颳
颶
颷
颸
颺
颼
颿
飀
飃
飄
飆
飇
飈
飊
风
飏
飒
飓
飕
飘
飙
飚
飛
飜
飞
食
飡
飢
飥
飧
飨
飩
飪
飫
飭
飮
飯
飲
飴
飼
飽
飾
餃
餅
餈
餉
養
餌
餐
餑
餒
餓
餔
餘
餙
餚
餛
餝
餞
餠
餡
餤
館
餬
餭
餮
餵
餸
餺
餽
餾
餿
饂
饃
饅
饈
饉
饋
饌
饑
饒
饔
饕
饗
饜
饞
饟
饥
饨
饪
饬
饭
饮
饯
饰
饱
饲
饴
饵
饶
饷
饺
饼
饽
饿
馀
馁
馄
馅
馆
馈
馊
馋
馍
馏
馐
馑
馒
馔
馕
首
馗
馘
香
馞
馡
馣
馥
馨
馬
馭
馮
馱
馳
馴
馹
馼
駁
駄
駅
駆
駈
駐
駑
駒
駕
駘
駙
駛
駝
駟
駡
駢
駤
駭
駮
駰
駱
駸
駹
駿
騁
騂
騃
騄
騅
騊
騎
騏
騐
騒
験
騖
騙
騜
騣
騨
騫
騭
騮
騰
騷
騸
騺
騾
驀
驁
驃
驄
驅
驊
驌
驍
驒
驕
驗
驚
驛
驟
驢
驤
驥
驦
驩
驪
驫
马
驭
驮
驯
驰
驱
驳
驴
驶
驹
驻
驼
驽
驾
驿
骁
骂
骄
骅
骆
骇
骈
骉
骊
骋
验
骏
骐
骑
骓
骗
骚
骛
骜
骝
骠
骡
骢
骤
骥
骦
骧
骨
骯
骰
骶
骷
骸
骹
骼
骾
髀
髁
髂
髄
髅
髋
髌
髏
髑
髒
髓
體
髕
髖
高
髙
髟
髡
髢
髣
髦
髧
髪
髫
髭
髮
髯
髱
髴
髷
髹
髻
髾
鬂
鬃
鬆
鬈
鬍
鬓
鬗
鬘
鬙
鬚
鬛
鬟
鬢
鬣
鬤
鬥
鬦
鬧
鬨
鬩
鬪
鬭
鬮
鬯
鬰
鬱
鬲
鬷
鬺
鬻
鬼
魁
魂
魃
魄
魅
魆
魇
魈
魉
魍
魎
魏
魑
魔
魘
魚
魟
魠
魨
魩
魯
魰
魴
魶
魷
魽
魿
鮃
鮋
鮎
鮐
鮑
鮒
鮓
鮞
鮨
鮪
鮫
鮭
鮮
鮸
鮹
鯀
鯁
鯆
鯇
鯉
鯊
鯓
鯔
鯕
鯖
鯛
鯝
鯡
鯢
鯣
鯤
鯧
鯨
鯪
鯯
鯰
鯱
鯵
鯷
鯽
鯿
鰀
鰂
鰃
鰄
鰆
鰈
鰉
鰊
鰌
鰍
鰎
鰐
鰒
鰓
鰕
鰜
鰡
鰣
鰤
鰥
鰨
鰩
鰬
鰭
鰮
鰯
鰰
鰱
鰲
鰵
鰹
鰺
鰻
鰽
鰾
鰿
鱀
鱆
鱈
鱉
鱊
鱒
鱓
鱔
鱖
鱗
鱘
鱝
鱟
鱠
鱣
鱤
鱧
鱭
鱮
鱲
鱶
鱷
鱸
鱺
鱼
鱿
鲁
鲃
鲅
鲇
鲈
鲉
鲍
鲎
鲑
鲔
鲕
鲗
鲛
鲜
鲞
鲟
鲠
鲡
鲢
鲣
鲤
鲧
鲨
鲫
鲭
鲯
鲱
鲲
鲳
鲵
鲶
鲷
鲸
鲹
鲻
鲼
鳀
鳃
鳄
鳅
鳇
鳌
鳍
鳎
鳏
鳐
鳔
鳕
鳖
鳗
鳙
鳝
鳞
鳟
鳢
鳥
鳧
鳩
鳯
鳰
鳳
鳴
鳶
鳺
鳼
鳽
鴃
鴆
鴇
鴈
鴉
鴎
鴒
鴕
鴛
鴜
鴝
鴞
鴟
鴣
鴦
鴨
鴫
鴬
鴯
鴴
鴺
鴻
鴿
鵄
鵆
鵊
鵐
鵑
鵓
鵜
鵝
鵞
鵟
鵠
鵡
鵤
鵪
鵬
鵯
鵰
鵲
鵴
鵹
鵺
鵻
鶁
鶄
鶇
鶉
鶏
鶓
鶘
鶚
鶥
鶩
鶯
鶲
鶴
鶵
鶺
鶻
鶼
鶿
鷀
鷁
鷂
鷄
鷓
鷗
鷙
鷚
鷜
鷞
鷥
鷦
鷭
鷯
鷰
鷲
鷳
鷸
鷹
鷺
鸀
鸁
鸃
鸇
鸉
鸌
鸒
鸕
鸚
鸛
鸝
鸞
鸟
鸠
鸡
鸢
鸣
鸥
鸦
鸨
鸩
鸪
鸫
鸬
鸭
鸮
鸯
鸲
鸳
鸵
鸶
鸷
鸸
鸺
鸻
鸽
鸾
鸿
鹀
鹂
鹃
鹄
鹅
鹈
鹉
鹊
鹋
鹌
鹍
鹏
鹑
鹕
鹖
鹗
鹘
鹚
鹛
鹜
鹞
鹟
鹠
鹤
鹦
鹧
鹨
鹩
鹪
鹫
鹬
鹭
鹮
鹰
鹱
鹳
鹵
鹸
鹹
鹼
鹽
鹿
麁
麂
麃
麈
麋
麌
麐
麒
麓
麗
麛
麝
麞
麟
麥
麦
麩
麪
麫
麯
麱
麴
麵
麸
麹
麺
麻
麼
麽
麾
麿
黃
黄
黌
黍
黎
黏
黐
黑
黒
黔
默
黙
黚
黛
黜
黝
點
黟
黠
黡
黢
黥
黧
黨
黩
黮
黯
黴
黵
黷
黹
黻
黼
黽
黿
鼆
鼇
鼈
鼉
鼋
鼎
鼐
鼓
鼙
鼚
鼠
鼡
鼤
鼩
鼬
鼯
鼱
鼴
鼷
鼹
鼺
鼻
鼽
鼾
齊
齋
齎
齏
齐
齒
齕
齙
齜
齟
齡
齢
齣
齦
齧
齪
齬
齲
齶
齷
齿
龃
龄
龅
龇
龈
龉
龊
龋
龌
龍
龎
龐
龑
龔
龕
龗
龙
龚
龛
龜
龟
龠
龢
龥
ꆐ
ꙑ
ꙗ
ꜜ
ꜣ
ꜥ
ꞃ
ꠉ
ꠍ
ꠎ
ꠐ
ꠘ
ꠛ
ꠟ
ꠢ
ꠤ
ꦃ
ꦄ
ꦈ
ꦊ
ꦎ
ꦏ
ꦒ
ꦔ
ꦕ
ꦗ
ꦚ
ꦛ
ꦝ
ꦠ
ꦤ
ꦥ
ꦧ
ꦩ
ꦪ
ꦫ
ꦭ
ꦮ
ꦱ
ꦲ
ꦴ
ꦺ
ꦾ
ꦿ
꧀
꧇
꧋
꧖
ꩡ
ꩦ
ꩧ
ꩨ
ꩪ
ꩮ
ꩻ
ꬠ
ꬤ
ꭶ
ꭹ
ꭿ
ꮃ
ꮅ
ꮎ
ꮒ
ꮙ
ꮝ
ꮞ
ꮟ
ꮡ
ꮣ
ꮤ
ꮧ
ꮳ
ꮷ
ꮼ
ꮿ
ꯑ
ꯔ
ꯕ
ꯗ
ꯟ
ꯡ
ꯣ
﨑
﨟
ﬁ
ﬂ
ﭔ
ﭖ
ﭗ
ﭘ
ﭙ
ﭛ
ﭜ
ﭝ
ﭞ
ﭠ
ﭡ
ﭢ
ﭤ
ﭥ
ﭧ
ﭨ
ﭩ
ﭪ
ﭬ
ﭭ
ﭲ
ﭳ
ﭴ
ﭵ
ﭸ
ﭺ
ﭻ
ﭼ
ﭽ
ﮀ
ﮁ
ﮂ
ﮃ
ﮄ
ﮅ
ﮈ
ﮉ
ﮊ
ﮋ
ﮎ
ﮏ
ﮐ
ﮑ
ﮒ
ﮓ
ﮔ
ﮕ
ﮖ
ﮘ
ﮙ
ﮞ
ﮟ
ﮠ
ﮡ
ﮢ
ﮣ
ﮦ
ﮧ
ﮨ
ﮩ
ﮪ
ﮫ
ﮬ
ﮭ
ﮮ
ﮯ
ﯓ
ﯔ
ﯕ
ﯖ
ﯗ
ﯘ
ﯙ
ﯚ
ﯛ
ﯜ
ﯞ
ﯟ
ﯦ
ﯧ
ﯨ
ﯩ
ﯪ
ﯫ
ﯬ
ﯭ
ﯮ
ﯰ
ﯲ
ﯴ
ﯸ
ﯻ
ﯼ
ﯽ
ﯾ
ﯿ
ﰲ
ﱃ
ﱄ
ﱐ
ﱘ
ﱠ
ﱡ
ﱢ
ﱪ
ﱱ
ﱲ
ﱳ
ﱴ
ﱵ
ﱶ
ﲎ
ﲏ
ﲑ
ﲔ
ﲟ
ﲣ
ﲨ
ﲪ
ﳉ
ﳊ
ﳋ
ﳌ
ﳍ
ﳐ
﴾
﴿
ﶈ
ﷲ
ﷴ
ﷺ
︰
︱
︳
︽
︾
﹁
﹂
﹄
﹋
﹏
﹐
﹑
﹒
﹔
﹕
﹖
﹗
﹙
﹚
﹛
﹝
﹞
﹣
﹥
﹪
ﹰ
ﹶ
ﺀ
ﺁ
ﺂ
ﺃ
ﺄ
ﺅ
ﺆ
ﺇ
ﺉ
ﺋ
ﺌ
ﺍ
ﺎ
ﺏ
ﺐ
ﺑ
ﺒ
ﺓ
ﺔ
ﺕ
ﺖ
ﺗ
ﺘ
ﺙ
ﺚ
ﺛ
ﺜ
ﺝ
ﺞ
ﺟ
ﺠ
ﺡ
ﺢ
ﺣ
ﺤ
ﺥ
ﺦ
ﺧ
ﺨ
ﺩ
ﺪ
ﺫ
ﺬ
ﺭ
ﺮ
ﺯ
ﺰ
ﺱ
ﺲ
ﺳ
ﺴ
ﺵ
ﺶ
ﺷ
ﺸ
ﺹ
ﺺ
ﺻ
ﺼ
ﺽ
ﺾ
ﺿ
ﻀ
ﻁ
ﻂ
ﻃ
ﻄ
ﻅ
ﻆ
ﻇ
ﻈ
ﻉ
ﻊ
ﻋ
ﻌ
ﻍ
ﻎ
ﻏ
ﻐ
ﻑ
ﻒ
ﻓ
ﻔ
ﻕ
ﻖ
ﻗ
ﻘ
ﻙ
ﻚ
ﻛ
ﻜ
ﻝ
ﻞ
ﻟ
ﻠ
ﻡ
ﻢ
ﻣ
ﻤ
ﻥ
ﻦ
ﻧ
ﻨ
ﻩ
ﻪ
ﻫ
ﻬ
ﻭ
ﻮ
ﻯ
ﻰ
ﻱ
ﻲ
ﻳ
ﻴ
ﻵ
ﻷ
ﻸ
ﻹ
ﻻ
ﻼ
！
＂
＃
＄
％
＆
＇
（
）
＊
＋
，
－
．
／
０
１
２
３
４
５
６
７
８
９
：
；
＜
＝
＞
？
＠
［
＼
］
＾
＿
｀
ａ
ｂ
ｃ
ｄ
ｅ
ｆ
ｇ
ｈ
ｉ
ｊ
ｋ
ｌ
ｍ
ｎ
ｏ
ｐ
ｑ
ｒ
ｓ
ｔ
ｕ
ｖ
ｗ
ｘ
ｙ
ｚ
｛
｜
｝
～
｟
｠
｡
｢
｣
､
･
ｧ
ｪ
ｫ
ｬ
ｭ
ｯ
ｰ
ｱ
ｲ
ｳ
ｴ
ｵ
ｶ
ｷ
ｸ
ｹ
ｼ
ｽ
ｾ
ｿ
ﾀ
ﾁ
ﾄ
ﾆ
ﾇ
ﾈ
ﾉ
ﾊ
ﾋ
ﾍ
ﾎ
ﾏ
ﾐ
ﾕ
ﾗ
ﾘ
ﾚ
ﾝ
ﾞ
ﾟ
￠
￡
￣
￥
￼
𐀍
𐀓
𐀠
𐀴
𐁁
𐌱
𐌹
𐍁
𐍊
𐎠
𐎢
𐎤
𐎬
𐎱
𐎹
𐎼
𐎽
𐏁
𐒀
𐒈
𐒋
𐒑
𐒒
𐒕
𐒘
𐒛
𐤀
𐤁
𐤃
𐤍
𐤑
𐰆
𐰉
𐰑
𐰔
𐰣
𐰸
𐰺
𐱃
𑂍
𑂏
𑂔
𑂠
𑂣
𑂦
𑂨
𑂩
𑂭
𑂰
𑂲
𑂷
𒀸
𒁺
𒂆
𒄑
𒈦
𒋗
𓅓
𓆎
𓊖
𓏏
𝑒
𝑔
𝑘
𝑝
𝑟
𝑡
𝘍
𝘢
𝘶
𝘹
𝘺
🇦
🇪
🇮
🇱
🇲
🇳
🇴
🇵
🇷
🇸
🇹
🇺
🇻
🇽
🌀
🌄
🌍
🌎
🌚
🌱
🌸
🌹
🍋
🍺
🎄
🎋
🎤
🐝
🐟
🐳
🐶
🐸
🐺
👇
👈
👉
👊
👋
👌
👍
👎
👏
👑
👕
👖
👣
👹
💃
💋
💎
💓
💕
💖
💗
💙
💚
💛
💜
💝
💞
💣
💩
💪
💸
📌
📚
📧
🔘
🔥
🔫
😀
😁
😂
😃
😅
😆
😇
😈
😉
😊
😋
😍
😎
😏
😑
😒
😔
😕
😘
😙
😚
😛
😜
😝
😞
😠
😡
😢
😣
😤
😧
😨
😫
😬
😭
😮
😯
😰
😱
😳
😴
😻
🙈
🙊
🙌
🙏
𠊎
𠊛
𠝹
𠮨
𠮾
𠱁
𠱂
𠱓
𠱸
𠲜
𠳏
𠴕
𠴱
𠵇
𠵱
𠸉
𠸏
𠹌
𠹭
𠹺
𠺝
𠺢
𠺫
𠻗
𠻹
𠻺
𠼻
𠽌
𠽤
𠾴
𠿪
𡀔
𡀲
𡁜
𡁵
𡁻
𡃁
𡃉
𡃓
𡃶
𡰪
𡲗
𡳞
𡵢
𢄂
𢆡
𢑥
𢫏
𢬿
𢭃
𢯎
𢱕
𢳂
𢴒
𣑲
𣾀
𤓓
𤗲
𤘅
𤮨
𥄫
𥇣
𥊙
𥌛
𥐞
𦟌
𦤏
𦧲
𦰡
𦵏
𧊅
𧐅
𧕴
𧙗
𧢝
𧣾
𧩙
𧴱
𨃩
𨇣
𨋢
𨏍
𨒂
𨣦
𨮁
𨯩
𩄲
𩰫
𩼈
𪏙
𪙛
𫍙
𫓧
𫗮
𫚈
##م
##د
##ى
##ᅵ
##ᄉ
##ᆷ
##ᄋ
##ᅳ
##ᆯ
##ᄌ
##ᆼ
##ᄆ
##ᅧ
##ᄒ
##ᅡ
##ᆫ
##ᄀ
##ᅥ
##ᆺ
##ᄅ
##ᅩ
##ᆻ
##ᄃ
##n
##o
##g
##u
##m
##a
##h
##e
##t
##i
##j
##y
##c
##z
##l
##s
##v
##r
##b
##p
##d
##w
##ᄂ
##ᄄ
##ᅢ
##ᄎ
##ᅮ
##ᆨ
##ᅬ
##k
##л
##и
##ј
##а
##н
##е
##f
##ۆ
##ر
##ە
##ي
##ۇ
##р
##к
##ர
##ம
##ப
##ா
##ய
##ி
##ு
##ந
##த
##ன
##မ
##ယ
##ဆ
##ပ
##ြ
##း
##в
##х
##м
##া
##য
##ᄇ
##ᆸ
##た
##め
##の
##サ
##ホ
##ー
##ト
##を
##す
##る
##こ
##と
##っ
##ら
##う
##か
##マ
##シ
##ン
##カ
##て
##あ
##れ
##ن
##س
##ت
##ش
##x
##ı
##q
##ণ
##ট
##ৰ
##ি
##গ
##ে
##ড
##ತ
##ರ
##ಸ
##ಶ
##ಕ
##ನ
##ು
##ದ
##ಯ
##ಲ
##ಪ
##ಡ
##ವ
##ಾ
##ಗ
##ყ
##ვ
##ი
##ნ
##თ
##ა
##ე
##ბ
##ク
##は
##お
##т
##г
##ᄐ
##ย
##ช
##ว
##ต
##ผ
##ि
##द
##श
##ी
##ह
##र
##ल
##ा
##ई
##อ
##ม
##ท
##ᅦ
##ᆰ
##ι
##α
##λ
##ο
##γ
##κ
##τ
##η
##ᅱ
##о
##ε
##ρ
##β
##ν
##ς
##ᅪ
##ᄁ
##ᅴ
##ᄏ
##ᆽ
##ᆭ
##त
##म
##स
##प
##ण
##क
##ᆾ
##ə
##3
##0
##7
##9
##6
##8
##न
##ड
##य
##п
##ω
##σ
##θ
##ด
##ெ
##ை
##க
##ூ
##ற
##ብ
##ለ
##ሎ
##ም
##ا
##ق
##ی
##ه
##ล
##ะ
##ฉ
##น
##เ
##ข
##ദ
##ാ
##ച
##ര
##മ
##ല
##യ
##ങ
##ള
##ി
##ൽ
##צ
##א
##י
##ה
##ם
##خ
##ف
##ᅨ
##ᅲ
##ᇁ
##ச
##ተ
##ባ
##በ
##ራ
##ቸ
##ው
##ና
##ф
##с
##і
##ヒ
##テ
##ィ
##ෙ
##ා
##ඉ
##ව
##ස
##න
##వ
##న
##ు
##క
##င
##သ
##ၺ
##ႇ
##ၵ
##ၼ
##િ
##લ
##ો
##ન
##ા
##ᅣ
##ᄊ
##ာ
##တ
##ေ
##მ
##რ
##უ
##დ
##ง
##บ
##ก
##ண
##ட
##ജ
##ഹ
##ക
##ം
##و
##پ
##ә
##ь
##һ
##ዲ
##ያ
##ላ
##ك
##よ
##に
##ᅭ
##ᇀ
##ᇂ
##ع
##ل
##ն
##ձ
##ե
##コ
##メ
##ラ
##ム
##タ
##န
##ည
##က
##ት
##ጒ
##ታ
##త
##ర
##ప
##ష
##ల
##ط
##ة
##ኾ
##ሰ
##ᆩ
##1
##2
##ร
##พ
##า
##แ
##ફ
##ഷ
##േ
##ഭ
##လ
##ႈ
##ၸ
##ၢ
##ႉ
##ำ
##ค
##ප
##ද
##ය
##ద
##గ
##ట
##ც
##ص
##ح
##ይ
##ስ
##ረ
##ን
##ম
##ল
##ন
##ø
##し
##ノ
##ロ
##ب
##ရ
##വ
##ൾ
##з
##ң
##ห
##ክ
##ሮ
##ቻ
##ች
##ೕ
##ಳ
##య
##స
##థ
##మ
##እ
##መ
##थ
##च
##4
##ब
##ो
##ᆮ
##у
##ч
##ం
##చ
##ぬ
##い
##く
##み
##ハ
##5
##ट
##จ
##โ
##ส
##ფ
##გ
##ს
##ઊ
##д
##я
##ـ
##ത
##പ
##െ
##ട
##ൻ
##ھ
##ድ
##ኽ
##ک
##ঠ
##স
##ত
##ী
##ং
##ঘ
##র
##ষ
##ক
##ز
##υ
##π
##φ
##ю
##щ
##व
##ᱟ
##ᱸ
##ᱠ
##ᱨ
##ᱤ
##ᱛ
##ደ
##ግ
##ፋ
##٧
##٠
##レ
##ッ
##ェ
##ማ
##ጅ
##ነ
##ശ
##സ
##ർ
##ש
##ר
##ศ
##ळ
##ব
##জ
##ဖ
##စ
##ফ
##দ
##ใ
##ภ
##ษ
##ฮ
##ॉ
##ხ
##ო
##२
##३
##८
##ग
##အ
##ျ
##ಹ
##ೂ
##ಷ
##ಬ
##ಂ
##ы
##ת
##ו
##מ
##ญ
##ป
##ถ
##ᄑ
##ሚ
##ቀ
##ጥ
##ழ
##ல
##ᅯ
##ᆹ
##ી
##ર
##એ
##ج
##ീ
##な
##گ
##ဟ
##ュ
##ஸ
##ス
##শ
##ष
##ခ
##б
##ц
##ए
##आ
##נ
##ח
##ш
##ן
##ே
##வ
##ዓ
##ቚ
##ቡ
##ጎ
##ጃ
##ಮ
##ד
##ע
##ไ
##உ
##ର
##ସ
##ା
##ቅ
##ज
##ɣ
##ត
##រ
##ន
##េ
##ះ
##ឈ
##ម
##ោ
##ង
##គ
##ល
##ស
##ק
##ਗ
##ਡ
##ਾ
##ਨ
##ਵ
##エ
##ל
##ט
##ჯ
##ტ
##ሸ
##ቶ
##δ
##ਮ
##ന
##ភ
##ទ
##វ
##យ
##ា
##ព
##হ
##ও
##כ
##ض
##హ
##æ
##қ
##ث
##კ
##ል
##ከ
##も
##ள
##ב
##ס
##ү
##ପ
##କ
##झ
##റ
##ढ
##ዛ
##ນ
##ທ
##ໃ
##ດ
##ອ
##ງ
##ຟ
##າ
##ກ
##ເ
##ຕ
##ມ
##ໄ
##ປ
##ວ
##ຍ
##ບ
##ະ
##ຮ
##ສ
##ລ
##ພ
##ຜ
##ຈ
##ɛ
##ڕ
##ێ
##ഫ
##ኸ
##ኣ
##ኑ
##ប
##ើ
##ជ
##ធ
##ែ
##ខ
##ዘ
##ሁ
##उ
##भ
##そ
##オ
##ਰ
##ਿ
##ੀ
##ਏ
##ਚ
##ҳ
##ৈ
##ጋ
##ま
##ዅ
##ኵ
##ሳ
##ဝ
##ႃ
##ր
##թ
##լ
##ħ
##ቱ
##ડ
##ત
##ዕ
##ሡ
##ɔ
##ထ
##ө
##э
##ට
##ග
##አ
##ठ
##ß
##ʼ
##ғ
##イ
##ナ
##ါ
##େ
##ଳ
##ତ
##ନ
##ध
##わ
##せ
##さ
##き
##চ
##ছ
##ঃ
##ગ
##ဇ
##ገ
##ක
##ⵎ
##ⵓ
##ⴼ
##ⵖ
##ቘ
##ጸ
##ር
##ካ
##ዶ
##چ
##ಣ
##ሊ
##ኮ
##ቹ
##પ
##ટ
##ણ
##ષ
##થ
##פ
##ɩ
##ः
##ա
##գ
##ի
##ս
##տ
##ո
##կ
##ը
##ሉ
##ქ
##ჰ
##ზ
##შ
##ই
##٥
##ళ
##ዳ
##ቁ
##ዋ
##ኦ
##ፎ
##খ
##ሕ
##ᄍ
##ธ
##り
##ሞ
##ዱ
##ア
##ル
##ツ
##や
##ဒ
##ʊ
##ŋ
##ሙ
##ፍ
##ዊ
##ж
##ﻻ
##ɖ
##ూ
##డ
##প
##ங
##غ
##හ
##ռ
##ց
##ख
##ซ
##ਣ
##इ
##ጊ
##ዮ
##ⴰ
##ⵏ
##ⴻ
##ഘ
##ಥ
##ஜ
##મ
##ક
##μ
##የ
##ቂ
##ڭ
##ݢ
##ળ
##બ
##５
##９
##ⵉ
##ⴷ
##ƒ
##ौ
##ۋ
##ټ
##ے
##ල
##ᆱ
##ڤ
##ቺ
##ዝ
##ቫ
##ኪ
##ቋ
##ਕ
##ਫ
##ⵙ
##ⴽ
##ⵛ
##ł
##ቕ
##ฎ
##ہ
##ಟ
##ઇ
##હ
##ય
##ሩ
##ᱦ
##ᱭ
##ᱰ
##ᱮ
##ᱥ
##ᱚ
##ᱱ
##ᆲ
##ဥ
##ឡ
##ក
##ៅ
##ឆ
##១
##៩
##៧
##ണ
##フ
##チ
##ဘ
##մ
##փ
##ङ
##ソ
##જ
##ሑ
##リ
##ヤ
##আ
##থ
##ð
##ଶ
##ଭ
##ଷ
##キ
##ହ
##ମ
##ୀ
##ୟ
##ଙ
##ኝ
##፷
##፭
##χ
##ⵣ
##ლ
##ਥ
##ਤ
##ネ
##ⴹ
##ⵡ
##ⵜ
##ҷ
##ൈ
##ಠ
##љ
##վ
##ふ
##ଇ
##ଦ
##ବ
##ႁ
##ಭ
##ధ
##ଟ
##ଆ
##ଲ
##ฤ
##ฆ
##ሬ
##ᱣ
##ᱝ
##ኩ
##ظ
##फ
##ʻ
##ᅫ
##ಧ
##ٹ
##బ
##ャ
##њ
##ね
##શ
##ጠ
##ኃ
##శ
##つ
##ၶ
##ධ
##ර
##ଗ
##અ
##ᄈ
##ቝ
##ቦ
##ニ
##ฏ
##ฟ
##ዩ
##ህ
##સ
##વ
##ઓ
##ቐ
##ณ
##ろ
##ウ
##ヘ
##ᱯ
##ᱲ
##ඩ
##බ
##ෑ
##ې
##ҙ
##ጆ
##ወ
##ጀ
##ょ
##ん
##ほ
##ഗ
##ణ
##छ
##ζ
##ឃ
##ញ
##ៃ
##ច
##ហ
##ផ
##អ
##ਓ
##ਸ
##ਇ
##ג
##ヨ
##೨
##೬
##೪
##ፀ
##ኞ
##ಆ
##ധ
##ﻮ
##ﺷ
##ﯘ
##ﻧ
##ﻠ
##ﯩ
##ﺮ
##ﻯ
##ⴱ
##ⵢ
##ኋ
##ፓ
##け
##ჩ
##ႄ
##є
##ᱞ
##ᱴ
##ᆶ
##セ
##ゆ
##ၽ
##ഴ
##ٲ
##ڳ
##ｓ
##ሏ
##ז
##ଞ
##ଚ
##ଥ
##ଏ
##ਠ
##ﻵ
##ಚ
##ۈ
##ξ
##ւ
##չ
##モ
##ভ
##ဢ
##ኤ
##ծ
##խ
##ᱢ
##ጭ
##đ
##է
##ք
##ち
##ැ
##ණ
##ຫ
##ړ
##ೖ
##ጻ
##ፊ
##ｴ
##ဗ
##ժ
##ዀ
##ⵋ
##ဂ
##წ
##ৎ
##ጮ
##ኺ
##ሽ
##ڵ
##ဉ
##ቆ
##ሹ
##ኖ
##ך
##ঞ
##յ
##ਬ
##ਜ
##բ
##દ
##ઠ
##ٽ
##ء
##భ
##ዉ
##ⵇ
##ዴ
##ፉ
##ఉ
##ォ
##ァ
##ๆ
##դ
##շ
##ჭ
##ጣ
##ឯ
##ណ
##ዙ
##ኒ
##ዞ
##ৱ
##ʋ
##ቓ
##へ
##ৗ
##ഡ
##ኛ
##ฐ
##ډ
##ګ
##ଃ
##ଧ
##ⵔ
##ፈ
##ሱ
##ಜ
##ቲ
##ஃ
##ђ
##ઝ
##ሃ
##ধ
##अ
##घ
##ጹ
##ძ
##ኘ
##এ
##ᆬ
##ጓ
##ଡ
##ත
##ఫ
##ቛ
##ኻ
##ψ
##ଣ
##ｯ
##ъ
##ሓ
##ƙ
##□
##ღ
##ञ
##ⵍ
##ಖ
##ધ
##ሠ
##ሶ
##ቃ
##ᱷ
##ᱫ
##ဣ
##ሪ
##ਹ
##ਲ
##պ
##ذ
##ڙ
##ሌ
##ղ
##ដ
##ଉ
##ృ
##జ
##ఞ
##ঙ
##ڍ
##ڻ
##ɗ
##ළ
##ඳ
##ഖ
##ਦ
##ઉ
##ഠ
##ұ
##ஷ
##ൺ
##և
##հ
##ៀ
##ୱ
##ኡ
##პ
##१
##९
##ں
##ҡ
##ೃ
##ബ
##え
##ම
##ճ
##ᅤ
##ጵ
##ਉ
##џ
##ચ
##৻
##ኗ
##ච
##ಘ
##٣
##ෘ
##ෂ
##ଜ
##ኢ
##ョ
##ଠ
##ڪ
##४
##၅
##၂
##၉
##၀
##ዎ
##ဋ
##ဌ
##ሥ
##۳
##۰
##ቬ
##፲
##፯
##ቭ
##ฝ
##ጽ
##զ
##ɓ
##ﱠ
##ຣ
##ຖ
##ﻦ
##ሻ
##ऐ
##ミ
##ዬ
##ៗ
##ڊ
##ዒ
##ᱡ
##ᱩ
##ዑ
##ഥ
##ቢ
##ጦ
##ឲ
##°
##ﻷ
##ջ
##ሐ
##ፏ
##ץ
##ថ
##ⵄ
##ⴳ
##ጨ
##ｲ
##ケ
##ખ
##৮
##٩
##٢
##०
##ଂ
##ґ
##١
##ແ
##ٱ
##૦
##૮
##૧
##ᱳ
##ૌ
##ひ
##ਆ
##ɲ
##ఠ
##ጧ
##ሺ
##ሖ
##¬
##ఖ
##ᱵ
##ፕ
##ओ
##ڏ
##ഞ
##ڑ
##ಢ
##ኟ
##ﺸ
##ﺘ
##ﺍ
##ﻛ
##ﭽ
##ﯨ
##ﻐ
##ﺎ
##ڦ
##ஞ
##ዪ
##ௗ
##ਘ
##៤
##៥
##ቴ
##ゃ
##ף
##۷
##۵
##ሜ
##ዚ
##ቪ
##ጉ
##ಫ
##۸
##ฑ
##ਈ
##ꞃ
##ዜ
##ಞ
##অ
##ဈ
##´
##ⵕ
##ଖ
##ଛ
##ሲ
##ਟ
##ਊ
##җ
##೯
##ៈ
##ឋ
##ワ
##ዐ
##ᱹ
##ሔ
##ฒ
##ऋ
##þ
##ⵃ
##×
##ഢ
##ｅ
##ｌ
##ሟ
##ॊ
##ǝ
##ഃ
##ဠ
##օ
##ћ
##ၾ
##উ
##ଯ
##ໆ
##ੜ
##ఢ
##ఎ
##ઈ
##ઘ
##ﺭ
##ﮔ
##ﻨ
##৬
##৩
##٨
##ථ
##༤
##ག
##む
##ൗ
##ຽ
##ږ
##ۍ
##ｍ
##ૉ
##ሴ
##ቾ
##ዢ
##ሾ
##ⵗ
##५
##ዥ
##ҫ
##ਢ
##ᱜ
##ᱼ
##૩
##అ
##᱘
##᱗
##᱕
##ਝ
##ਐ
##ຢ
##ሒ
##ఐ
##ጂ
##ႊ
##ጺ
##ጕ
##ઃ
##১
##৫
##০
##৪
##৯
##ቷ
##ఓ
##ᆿ
##ਪ
##ፂ
##ፁ
##ፖ
##០
##ቄ
##ঢ
##ጐ
##ژ
##ಎ
##ኙ
##ፃ
##ભ
##ቤ
##ᱽ
##ऊ
##ඟ
##ଓ
##இ
##৭
##ቑ
##ኹ
##៣
##២
##ᅰ
##ఆ
##ఒ
##ఙ
##ః
##ڈ
##ઞ
##ӊ
##ජ
##೮
##೫
##ፅ
##ዖ
##ኳ
##ઢ
##ጡ
##ຂ
##ﱢ
##ⵂ
##ˈ
##᱑
##᱙
##ː
##ဏ
##උ
##ඨ
##ශ
##ፒ
##ڼ
##ఘ
##ɨ
##ጫ
##७
##භ
##ឮ
##৷
##ቧ
##０
##６
##ڽ
##ჟ
##எ
##ஹ
##۴
##ֆ
##ቍ
##ᱶ
##ဍ
##¢
##ጾ
##ኬ
##౦
##ዷ
##འ
##۲
##ⴾ
##ۏ
##ٺ
##ゅ
##ﻟ
##ﻌ
##ﻴ
##ﻢ
##ਅ
##ڠ
##＝
##ڬ
##ﾝ
##ಛ
##ഈ
##ਯ
##၇
##එ
##ኔ
##ሯ
##ኅ
##ၻ
##ຄ
##ऽ
##۱
##ໂ
##ሄ
##ஈ
##၃
##၁
##ആ
##ឧ
##ځ
##છ
##ꜜ
##ښ
##ං
##ଅ
##ﻹ
##ϑ
##ଵ
##ᱧ
##ቿ
##ጩ
##℃
##ቨ
##ឝ
##ሣ
##ဓ
##༧
##པ
##ঝ
##ｼ
##ɑ
##६
##ﾀ
##ሂ
##º
##২
##ሆ
##၆
##ඥ
##ユ
##ˆ
##ヵ
##ऑ
##ⵚ
##ଫ
##༩
##༣
##༥
##ຳ
##ቖ
##ཐ
##ጢ
##ڀ
##ਧ
##୯
##୦
##ｐ
##ﺯ
##ໜ
##୬
##ዠ
##ⴶ
##ፐ
##ĳ
##ዤ
##ቮ
##ઍ
##ሀ
##ຊ
##ໝ
##ဎ
##ฯ
##೩
##೭
##ゥ
##۹
##ሷ
##ぇ
##ጌ
##ෆ
##ɫ
##આ
##٤
##ઐ
##ጤ
##ዌ
##ቼ
##ﺪ
##ﻩ
##ឌ
##٦
##ጁ
##ዔ
##ڧ
##૯
##ಅ
##ﻪ
##ﺏ
##ⵆ
##ඹ
##₂
##ਭ
##ན
##ང
##ፌ
##ฬ
##᱐
##᱒
##ڄ
##ዃ
##ඬ
##ᱪ
##ஐ
##ኜ
##ヶ
##ﯚ
##ﻜ
##ﺴ
##ﻰ
##ଢ
##ﻣ
##ኰ
##څ
##３
##ぉ
##ﻳ
##ﯔ
##ⵊ
##၄
##ª
##ፆ
##ۄ
##೦
##ഛ
##ඡ
##΄
##ጶ
##ⵟ
##૭
##૨
##૪
##ڌ
##ڃ
##അ
##−
##ቈ
##ෟ
##ዦ
##ဧ
##໖
##ʃ
##ﳌ
##ﻋ
##ﺕ
##៦
##ቒ
##ఛ
##ኚ
##ਖ
##ལ
##ဃ
##ઑ
##ᱬ
##ඔ
##ར
##ས
##◯
##ｗ
##ঐ
##ඇ
##ឿ
##ぁ
##ﺳ
##ƭ
##ﻓ
##ﺖ
##ሦ
##ሼ
##၈
##ٿ
##ﻘ
##ﻞ
##۽
##എ
##ஆ
##ɐ
##ⵥ
##᱔
##ヌ
##ୗ
##ឬ
##૬
##ឱ
##ﻼ
##ﻫ
##ⵅ
##ѕ
##ᆪ
##۶
##ଈ
##ゝ
##ﮪ
##ﭘ
##ಃ
##ᱺ
##ཁ
##མ
##ﺩ
##ﻡ
##ਛ
##ﮬ
##ഓ
##ឣ
##૫
##ಒ
##ጪ
##ﺉ
##ఽ
##ﺗ
##ﯟ
##ﻥ
##ʒ
##ฌ
##༠
##༡
##ཀ
##ʹ
##அ
##ﯽ
##ɪ
##བ
##ཆ
##ఱ
##ኂ
##ʿ
##ෛ
##අ
##œ
##ዯ
##ｉ
##ዟ
##µ
##ኲ
##ଝ
##ﯧ
##ﭗ
##ⵀ
##᱖
##औ
##୮
##୪
##ﻇ
##ﻔ
##ဿ
##୭
##ﻭ
##ﻲ
##ʾ
##੦
##੮
##ﻤ
##ﺔ
##ዾ
##ዼ
##፱
##፻
##፺
##៨
##８
##ዡ
##ଘ
##ｱ
##ད
##ˁ
##ഇ
##ຝ
##ඃ
##ڱ
##ཉ
##ឥ
##˝
##ऒ
##୨
##ආ
##£
##፩
##፮
##ㅋ
##ɡ
##೧
##ɬ
##～
##ڇ
##ʔ
##፴
##፬
##୫
##ሿ
##ඒ
##ﺑ
##ﻖ
##ഐ
##ۃ
##ڨ
##ˌ
##７
##１
##ጬ
##ಐ
##ⵈ
##ឫ
##፶
##ፔ
##⁄
##ﾋ
##᱓
##ʁ
##፰
##ѳ
##ﯕ
##ﺠ
##ඛ
##ఁ
##ഒ
##ŀ
##ඵ
##፳
##ײ
##ቜ
##ཝ
##፪
##ဩ
##ƴ
##ﾁ
##ཏ
##ඝ
##ጇ
##ⵯ
##ƚ
##ፑ
##ಏ
##㎝
##ጄ
##ጲ
##ﺌ
##፫
##ዣ
##ኼ
##ఇ
##ﯾ
##༨
##ཟ
##ၿ
##ﺰ
##ﯞ
##ﻗ
##２
##ɚ
##ﾘ
##ａ
##ﻁ
##ｃ
##ｄ
##ｔ
##㈜
##ﻬ
##႐
##႙
##ſ
##ﮙ
##ጳ
##ܘ
##ܪ
##ܝ
##ܐ
##ٻ
##ऍ
##ੳ
##ෲ
##㈱
##ﻊ
##ʀ
##ɳ
##ނ
##ޑ
##ކ
##√
##ಇ
##ꩡ
##ඤ
##፹
##༦
##༢
##ﮂ
##ﻱ
##ጴ
##ﱡ
##＋
##ጰ
##ቊ
##ﮅ
##😭
##ಝ
##³
##👌
##ඕ
##ཅ
##￼
##ዂ
##ｖ
##─
##ㅎ
##ㄴ
##ﯜ
##ﯛ
##ﭖ
##ﾕ
##ｆ
##ᱻ
##୧
##ﯗ
##ﭙ
##ﷲ
##ﺐ
##ཌ
##ﻸ
##ɞ
##¤
##႑
##ヲ
##ᆴ
##²
##ｂ
##ឍ
##ﺒ
##ٴ
##ቯ
##¦
##ٶ
##ﺨ
##ﺼ
##໔
##໕
##໙
##ၥ
##ʣ
##ൿ
##ⵧ
##୩
##々
##ﺧ
##ﺋ
##ﻕ
##ཕ
##ƃ
##ቩ
##●
##😘
##😍
##◦
##ﻑ
##ㅠ
##໓
##ʐ
##ཇ
##໘
##໗
##ๅ
##ﾈ
##ഉ
##ಉ
##ˑ
##ఈ
##˚
##ｇ
##ﮯ
##ﯿ
##ﮟ
##ﮫ
##ཡ
##ɵ
##ཚ
##ᜎ
##ᜄ
##፸
##ཛ
##¸
##４
##ʎ
##ℓ
##ﻆ
##፵
##∴
##ఏ
##ஓ
##ஊ
##ﺱ
##ᆵ
##∼
##ɾ
##ｎ
##ஒ
##ʌ
##ഏ
##ⅱ
##ჲ
##ꩪ
##℅
##۞
##ﭭ
##ㆍ
##ঈ
##ﮕ
##ｶ
##ʺ
##ʏ
##⋯
##۾
##ኀ
##ཞ
##ၷ
##ጼ
##®
##ʲ
##ஏ
##😡
##ኧ
##ﺀ
##㎢
##ʑ
##★
##ﻂ
##ｒ
##↑
##÷
##ԥ
##ሤ
##ŧ
##ⵒ
##ﻄ
##ﺤ
##ﻏ
##װ
##๔
##๕
##ℳ
##ઙ
##ﬁ
##ཤ
##ඪ
##ཎ
##ঊ
##ඞ
##ﯙ
##ʉ
##←
##ﯼ
##ኆ
##ಓ
##₁
##ﺟ
##႒
##ꮼ
##ꮒ
##ꭿ
##ꮝ
##ꮧ
##ゐ
##੯
##੭
##ཨ
##൯
##₦
##ҧ
##ӡ
##ﺛ
##ൎ
##ឦ
##💃
##ﷺ
##႕
##႔
##㎜
##㎉
##๐
##๓
##๙
##ﾎ
##ཙ
##ဤ
##ﺵ
##ऎ
##ॲ
##ｏ
##゜
##ਔ
##ᮏ
##ᮝ
##ᮜ
##ɟ
##ﭪ
##႘
##ᮌ
##∙
##ܦ
##ܠ
##໐
##ﭼ
##ఋ
##±
##ҵ
##႓
##㎞
##ߦ
##ﯬ
##ވ
##ހ
##ੲ
##𐒘
##𐒈
##𐒑
##𐒛
##𐒒
##𐒕
##𐒀
##ɒ
##ˠ
##ﺇ
##ϱ
##ϛ
##ⲁ
##ⲗ
##ⲙ
##ﺅ
##ﺬ
##ꩮ
##ꩦ
##ኄ
##ゑ
##ｘ
##ʧ
##ʂ
##ﺲ
##ܗ
##ഔ
##ጯ
##🐝
##ヽ
##ሢ
##ﯖ
##ﻙ
##ଋ
##ゎ
##❞
##ሇ
##ϕ
##ኍ
##ﺆ
##😧
##ኁ
##ᠣ
##ᡤ
##ᠨ
##႞
##ｕ
##∶
##ǀ
##ఊ
##ﻚ
##ɦ
##ઋ
##ಙ
##ൡ
##๗
##ﭺ
##→
##ၹ
##ঔ
##ᨒ
##ᨚ
##☆
##ﾊ
##ዸ
##ﺣ
##ﳊ
##ጿ
##ꦩ
##꧀
##ꦥ
##ꦪ
##ꦔ
##ꦤ
##੨
##੬
##ឳ
##¨
##ቔ
##ⵤ
##ｫ
##ױ
##ﭡ
##ⶉ
##¥
##≤
##ʰ
##ﾆ
##ፄ
##ﮢ
##ｋ
##ꦮ
##႖
##ܟ
##ܙ
##ⵌ
##ඊ
##ｊ
##ﭤ
##😜
##ⁿ
##ʷ
##ဪ
##ﺶ
##€
##ↄ
##ƫ
##ຯ
##ⲉ
##ⲧ
##ⲣ
##ⲛ
##ⲭ
##ⲏ
##ⲓ
##ਃ
##ᨕ
##ꙑ
##ᎁ
##ጘ
##ঋ
##ƣ
##൨
##¹
##႗
##ҟ
##ꮙ
##ꮿ
##ҥ
##ɴ
##౮
##ﻈ
##ｈ
##ﺓ
##ӈ
##ヰ
##੧
##ﭧ
##ﮣ
##ᮎ
##ᮦ
##ᮊ
##ಋ
##ʽ
##∕
##ឪ
##ﻀ
##⁶
##ጱ
##ﱵ
##ᚹ
##ᚩ
##ᛗ
##ᚢ
##ˣ
##ӄ
##㎡
##ⶀ
##ዽ
##😕
##😑
##ｷ
##ㆀ
##👍
##ཊ
##ॡ
##ݣ
##ㄱ
##ヮ
##💣
##ᮃ
##ㅇ
##ﾏ
##😒
##ﮞ
##ӕ
##ឰ
##♡
##ᛞ
##ᛁ
##༸
##ⲕ
##ⲟ
##ʱ
##ʈ
##ﮏ
##ጝ
##ﭠ
##ｙ
##ﮡ
##ಈ
##≪
##ｚ
##ﮐ
##˜
##ᓇ
##ᕗ
##ᑦ
##ᖽ
##ᐧ
##ᖿ
##੪
##ᮍ
##ᮛ
##ᮔ
##᮪
##○
##🙌
##ﻒ
##ﺿ
##ﻉ
##ﺻ
##ﯦ
##ꙗ
##ѥ
##๒
##๘
##½
##ⅰ
##ﮦ
##ﲑ
##∞
##⋅
##ၚ
##™
##😂
##⁵
##ڥ
##ﻝ
##ܒ
##ܬ
##😋
##ၦ
##ߞ
##ߏ
##ၤ
##ၣ
##ㅍ
##⁹
##ⴴ
##ʤ
##😇
##🎄
##ˇ
##♭
##ﮑ
##ଐ
##൦
##൧
##ぅ
##ﺾ
##ﮁ
##ඈ
##ﾞ
##ｽ
##𐌱
##ލ
##■
##ﯓ
##ᓄ
##ᐃ
##ඌ
##ʦ
##≡
##ڢ
##ۊ
##ჳ
##╱
##ϖ
##ᵘ
##੩
##੫
##໒
##ㅏ
##๑
##😴
##♥
##₱
##ᮒ
##ᮞ
##ᮇ
##ぃ
##ⵠ
##ⵁ
##ﮄ
##៛
##ﳉ
##〒
##ﮘ
##😊
##ꦱ
##ꦠ
##ሧ
##ɹ
##ﭬ
##😁
##ㅡ
##🇸
##🇴
##≈
##ɕ
##˙
##ⅹ
##ｑ
##😬
##㏄
##￥
##ㄚ
##ﮠ
##≫
##ཪ
##ˋ
##〆
##ʝ
##˭
##ˊ
##ɜ
##ɤ
##ރ
##ބ
##ႏ
##ཿ
##ﾇ
##ՙ
##ﺹ
##῾
##ꜥ
##∫
##ﺢ
##௦
##௮
##އ
##ޖ
##ގ
##ቇ
##↔
##⌒
##©
##ㅈ
##ҩ
##ሗ
##ಊ
##ʕ
##ﺞ
##ኴ
##ጔ
##ᴇ
##＜
##ｵ
##ฃ
##ﭥ
##ﺃ
##ఝ
##ਞ
##😠
##▶
##ܡ
##ܢ
##𐱃
##𐰔
##ﯪ
##๖
##ɮ
##ཧ
##ዹ
##ﮋ
##ﺁ
##ॐ
##ꦫ
##ኌ
##ヱ
##ﲎ
##💖
##ᮧ
##ᮙ
##౫
##ჱ
##💪
##ꮎ
##ｬ
##ꩧ
##ʙ
##ˢ
##ഝ
##ⶂ
##ǃ
##ˮ
##ɯ
##ឭ
##ౄ
##＞
##ㄨ
##ɭ
##ㄣ
##∣
##ᴡ
##ꜣ
##😏
##ɝ
##ᛖ
##ᚱ
##ᮂ
##₩
##ﹰ
##▲
##൫
##൬
##൪
##ⶇ
##ឩ
##ఔ
##⁰
##ಔ
##౯
##ዧ
##゛
##ᵏ
##ᵗ
##ɧ
##☉
##¾
##ଊ
##ｭ
##ɥ
##ｰ
##ೞ
##ﲪ
##ﮧ
##ᡠ
##ᡵ
##👇
##ෳ
##⾯
##ㄷ
##😉
##😀
##ඦ
##ﮭ
##ｧ
##⅜
##᭄
##ᬯ
##ᬭ
##ԁ
##∆
##ඣ
##╰
##ދ
##♪
##ᛋ
##ᛏ
##ﺚ
##ꠛ
##ꠤ
##ꠉ
##ꠘ
##ꠎ
##ⅲ
##ﭨ
##ﭩ
##⁴
##ﮎ
##ѹ
##ܥ
##މ
##❤
##ﮈ
##ﮮ
##ɽ
##ਙ
##ጏ
##໑
##ϐ
##൩
##№
##♯
##⊥
##ㄡ
##𐰸
##ﮓ
##💩
##ﮀ
##ܣ
##ﻃ
##ތ
##ޅ
##ｾ
##ސ
##ㄅ
##ᮄ
##👊
##👋
##🔫
##ၐ
##𐰆
##𐰑
##𐰣
##ﺡ
##ⶋ
##ઔ
##△
##ଽ
##ዻ
##∩
##💕
##ﺄ
##ฅ
##ܩ
##ᵒ
##ጛ
##⅓
##ⶄ
##ˤ
##ཥ
##ㄈ
##ㄌ
##ㄏ
##ㄕ
##ㄊ
##ㄙ
##ㄧ
##ㄩ
##ㄛ
##ㄟ
##ㄠ
##ㄥ
##ㄢ
##ﺝ
##₰
##ჴ
##ঽ
##৹
##ᵐ
##ѣ
##ǉ
##ﺜ
##ᚫ
##ॠ
##ኊ
##ﻍ
##ﾗ
##ｳ
##ܕ
##ᚾ
##ㄞ
##ㄉ
##ﭸ
##ɱ
##ǁ
##ﶈ
##ﲔ
##ᵻ
##😃
##˧
##˥
##ዄ
##ꯔ
##ꯡ
##ꯕ
##💜
##≥
##᧣
##〇
##③
##ˀ
##⽂
##₆
##╗
##ⲥ
##ᒃ
##ᑎ
##ᑐ
##㎠
##ᮕ
##ⲩ
##ⲡ
##ϯ
##ዺ
##ଔ
##ᠯ
##ᠠ
##ᠭ
##ﮃ
##ܚ
##₃
##ឞ
##ᮓ
##ㅅ
##ㅣ
##ѧ
##ʨ
##㎏
##ഊ
##ﹶ
##ﭳ
##🇹
##🇳
##😞
##ˉ
##😙
##ㄘ
##ᑭ
##ᖅ
##ᑕ
##ᕐ
##ᔪ
##ᐊ
##ꦭ
##ﺫ
##ഽ
##ᵑ
##ᜆ
##ഌ
##౪
##౧
##ඖ
##⁻
##ⵐ
##ɸ
##┼
##ԑ
##☝
##ⴣ
##ﮉ
##ҭ
##ﲏ
##ﭢ
##🐶
##ⶐ
##≦
##ዿ
##ꦝ
##ꦕ
##ꦛ
##ﺂ
##ⲱ
##ܫ
##ⵝ
##˩
##ᵃ
##ӏ
##ⶏ
##ᮚ
##ᮘ
##ഋ
##ƶ
##ጚ
##ᚨ
##ᨑ
##ᨇ
##ᨙ
##ᨊ
##ೄ
##𑂍
##𑂭
##𑂲
##൮
##≧
##ﱶ
##∑
##ᡳ
##😢
##ᮆ
##🐺
##ޔ
##ﮒ
##㎦
##⠀
##ཋ
##˨
##ﾍ
##ｹ
##¼
##ऌ
##ӽ
##ﺥ
##൹
##ﳍ
##ꩻ
##♂
##ඓ
##ﯭ
##👣
##ѫ
##∈
##ፇ
##ƿ
##ǌ
##👏
##━
##┛
##ᆳ
##ﭛ
##ƞ
##😤
##ܖ
##😅
##𐎬
##𐎼
##𐎱
##𐎠
##𐤃
##𐤍
##ႌ
##⇒
##￣
##ﱘ
##😮
##ﺺ
##ﭻ
##ᶜ
##ҕ
##ㅉ
##ⲇ
##ၩ
##ꮟ
##│
##ѵ
##😳
##ꦲ
##ꦒ
##☸
##👈
##ˡ
##ﭞ
##ꦿ
##ꦺ
##ꦴ
##💓
##ؽ
##ﮊ
##👎
##😨
##ⅳ
##♩
##ɘ
##😈
##ᚦ
##ᛚ
##ɰ
##ㄹ
##ފ
##ඏ
##ጙ
##ﱪ
##𑂷
##𑂔
##𑂣
##𑂩
##ጷ
##𐰺
##ޝ
##ᨅ
##ᨀ
##¯
##ꦗ
##ꦧ
##፼
##ﺦ
##℉
##ᮖ
##㋹
##ﭲ
##😝
##ﮩ
##☀
##ၜ
##ᠮ
##ᠰ
##⅔
##ﰲ
##ꦃ
##ϩ
##ᠲ
##ᠤ
##ᠷ
##ㄤ
##㌦
##₄
##ﳋ
##👑
##🎋
##ྋ
##ಱ
##ɶ
##ﭵ
##♠
##ㄆ
##ㄇ
##ᠪ
##ℎ
##☺
##ᙱ
##ᓂ
##᾿
##ۦ
##ᚋ
##ᚒ
##ᗺ
##ᗷ
##ᗅ
##ﱐ
##ꮣ
##ꮅ
##˛
##ﺽ
##ﬂ
##ಽ
##❌
##ᥪ
##ϲ
##ﭝ
##ꯗ
##ꯣ
##👕
##𐎢
##𐎽
##𐏁
##᧠
##🌸
##🎤
##ҍ
##✞
##😻
##₈
##ܛ
##ʟ
##ͻ
##ﱃ
##ᨔ
##ᨈ
##∘
##ﭔ
##ᵁ
##⻄
##ﻅ
##ϸ
##∏
##〡
##█
##ၮ
##🔥
##｜
##ᚏ
##ﾟ
##ｿ
##ǳ
##ୠ
##ᆞ
##ᮈ
##►
##ҹ
##▼
##ፗ
##ㅓ
##✌
##✊
##௫
##ᗩ
##ᗰ
##ℜ
##ܓ
##ႋ
##𑂠
##𑂰
##𑂏
##ﮖ
##ۉ
##ڜ
##𓅓
##𓏏
##𓊖
##ᛠ
##ᚪ
##ᮠ
##ﯫ
##💸
##⑤
##ｪ
##💞
##💝
##ꮃ
##ꭹ
##ㄔ
##ㄖ
##♝
##②
##〮
##ฦ
##ᑖ
##ᓗ
##ᮡ
##ﱄ
##ꦚ
##ۻ
##ꦾ
##ꦏ
##₤
##ﻎ
##♙
##ࡏ
##ㇰ
##ⲃ
##ɻ
##𐀓
##𐀠
##𐀴
##𐀍
##ꠟ
##ꠐ
##ﭴ
##↓
##𒂆
##𒈦
##ႀ
##ƅ
##an
##en
##in
##er
##ar
##on
##at
##al
##is
##as
##es
##el
##am
##or
##ak
##it
##et
##un
##il
##os
##ad
##ik
##ir
na
##om
##ur
##em
##ol
##ga
##im
##us
##ch
##ta
##ti
##ek
##ul
##ed
in
de
ال
##um
##ia
##id
##ang
an
##ag
pr
##ay
##ab
##ut
##ing
##ان
##ot
##ok
##od
##eg
##wa
##uk
##ov
di
##ah
##te
ku
##ap
##ic
##ra
##ig
##and
sa
en
##he
la
al
##ie
ma
##tr
se
le
ka
##ен
##ан
##ci
##ong
##ya
un
##ار
##ud
##ib
##ana
##st
ta
##ent
##ha
##ст
20
##ال
ar
##op
##eh
ni
ch
ne
##og
##ba
##iz
ya
##le
##ja
##end
da
##sa
ng
##tu
##la
ti
##ara
##ар
##re
te
##iv
##na
am
ba
##ob
##ez
##je
is
mu
to
##ka
##ат
at
es
wa
##hi
##ala
##ون
##ов
##aka
##oz
##ion
pa
##eng
##se
##to
no
##da
##ung
##ات
на
пр
##ne
##ip
##ye
##ua
##we
ak
##ina
##ari
##ер
re
##ela
##ور
el
for
si
nga
##ij
##но
##ub
as
##va
##ал
##ter
##ni
##up
19
##ma
##ata
##yo
##ام
ko
so
##ит
##ست
##ali
##di
on
tr
ha
ab
##ue
##ist
##ор
##ार
st
##ول
per
##de
va
##ug
##ani
##ele
ol
200
par
##ow
##ika
##ke
##za
##si
##ин
##ين
##ere
по
##oc
##ama
ke
##ου
be
##ет
##li
##amb
##ini
me
##اي
im
##ada
##ел
##ant
th
do
##या
##ova
الم
##era
##ku
##ita
##ene
##zi
##ند
##ih
##اد
##ед
ap
the
##ati
con
##ав
##он
##wo
##ca
##ira
##est
je
mo
##ve
पर
##ية
com
su
kon
##ол
ki
er
ad
ja
et
##ия
##ji
##ho
##ce
ag
##ona
kom
iz
##ам
fa
ny
van
em
##од
##ای
ang
za
##lar
##ии
sp
##ri
ان
um
##any
go
##sk
##isa
##ine
##ো
li
##hu
201
il
##от
##eni
##eb
##ju
lo
##ान
##ile
من
##ane
##ны
om
ra
mar
##ou
mi
af
##ena
op
او
og
##ак
##asi
kan
ga
ver
ir
##oj
##all
av
##be
##ind
or
##00
##ем
##yn
##ila
##ale
uk
##ом
##ین
man
##ил
kw
##io
##ens
bo
##ze
في
##ver
##ск
##اس
##ια
ob
que
##ill
of
##pe
nd
##und
##ell
##이
##को
str
##ula
##ला
##ost
##ад
##ري
ye
bi
##emb
##ans
##ord
##ек
mat
##τα
##are
den
##ore
bu
##uma
##oni
##ima
ek
##ehova
##iti
##asa
##لى
##ast
##ili
sk
##ite
##pr
##им
##का
med
ve
##ог
##pa
od
##اب
kr
gr
die
##isi
##ων
##ning
##of
##yi
##iri
##رو
pe
##oi
os
eur
##eri
##ас
##una
mas
##ond
##ир
and
##ود
##ish
##وم
##मा
##ης
##ki
##por
min
##لي
##ych
tu
##ик
##ει
az
##ura
##ym
##for
په
bil
##ств
##وا
men
##ᅳᆫ
it
за
##anga
##ᅳᆯ
##ու
ca
ok
ts
##را
##vi
##uc
ter
ay
pag
##adi
vi
mak
##ann
##ate
##ها
##vo
som
nu
pol
##uz
##аз
reg
##ade
ac
##ano
del
##eta
##aki
mga
##eka
tal
##ικ
##ری
qu
##하
##uri
##ise
##ын
##ın
##wi
##bi
##ys
##да
sh
yo
##lan
##uh
##ica
ed
به
##aba
des
10
fr
##πο
##ts
κα
##me
ge
##aya
ber
##िक
sam
##ete
##ora
##so
##uka
##ente
ho
we
##no
##तर
##ता
##ив
##ro
##ola
he
dan
در
##gan
po
##olo
kas
##ulu
ci
##ire
کې
##ida
##alo
да
##eke
##ako
##itu
##int
##ير
##ρο
det
##art
##ake
vo
pod
##ende
hi
##رد
##imo
##atu
ri
til
##pl
ur
12
##ust
##ers
##ash
ind
pan
##ego
не
##elo
der
##لا
##ис
##wan
می
##ना
co
les
##ие
ik
kun
##ော
##jo
##fa
het
##ул
##ра
res
eg
pas
##esu
##об
mal
##lik
##ρα
الت
du
15
##ato
##وي
met
pi
##ard
##ess
##ति
##ler
##aku
##cha
##ич
est
dis
11
وال
ut
##다
mb
##ation
br
об
ban
yang
wo
##ाल
##ori
##их
##ami
18
##ার
##уд
por
कर
##ما
##ko
lu
##на
##ос
##eho
##ema
ez
##lo
ai
##qu
##kan
by
art
val
pos
jo
##anda
##ци
با
##ес
ст
##ებ
##ան
##oma
ex
##τη
##िन
##eli
aw
kat
##cion
##из
##ⴰⵏ
##ρι
##oko
kar
fin
##uru
ser
##po
الا
##ɔn
bib
##το
dr
han
nan
##co
sen
##iss
us
##دا
##iy
##та
##ament
bar
tur
##نى
##ito
nag
##one
europ
##ыл
har
##ите
##ур
uz
und
dal
##yd
वि
##han
##ата
##ese
##ett
##ista
от
##пр
##ge
##ɛn
kul
##lu
##yr
##ва
##ои
199
##وی
sal
##enti
jehova
long
ام
ndi
##ित
##ec
چې
##ith
tan
##ег
strong
را
##mi
##che
13
اس
##hl
##ез
##bo
ce
gen
##man
##ᱱᱟ
nt
##esi
14
##نا
inter
mag
sin
##gi
##tor
ба
##는
bat
##amp
sz
##یر
##cht
##ок
bir
##ado
##يا
##वा
tar
##हर
##uta
##iko
yi
kum
##lig
во
var
cu
##apa
##ici
##له
ib
##ero
له
##ont
mun
bas
ug
##nos
##zj
##ის
##val
che
##ره
##না
##ats
از
##ino
17
##iki
##ەر
गर
kuti
gi
ал
##cao
##يد
chu
##ose
pl
##ər
ia
##ff
##unk
##لی
##atan
ub
##ים
##ets
##agi
بر
##ayo
##oku
para
mod
bak
16
id
که
##ulo
##еи
bet
##وت
##বা
##cia
##ун
##uu
##yt
mil
##وس
##yk
است
##emp
##ες
dir
##iza
με
wak
mer
ما
kal
kut
##ru
##eti
##وب
och
##ote
ah
##ph
##ган
għ
nam
ze
##கக
prod
nas
##ον
се
kwa
##zen
##ede
##ten
##रा
all
kor
##use
##то
hin
##شت
iti
wan
##انی
##ся
pre
##ож
##iku
على
mot
##եր
##akan
##chi
##ения
हो
##го
bal
##ের
##umi
artik
##ide
##ား
gu
ing
##ins
##കക
##res
الع
##ни
##qa
##amu
##сти
##pi
##가
##het
san
##ла
##andi
##yan
##aman
##ert
##га
پر
##ид
##els
##να
##yon
ته
##tav
##ike
##ান
eb
##uku
##ру
##ii
из
##tiv
##oka
##jen
kap
eu
##iso
##यो
ᱨᱮ
kad
##isk
mus
nz
со
##oro
##에
##inn
एक
##ции
##ισ
##its
##eny
##தத
##μα
##esa
mon
##att
##ाम
up
##ande
bes
fe
##ար
##فت
هم
##ငး
##ath
##ән
##aha
##bu
mw
##ern
##wu
##las
##idi
##ות
##ных
##을
##നന
του
uku
##inga
##imi
од
##رت
##umu
##van
ef
##аб
##िस
##يت
##if
##әр
لە
και
ul
##isti
##لم
sar
##وه
##zo
τη
##نی
وا
##oll
yehova
##ля
св
##ør
fil
##еш
oku
##anu
ist
tak
##கள
##zy
##ilo
##عد
kam
##िल
##mo
##olog
##غان
bel
##enn
ig
au
کی
son
συ
##ும
##ني
##με
##esti
nk
sta
##ult
##ea
##니
##vu
##གས
##uli
ای
##oto
hu
##ση
##yl
रा
kus
جي
##иј
mai
tim
tin
##osi
##ən
اف
##port
##ole
##ાર
infor
##री
تر
مع
пред
##ка
mor
##ame
##지
kur
sy
بال
dit
##amba
##aran
##aro
της
##ice
jeh
##سي
##ogr
##ەک
pri
##بر
##onom
##adu
##dan
##usi
##어
لا
ji
##tre
##ран
##fu
##의
##ನು
सम
ro
##eks
##fer
was
dem
##аи
##zn
##aye
##rav
##حد
##fi
una
bilong
##oli
##osa
dat
##서
##ист
meg
እን
organ
ev
vy
##enta
##hat
##ель
دا
##uks
mis
##اه
pat
dia
ann
fi
vak
##lem
##ativ
##ons
tok
ins
##पर
kɛ
##usa
##jan
mah
##per
kos
##iro
##eko
##ott
may
seg
kab
##ania
##edi
про
30
##ого
##ac
##wn
##ستان
##যা
dag
##েন
##angan
##ται
دي
##시
##ही
##ො
##ui
din
##ingi
ph
##amo
nj
##enda
god
##ase
##anc
##аль
##ده
##อง
##ft
wat
##ەن
##udi
nak
pres
nr
sel
##िर
voor
##τικ
##कर
##قت
sɛ
##erd
απο
21
का
##uti
sak
bab
تو
##itt
ant
25
##قد
##zjoni
##لو
mut
##ени
##ck
##ekt
pred
до
tag
polit
##اری
dar
##ระ
##ती
##ли
sv
ин
yesu
##uni
##unt
##uv
over
pro
eta
##رى
cr
kol
pen
tsh
دی
los
att
##મા
##iden
dios
бол
nang
##ᱟᱹ
##umb
##हा
##ەی
##iji
##ോ
##vis
##jj
को
##ege
##خت
##ort
##사
बा
pot
επ
##не
##eme
##شر
раз
ata
##xa
##िए
ud
mes
wal
##fo
##مل
##iny
##اک
اي
nie
zu
##ure
dos
dec
22
das
##من
##еж
##etu
eng
##ago
##ро
24
till
##oda
mm
wɔ
##از
pers
tam
##ement
##ango
chi
##ır
tas
gore
cons
##دى
lat
##ки
##inu
је
##ლი
##ма
##고
##анд
##pela
ken
war
##imb
##যে
##رب
##തത
000
kay
##land
nos
ко
car
##ige
##tig
##uda
##elt
zv
lam
##لس
##cu
##idh
nem
يە
##ايي
bol
##ან
##eld
int
##eto
##aks
##ban
ot
##ரு
vol
##िया
##лу
##ink
##كن
##ного
##wen
kh
προ
نه
##ny
##ᅳᄅ
##ⵉⵏ
sab
الد
##ime
##ونو
##பப
##아
##eza
##zu
nat
oo
##कष
год
##저
ali
##ाग
##igi
##uo
##ում
##omb
##ут
под
dz
##يم
een
##iba
##men
cha
dhe
##او
iv
##ના
ala
##لار
##ிய
aut
مو
##ach
eller
agus
##في
sek
roz
अन
##ෙන
gb
##ін
bl
##ben
but
##می
لل
##еч
το
##ven
ос
این
དང
kuk
##rat
##은
mp
##min
##ент
##ambi
الب
nar
##edn
mang
nh
πα
komis
##sz
##istu
##war
ei
mab
##alar
##து
##ᆸ니
23
##ico
fl
जा
جو
##ାର
pam
##ение
stat
sl
sur
##ят
##ht
##গী
##av
mul
##ados
nor
##imu
##ute
proc
الس
her
اور
pal
##ին
την
##isto
##sh
##ove
##ank
ec
##adh
##ыр
##par
পর
ات
##μο
так
sig
biz
jes
##ono
lab
tek
##도
meng
##ando
ana
##વા
##들
##ento
hal
##يه
europe
tl
##esta
##ோ
کړ
ben
tab
##مان
##여
sol
##τε
bh
##nosti
##du
##fe
##asta
##go
air
##ில
##vel
##يل
yeho
की
aan
##اق
ein
सर
##lad
##alt
yehowa
##mer
wh
sub
##eda
##ely
الح
ᱫᱚ
##लाई
##거
cl
##fr
pak
##oki
##وان
kin
##कार
##한
الى
##үн
##িন
##vat
##der
##alu
ic
iy
las
##else
##ەت
era
кон
kana
ор
##cij
trans
##abu
##هم
##ɔɔ
##არ
##ᱚᱱ
ngu
##ikan
tot
##ум
##unu
ker
bah
tem
##var
##ाव
##кт
hat
##ule
##iva
##mas
##ест
progr
الق
##اء
##ास
prop
##ээ
tse
##انو
tom
word
прав
prz
##ᱟᱨ
ኣብ
##ante
##িক
##াই
tat
koh
##ings
##نه
ju
##unga
##ован
##کی
wi
ور
##νο
inv
##iste
dh
να
##fic
##าร
##elu
##ουν
pu
འད
dav
##اره
far
##lam
##иш
##ах
sus
##istr
mit
kub
lib
kp
الج
##িল
##يس
ini
بە
vir
##نت
##еп
tre
yn
##ρε
და
dik
##став
##وو
##سی
ten
##adz
##마
##ᆸ니다
fo
isa
##asan
افغان
##yen
##자
##ча
##াৰ
ua
##ⴰⵔ
##ၼး
ɖe
##ев
##yɛ
##ၼႉ
##नी
##وق
informa
##ាន
sc
sch
που
##ली
কর
##bil
qa
ket
##mu
##ус
##emi
##yg
##عت
31
##nych
tha
για
##ct
##esk
pop
##nu
kg
##ել
##ىل
##ity
##miss
##tion
##ко
##ност
##نىڭ
vis
198
المت
##erg
##jar
کرد
या
##غه
##τι
##ина
##alan
lan
##ակ
inst
sie
##دی
nen
##аш
##que
##ush
##pu
##ня
##ую
##ಲಲ
##еб
##enia
##essa
##ky
کر
##टर
пер
nɛ
bay
memb
tah
##mat
##나
don
28
tra
##yc
2006
##ezi
##ken
то
nov
kod
##ome
##ায
##age
کے
##иче
##ಂದ
##лен
##दा
##ass
##oso
sec
##ɖe
بی
sum
##ᱟᱜ
##pub
##اف
##нои
yon
##وز
##antu
set
##عل
2008
##hte
##िय
των
##था
uc
##ars
और
##tur
اد
say
muk
##기
amb
##ella
2009
rad
ena
सा
##ект
raz
sup
kir
##ард
##ைய
اه
अस
##anya
ass
##oo
ip
##λα
sem
atu
##حت
##िम
bon
##lament
##ald
fu
##olu
##ାନ
##ном
##itet
##رف
پی
بي
وت
tai
ком
ati
##les
##ать
bul
##ive
ov
##দা
prob
poz
су
##ony
##өр
pet
##nih
##ની
##σης
tɩ
mos
lɛ
سی
##zzjoni
##zion
خو
ده
##라
##ustr
##iska
##akh
ger
тр
end
part
##xi
##ми
bin
punk
tw
ee
rel
##لك
ᱠᱚ
##akt
##াক
awon
##ова
eks
ama
inc
tsa
sr
##ამ
amer
##uth
##pan
##ingen
sat
##ibu
aj
lok
##يو
གས
##ⴰⵍ
##old
tik
مت
sist
##cial
had
bang
that
27
сп
##nen
pap
##eki
ou
##ತತ
##иг
##opa
##োক
##ιο
artikel
##unda
##sta
##ува
##yar
##tin
##entr
##ær
##лед
gal
##ରେ
##ေး
pou
##λη
##igh
##مي
tid
##wer
##emu
##ros
jesus
##utu
let
عن
kl
26
29
uv
voi
ari
##αν
maar
مح
##issa
##cio
##sem
مش
##br
##তি
lid
oyo
بود
2004
bur
ona
uma
##ume
##তে
##pos
##enge
pun
##ನನು
##스
parti
2007
sw
iyo
##ize
##ід
як
##वर
leg
##ᱟᱱ
##ರು
मह
##isha
##یں
##ಾಗ
اب
مر
##kom
##ونه
aba
##าม
##lı
##تي
##اري
##angu
##ೂೕ
##مه
oc
##omo
if
##ذا
ii
ка
##해
##eder
bw
يا
##eden
##λο
##λε
##اند
bos
zo
##urs
cor
dok
##ности
##abo
الف
ham
usa
##မး
kontr
mad
nje
##ument
##isu
##aso
##сп
yak
##kr
ns
ty
##ᅮᆫ
##ას
pub
##وع
##ары
form
ru
##өн
##lat
can
##있
са
मा
##कत
##inta
##నన
##eth
##wat
##ні
الن
bua
##usu
##नि
تا
ва
##صل
dari
jehov
##alah
##upa
##nie
επι
produk
ent
##ად
##uss
کو
دې
राज
##ski
tul
##idad
های
nav
##alis
στο
prov
##ായ
tun
##ще
##게
##gal
##amente
دو
##amis
##undu
bag
रह
2005
##այ
པའ
neg
##edd
ср
પર
sas
يۇ
##yb
##uj
##டு
pang
lik
tel
has
##াল
##ump
##engan
isra
##সি
tut
##raz
gl
rec
ile
##ார
ako
##छि
##ала
##ode
##ᱟᱱᱟ
##ின
mill
##ment
δια
##ogo
bud
##ⴰⵜ
##ولو
2011
пол
##ავ
##ып
2013
##ето
##ана
##сто
##ᅧᆫ
nom
বি
mol
non
##ара
бул
##مة
2010
oh
##كت
سا
ina
fra
##endo
sim
##रो
finan
##anan
##үү
zi
nin
##ange
##ငႈ
##որ
itu
та
##enza
شو
kɔ
##anas
nn
sik
##ambo
##جه
##ator
##oa
##elen
tap
my
197
##ofa
##सा
##nej
भार
##lia
##تی
fel
કર
nde
##uko
ste
fran
##ɛɛ
ris
##itas
##دو
یې
##بي
##itan
100
##ати
##іл
##ႃႇ
##الي
##nya
##ux
##jet
##iran
dalam
##ция
##ୋ
##ρη
भन
##cho
##φο
##rop
ved
##eno
##ികക
bor
##th
kes
##ник
يى
แล
ih
##әм
##yaa
##تى
##jn
##же
koz
##ык
moz
##ιας
##ambu
##ining
##cz
gar
##లు
##оз
ہے
##lari
##리
clan
##તા
von
##jon
سره
##ическ
sad
میں
##ыш
nap
##ொ
ky
##ку
unt
kot
##lic
gj
dom
εν
##دي
##ly
aka
bez
##let
བས
##를
##ிற
plan
##ham
##ones
##ыз
##uman
bek
##do
τα
##лад
##것
##عم
орган
##izi
##pet
50
##ներ
ihe
new
##иза
##ութ
##itar
##əl
maa
ani
euro
##ᱱᱟᱜ
mel
nad
##ulle
##ks
##tag
##दर
##inda
direk
ara
lim
zak
##बा
spe
ɖo
##पाल
कार
##atud
prot
##યા
##stat
##ენ
##де
yan
##uthi
##enc
##کو
##este
##ছে
##elle
mark
ਵਿ
##uro
##enu
##fin
##िका
nou
##lag
gor
مس
##ille
##abe
##رة
##ⴰⵙ
##ောင
##ekk
তে
##ran
mana
teh
##ەو
rend
ƒe
##گر
πε
##ep
jar
##ungu
##ంద
##दी
##den
ting
##ಗಳ
kuri
для
##dr
εκ
esta
##ido
ikke
वर
cua
##eren
##ომ
##chik
##चया
شي
##িং
ପର
##ында
पा
mem
num
mpe
##جي
##ուն
##akat
##سان
pad
##chen
imp
الام
2012
taa
##nik
παρα
##ства
تم
##ውን
sud
جن
وی
పర
ست
කර
##ət
##ıs
ма
lag
##وں
##len
##لت
fam
কৰ
نی
συμ
##isten
40
##جن
##inin
##िला
lub
##ные
dagiti
pada
##ဝႉ
jan
##reg
vel
##vir
##ני
##गर
rap
tene
##ым
bantu
##mes
prim
##वार
kt
lis
##ությ
तर
##oks
##pt
won
##ېر
##ovan
##مع
##รา
им
##θε
##иб
##로
##ongo
##ход
program
nda
##కు
##ատ
##уш
##ле
yu
##иц
##ους
##joni
##நத
abantu
ano
##үр
uit
##ske
##ങങ
##ahan
##נו
بل
kop
कि
leb
2014
##ukan
##tie
##ਾਰ
التي
##ను
196
##सत
##эн
##एको
##inen
bij
مج
мен
##كى
vai
kup
ao
nao
##odo
کار
cik
##jam
bik
##edz
beg
faa
kons
##əs
##ithe
kel
كان
col
##vor
##wal
##fik
##uke
kah
пос
sob
ŋu
prof
leh
##ாக
##cija
نا
##une
##тер
cho
##stem
ey
2003
##ret
bis
intern
##jal
##ான
بت
##прав
##циј
##ить
لو
fun
##ија
pin
##ობ
##با
##nan
##tava
##ambe
как
nok
pov
พระ
deg
##لام
sul
##ႃး
##قي
##বে
pay
##ении
tir
##inci
dol
وي
como
##μεν
##ानी
##वि
##idu
##کړ
wana
##ിന
sis
apr
##20
##ור
اخ
ول
tay
##onda
ira
##ασ
##수
##lus
##ერ
##ात
dengan
land
ngan
##taa
iya
mam
lang
untuk
asi
हन
jed
##aren
##ᱚᱛ
سي
##agy
dur
ale
nal
beh
##xo
##nost
##වා
rat
##rit
thi
thu
##ув
##ంచ
##ами
ska
##ежд
##gu
##enga
##ില
##εις
##aru
jew
##kin
سر
##uto
ар
اج
##iga
##ଙକ
not
##াম
вс
##인
qe
cer
##jer
خپ
افغانستان
आह
une
κατα
##ႃႈ
nɔ
የሚ
##ър
जन
নি
འབ
##emo
hak
##ugu
tor
##atti
वा
lah
##али
##ਿਆ
day
##уп
##바
sha
swi
تع
afr
##قة
##ijiet
195
##apat
##tru
उन
ᱟᱨ
الخ
##گی
##بل
mek
##odi
##రు
##irt
##отор
##ijn
##টি
194
maj
##andu
##گە
##ape
gan
##mal
##ᱚᱨ
cont
σε
##weni
biblia
sir
jak
عم
alt
xa
pros
##hal
##met
hog
bot
ary
##اص
##ип
jehovah
nge
##ᱟᱦ
##уу
##าย
##ارد
inte
##धय
yer
amin
##uld
تن
##ەم
inn
##osta
ⵜⴰ
سے
##ρω
कल
##නන
said
oz
##ude
yɛ
##दध
kaj
##wana
kok
ust
##ondo
##ның
##kun
##ores
grup
##omi
spr
##ть
##ով
##سى
##سا
##idade
мож
person
որ
sara
mok
vin
بد
##vol
##ering
انت
##ски
στη
##ren
##итель
via
τι
##লে
sil
يې
##ipo
без
ها
ue
فر
བར
##زی
##mar
##anta
##كل
bed
ανα
କର
chuan
parlament
##되
ning
##चा
##onga
##abi
wen
##nem
পৰ
##مت
econom
الان
ад
nw
cas
และ
ayeke
ete
##ember
dun
هو
तय
##ines
vr
את
الدول
##عة
الو
vil
##uf
##الی
##ste
##ymi
anyi
##oy
##فر
##ibh
sm
##ریک
##ektr
αρ
##قا
သည
hel
ngai
ပြ
##adas
cap
jer
##شان
##atk
##ეს
##ھن
kita
бер
##lɔ
رو
##hom
##ɛm
import
region
##was
रप
##yz
geb
##ीन
##ех
##مو
مخ
cel
vu
gud
##ངས
##ital
##டட
kuma
esp
ของ
hab
рас
##kl
##են
бар
nguoi
yeh
pon
hand
gut
##эг
comun
lak
gh
##del
##ibas
##zt
##rad
##ամ
hor
##과
nti
contr
##odn
##ека
lit
##غا
##лю
##yang
##εν
##ında
##ול
##তর
bere
##주
mik
он
##kel
##или
naj
کہ
yina
vaka
baz
तया
##эр
##vr
##enie
##idz
##cy
περι
##idan
##ელ
mingi
ole
dire
32
##cie
##ber
##gai
##าก
ਕਰ
under
##publik
hy
##ipa
ukuba
##ateg
ili
ie
##каз
oʻ
##φα
chung
##ів
##رات
komisi
kia
kis
kra
##оч
##سته
##امل
ан
kit
##apo
##그
bad
الص
##isen
उप
##agan
##ых
ਵਿਚ
что
##jas
##yw
##amat
##gen
##аю
##ᅧᆼ
##ᱟᱭ
##ργ
ele
##igu
##ting
##ဝး
##ull
##eben
كل
##ebo
net
##ство
map
##ota
##ಾರ
эт
##umba
##zjon
##uts
نظ
wil
ਕਿ
सक
pra
##ाइ
fir
lap
uy
temp
##әт
##لې
hl
##ುವ
##ieu
##نو
2001
##amas
##ayi
cal
##js
ges
##цион
##بت
kug
док
##her
tele
गरन
دە
##ىلى
##pres
##angi
rom
jehofa
##ियो
##imin
2002
israel
##pon
ਦੀ
дар
અન
##की
##ები
##jes
аз
ich
##pas
chin
##led
##ını
##арт
##jel
##ила
ει
wu
are
বা
##sat
gw
##itat
33
съ
kung
##heid
2000
##ဝႈ
kak
بول
hun
##ਹਾ
котор
kil
##ост
inf
##ım
đa
##થી
##kal
لي
##jem
allah
##ydd
uh
буд
dei
yɔ
ار
##tir
ngok
##ποι
کا
هي
کي
35
##ces
##ৌ
pir
##etr
vor
als
elektr
ки
##τος
##eku
aga
һәм
##ിയ
یو
ใน
##شی
##ایی
##ነት
mea
pom
##ner
centr
##арод
של
##حدة
अछि
##yat
الش
##وری
##রি
kep
##πα
##nic
เป
olsem
##اني
অম
##ək
rek
nod
ус
jesu
##ды
ਪਰ
##uste
##tan
##ში
##زي
dua
##ʻi
##दश
##که
stand
sit
αν
##уб
##ාව
##ചച
یا
run
##af
##дан
وه
mba
##akse
anal
кој
##ቸው
ཡད
##har
ⵜⵉ
##рат
mog
ktor
##ға
his
اول
seb
##مد
yandi
##onu
##fika
##কে
nke
##보
ep
##ње
##ောက
##sp
دول
##eria
tad
joh
##ordning
vah
##lər
##chu
пов
buk
##टा
##িত
##ىن
##mente
cz
##alia
lin
nzambi
##nes
##ാണ
egy
अप
dip
##ich
сво
सन
naz
hen
##ezu
nhung
##డు
ito
##yor
##رار
uch
europa
mur
مل
تح
lot
อย
कष
मान
və
pla
стран
dib
##வர
##waku
nna
##ker
نو
shi
##ारी
conc
##ishi
ahu
ring
wok
##gay
##ادي
pɩ
##ታት
prav
##alla
bai
##പപ
ལས
ᱞᱮ
dzi
##མས
дру
निर
##सी
##elela
##dir
muri
##api
ach
شد
tum
toim
mud
mɛ
раб
##coes
ktore
اند
pel
arg
##mission
##ras
##নি
नपाल
##iment
##ular
real
##kar
##टी
##ге
##cs
xe
uu
191
##оп
##kat
вы
##ως
##ստ
کە
اين
comp
##inti
lig
alle
سن
այ
##cil
##bar
ll
##tar
##оль
ame
##ਾਲ
red
tuk
сам
اح
##iec
##vet
##δο
##ᱤᱭ
##xe
mir
##ава
کن
sor
mais
##და
she
##odu
2015
##ارا
dep
##eral
60
##unan
sag
##দি
าง
##alaki
yen
##cji
##аг
##nia
##овор
kem
gag
##لب
##sen
##ител
ကြ
##iten
##ငႇ
drza
وز
##ႄႈ
gre
ит
##гә
##lh
##gar
##iske
##ƒe
##ләр
##yos
alebo
way
fol
cre
rez
##енных
##ты
anak
rin
##oria
qil
##वी
##رم
##ilu
lai
ew
##တေ
##bek
##ser
##anna
##vad
بن
##ஙகள
tet
##قى
##cional
##गा
##ident
##으
##nolog
union
##urt
##imba
jam
##yin
kata
##wh
put
##ario
##ιν
mid
##اده
##ogra
sto
ᱢᱮ
حال
##ⵏⴰ
##ית
##उन
with
##abal
##ska
##ⵓⵔ
##aho
##سم
##ارت
naa
kang
kala
yar
vas
##erna
##elet
सब
छन
worden
kim
##anti
সে
ngo
##ıl
yango
بعد
##ᱷᱟ
ⴰⴷ
##эл
##ork
post
##anie
##ef
##ier
leswaku
การ
##ပြ
##ister
##ото
ras
##ір
##untu
rak
zg
бел
मन
##ារ
dig
##ук
ከም
ekonom
##ibi
##nak
għall
لم
परा
peng
قد
кор
kina
##encia
##mis
##стан
##ums
зак
##eso
विश
##way
##lj
##انه
przy
امریک
vid
dev
##लया
уч
##osp
out
##ска
wala
##itel
оп
شوي
gin
ish
##ᱤᱫ
##ची
##ingo
##와
193
##zd
vers
##kon
##اسي
than
##oh
##ذه
##zia
##lela
kell
என
был
##fan
ide
##ots
де
yet
вр
##wɔ
##रम
##owo
liv
##ىر
##ика
རང
организа
кр
##ിൽ
##obo
##ोल
##sak
hogy
##کي
##дер
gam
gy
lem
chr
##ick
term
چھ
ना
gro
beto
##вет
este
یک
мин
##ကြ
##esh
هغه
dop
##kur
nye
##우
##शन
लो
##ടെ
bus
kristo
ᱠᱟᱱᱟ
##κε
##χε
##asyon
τις
υπο
nel
##วาม
wɔn
sun
οι
kadag
بين
##отр
dil
इस
kong
hay
##كي
ora
##وال
ling
भारत
##cr
##ाना
##ozo
##erat
##योग
mia
##ମାନ
akan
##zenia
برای
##qan
ont
उत
اش
##indu
##습니다
##وند
##ants
##ным
##ozi
##uki
##istan
##ани
अध
##ʋʋ
##erne
nez
univ
##ry
##ــ
##tro
sing
dim
##των
или
خود
##ynd
تق
pris
##etti
toi
ned
qui
##대
##ена
isi
##यक
##γρα
chay
akka
бо
sia
##طر
kua
##fel
##ⵓⵏ
ram
##umo
tɔ
gra
princi
##egi
##tid
nya
##ება
##ிர
34
##ககு
##ына
##اع
شم
тур
pil
##তা
##ದದ
##anyi
що
##ᅳ로
##zɩ
cun
energ
##تر
##ди
আৰ
تي
وان
vagy
sang
##far
tod
##ته
2016
പര
proj
muka
##hir
המ
##ၼၼႉ
الل
##anye
##ավ
tidak
problem
lava
##ening
##वस
##ises
serv
##фор
stra
##χει
##حة
produc
##ած
##kow
##лан
مان
institu
##тр
##লি
##ада
jos
नि
nun
##ⵉⵜ
##जन
iki
##الب
##ړه
bible
##ोर
##ନତ
kaw
nek
##лі
##ਦਾ
alg
##کن
##нов
jih
межд
##wah
##রে
##лы
##ನನ
ons
cy
##রা
tə
waa
##oza
##elwa
مم
یہ
ᱥᱟ
sap
##они
##lash
مق
aye
##ams
پو
bit
المتحدة
يت
##བས
слу
door
##erk
hon
qo
##ിര
##entes
дол
##uksen
##aten
##undo
کور
##amento
jal
##aria
بس
fur
baib
##lin
abo
ry
pok
tech
##ется
##βα
##шт
##ществ
##ания
gun
##аст
##ovi
##යා
อง
##osti
##اج
nation
##ism
##arb
tru
##ivi
##ristu
##ları
حق
##ယဝႉ
##πε
yeke
##esha
have
##යෙ
بو
##gr
لی
yaa
##ому
skal
##ዎች
##तरी
##hand
prip
##ອງ
ans
бир
##iau
##ող
##jav
ᱠᱷ
##يي
##abb
##ць
xi
nab
##াদ
##oti
##ijk
ila
tung
##ږي
##κο
##als
wir
прин
##rac
তেও
ու
sed
##pen
##ოვ
რომ
dy
ink
##уч
ได
##יה
toe
##റെ
kani
kud
##red
нас
##الم
##obe
الك
dod
##てい
##udz
##ikw
pero
##akar
##יו
##ary
nes
##cin
##पा
nuk
wɛ
##iston
##jat
##ца
##ета
aha
ɖɔ
እዩ
##요
mpo
##ᱚᱢ
મા
kont
dispela
##etse
##med
##vien
eye
यो
##ادة
##ၼႈ
##də
gat
##ikh
##ła
##ух
aus
fan
##부
seo
##ең
##قل
هذا
кол
##assa
bam
लाग
##عي
37
##وري
##ити
مد
##ари
##λι
اپ
ᱦᱚ
ସେ
##شن
##ால
දෙ
اﻷ
kommission
ев
zem
##वन
##று
##ovat
##աց
zas
##inde
##ବା
upp
خل
##به
cin
regul
##ри
##ښت
##apan
wy
এক
##نده
##دۇ
دغه
laik
##ություն
dha
अर
##ြစ
ᱱᱚ
##ors
##ciu
باش
##wak
##ogu
##яз
##طة
##sio
##িব
##won
##tic
##ора
##ານ
##ിചച
valst
##کې
##uga
trong
خوا
##ips
wali
##ayan
##েশ
وايي
см
kuwa
##ⵓⵙ
##uso
zijn
##ира
##γω
##णि
##षट
би
##ವು
##tal
##ਵਾ
bɛ
στην
għal
पनि
##wng
off
##truk
mɔ
suk
band
##into
##σε
neb
##vend
ⵉⵎ
##जी
##atas
αυ
εξ
##des
##ړي
##един
ав
cam
##ijo
##uran
##яв
##vil
##ione
##аны
##jja
wax
ave
##শিং
##انون
ཨན
##igan
##တး
entre
zar
##има
hol
##دان
hari
##есп
sobre
tri
rum
veg
##ھی
##eten
gel
पह
##าน
##ინ
asa
سم
##조
##cije
##ider
will
##abil
##ျား
##عا
سو
##kor
onder
бу
##ahi
uni
dɔ
དག
##әк
##ezo
yin
mpi
##iru
##ᱠᱟ
arr
छी
best
nah
علي
##ულ
##တႈ
وب
##рам
yas
tong
nim
##iks
दश
lek
رس
ནས
pes
##াজ
bank
##nat
##amos
1999
peri
##صر
##jek
จะ
བད
hulle
##هر
##nings
при
##oss
परम
ให
iii
##rɔ
tla
##كان
km
isang
eh
##utt
##tai
সম
##reb
года
кө
##በር
##yal
luk
mate
##hang
##लय
सथ
priv
##hai
му
ис
36
sama
##eze
##aban
##bal
đo
kadagiti
proced
##кр
stan
##ades
συν
add
kasi
pour
مي
##ⴰⵢ
##ger
کان
##com
##رك
ಪರ
##прос
##اية
45
##lav
refer
##bas
сов
cum
जो
пом
баш
nei
##yu
univers
እንደ
कम
hpe
speci
mereka
##eds
orang
nis
##ubu
idi
zah
##ody
##ذي
представ
##લા
##ые
loc
##can
##anych
##ents
##σεις
##iria
mg
भी
འག
mbi
што
შე
sug
##ijos
ses
##نے
سال
rus
##ению
بار
waar
##ගෙ
##ған
##zat
##ves
##aph
uka
##යක
mata
##نام
##ныи
komisija
##یس
##مى
यस
##дә
tol
बर
##omba
##она
##maz
ہیں
##ови
وس
العام
##tri
ᱥᱮ
mell
##σι
تہ
##ische
rah
##गो
tit
##rin
panag
ton
##cer
##دم
##եց
##รง
ij
##over
##әс
də
گفت
##پاره
##નો
##ැන
jas
sane
##ните
##ulong
##ാര
##کت
##engo
##has
##μη
##obi
##ukh
лю
##æl
##ᅥᆫ
##सन
##구
70
##лас
tahun
fer
الط
##ᱛᱮ
##خص
siya
##wɛ
мо
ам
ورو
test
zab
##jac
##كون
##ขา
اهي
hom
##ng
##yas
bend
waxa
ᱨᱮᱱᱟᱜ
##ාර
indi
saray
##ാന
dek
maka
πο
##ⴰⴷ
আম
ən
mac
##ᱟᱝ
##ато
abr
اھ
چار
##form
##zad
##iniu
شده
لپاره
##imal
##hor
##qi
forordning
زی
##usal
##جنة
##λογ
kov
гэ
##bol
##নে
दख
##pre
##قی
paulo
이
đu
##ارة
ур
##לו
##ით
حک
##tas
kple
yal
##نې
فى
pow
##iter
##ғы
##pɔ
##ке
##egr
ကျ
parte
tang
##uny
اص
##ence
कय
nur
nay
##בר
ነው
##ling
يو
spol
ایر
кар
##شي
работ
##ᱣᱟ
##pat
##जा
##nom
##וד
sistem
##ەوە
##onan
##щих
##edo
##मान
vl
نے
##ურ
##etsa
##лар
rob
##iai
##일
hr
ble
lain
##enya
kui
आप
അവ
kaka
ada
ເຮ
##सय
לה
##무
ความ
##inya
##esto
industr
drug
##ندا
##itor
##ايی
нь
old
##pec
ven
##ningen
##தது
##बर
הא
##uph
არ
##imas
მო
bisa
batho
##fun
##zjonijiet
mum
pagal
гос
kɩ
ਅਤ
teg
ⵉⵙ
এই
разв
fal
##었
##मन
##عض
##ива
##적
##יר
##ᱩᱨ
სა
##زم
ima
##eru
mwa
##neho
dus
maz
##ပါ
##डी
tala
##သေ
fø
##مر
##ਤਾ
modimo
saa
##یا
##ими
jedn
##ninger
mekim
सह
##τρο
##모
##atie
##iritu
##qq
##ales
##əm
##issao
##entu
##بة
trad
па
##jec
##ᱤᱱ
الي
##ане
estas
##ім
##kov
وو
##haw
##че
ods
nari
تش
друг
##zir
цел
##лем
sid
90
anu
##intu
##වන
kota
يۆ
##tiva
##ادی
##సత
##cc
الله
##san
hann
##enz
##otu
heb
respublik
aqu
khong
προσ
##mon
##ligt
તમ
dov
##fat
forma
परति
##लो
##гән
##arak
192
##ти
##elik
dina
tlh
اق
##bc
پاک
yumi
##ilia
bɔ
##ثل
yok
##رن
from
gom
кү
##으로
ett
##ြင
ita
fut
ولس
##ាង
##etaan
kandi
##idir
عام
##ииг
2017
ate
szer
##са
##win
##kul
##gang
medlem
##θη
##su
##usta
##တယ
##eket
##डा
##law
##adan
għand
top
kei
проц
بې
##алы
##wala
##lja
baba
##hin
##bekiston
ⴰⵙ
##wir
##arr
arba
خب
انا
હત
##ದು
کوي
##vin
መን
bid
هر
ured
לא
الر
##jak
##illa
объ
deb
##ੀਆ
##aty
##раз
dira
##ці
##ែល
##ді
##акт
ⴷⴰ
sɔ
##णया
eka
##یت
##ছিল
कन
mand
воз
##ۇر
##вер
बन
##ிரு
care
##جا
##ensk
nig
##चार
المع
##ине
adalah
##anak
##तव
##اله
##ალ
ಅವ
##ρισ
ਦਾ
hem
sah
mf
bana
##hay
taim
otu
ني
mme
##10
##ions
κο
##uje
impor
##vas
cil
##руп
see
دور
38
ndipo
##jadi
að
##ingu
##nim
##ικο
##pal
##kas
sos
են
80
ndo
##agal
##וא
mawu
##မႇ
ord
cac
##ithi
comissao
##ێک
##োৱ
اون
ᱛᱮ
dans
##mun
እቲ
zam
##bor
lal
##erɛ
##ател
##ыт
##cas
aug
##leg
##ns
acc
lia
##खया
##રી
##하여
যে
uye
##raw
##oth
وم
אי
##igt
yr
##amh
کم
##amise
star
##ᱤᱥ
prom
wake
bre
##nosci
one
resp
kuy
huk
tɛ
evrop
##ijas
eff
nit
admin
sala
##واد
##ини
##ународ
##तय
སང
ret
##ريق
लिए
ас
прог
##دە
##에서
##dy
рез
##egu
noi
##apt
##신
imana
आणि
སད
##دىن
##ینی
##धान
##ោះ
##ciju
bok
ong
##раж
##ibe
finans
##ⵓⵜ
##ления
ene
##uden
bany
##κα
तयस
##خل
did
##nega
##ша
пров
дел
39
##사라
##isia
על
##oze
tɔn
##30
bilan
##ምላ
мер
ဢၼ
##ονται
##ടട
##ено
lar
##मी
##ⴰⵎ
##هد
mua
loko
##شا
zap
##षटर
##ester
ond
sistema
##োম
500
##ული
##ations
morph
##ρου
##ابل
لت
meh
moun
منز
##소
بری
##eres
##ንድ
cit
នង
dak
uf
yes
तथा
##ပၼ
##ικη
بۇ
##ების
kristi
##imento
##vez
##ild
##ᱚᱱᱚᱛ
परि
##oms
##nek
جا
##wag
autor
##cher
##ێت
##eter
kama
system
##pad
##सार
gad
##ej
दर
нам
##աս
##ետ
##гы
##ես
##ems
##idos
##ungi
နင
##بو
##ران
##नो
leng
چه
##ორ
##하는
vand
##ାହ
skup
##ுட
##ность
qab
diri
##isesti
##აც
##liga
организации
གན
diyos
##것이
vit
mob
nog
kuz
ens
##уль
##kana
пор
##chan
adi
##nin
##τω
##itte
##wang
gagwe
##ంత
kɛn
dow
##غو
##endi
##ναι
##ques
##യം
##ړی
gada
yah
##inas
від
##றற
social
minn
soci
##кан
##удар
نور
dd
ⴰⵎ
هذه
ειναι
skl
یوه
##ستی
غير
hindi
##ların
##षा
fast
any
##hair
##جود
##osit
mara
waka
moko
##ಂತ
mr
τον
ພະ
اوس
คน
auf
##cit
بۆ
##zer
##야
sana
##मर
##نية
##မာ
##igo
##mad
##খি
zen
##lut
poc
loo
dai
امریکا
የተ
##ضا
kai
##ండ
##ional
##los
सभ
نم
prze
##اسی
##ிகக
##anza
доб
តើ
පර
##elek
##гр
нов
##شى
##ovo
tao
##vua
##ിക
وکړ
गा
##ುತತ
сл
bao
##50
##inat
рег
##agu
pog
##abat
##યો
##imis
prev
##ори
অসি
##bɛ
ནང
uj
boʻ
##eniu
stor
tash
сред
##ეთ
kuba
##uw
##िएको
bato
xo
##anii
##सक
##sti
##lara
prez
बि
katika
##τικα
##ance
هن
##کر
mom
##pis
เรา
##ାଇ
mens
bha
##iswa
nhi
вопрос
##urg
پا
##면
dum
gran
##سن
tub
##атель
##elser
obi
그
41
बता
##ospod
লৈ
ła
##kam
че
တေ
##cen
##iex
मज
##nal
##ⵓⵍ
##kil
छल
##बाट
##ој
##omat
##ଲେ
daw
##ილ
pentru
##oca
straips
कषतर
##ষট
реш
##ثر
##كم
##чен
##ալ
##تا
نہ
ስለ
دان
##ीहर
##owi
भा
##ᱭᱟᱜ
đuoc
##ትን
##በረ
هې
եր
proiz
##him
##net
##ᱟᱦᱮ
##াত
##لىرى
##lɛ
المن
##iah
##بار
##यन
бил
وقت
##osci
##هن
kv
##ян
##atr
##ومت
##iju
##nam
##ighet
##udu
##পর
ген
आफ
##sstat
##еиств
aset
##जञ
##एका
##inte
##ız
यह
##inan
##итет
##वत
kuf
##əy
zim
sua
sov
upor
dad
ไม
الث
##φων
note
##ើង
oko
##seb
##يات
гр
pab
samting
kuru
ھە
##ette
##ilgan
organis
niet
##kol
##ikt
jeg
##راء
##려
##ју
daɣ
##णा
##τητα
lati
maga
##asu
##φε
عمل
##ген
bosh
##ың
الاس
##өл
aa
cat
##гү
للم
okuti
data
##ikal
##asti
##nio
##ло
##ps
gbe
##الة
बह
etta
gia
##새
##ама
fac
સા
##ချ
##কল
##igen
##amm
ཡང
بح
##າມ
евро
##ilang
μετα
হায
##idas
fund
nec
dob
ми
nik
طالب
##सम
##omen
##ирован
tua
##omh
andre
##વી
##ket
enc
bbc
##ದರ
ung
##rif
ре
прот
نوم
##jd
ជា
རས
##િક
##bagai
gas
बना
##화
پن
niya
invest
mt
gie
dot
##jt
##nad
тү
##ei
##esz
τους
tale
##ыи
কো
२०
##در
##יי
##ray
rev
wie
अभ
##antes
ⵓⵙ
##чи
sambu
##اتی
denne
bun
##уж
vz
མད
след
##सथ
##izo
ան
##odd
##धार
##oke
song
ᱛᱟᱦᱮ
##olat
##lica
ایران
##itse
##રા
lug
lea
fuq
##ingan
οτι
##tern
##iliya
##ളള
financ
##제
عند
fre
public
না
##wel
ري
kamp
##لف
pem
государ
ped
##mak
##ære
przez
##otan
pass
##رح
##па
vyk
над
##osh
##ungan
save
##sko
##kt
##נה
##aroz
བའ
##upu
hap
##ved
##ey
اك
##جت
##lis
ذلك
##ıg
44
እንዲ
kek
काम
##ogi
franc
##ador
##μου
##kop
རལ
##مە
##ତର
roma
اما
krist
##ната
##kaz
medlemsstat
tih
organiza
##umus
##itti
##zione
mung
١٩
##كوم
##bet
но
##jiet
ere
##obora
груп
##दन
တော
ላይ
defin
##ият
kele
##unkulu
jest
##kez
ورځ
đuc
##уда
kn
##וב
کړي
सरकार
##ites
nep
daar
##ioni
plus
stud
##ाली
##전
tatou
ին
hoe
##annya
##ба
##utus
austr
##imiz
зна
##ibil
##णड
##skih
##دن
##zin
get
perm
अधिक
42
##ⵉⵙ
##만
fis
mind
efter
org
##owych
##තර
siwo
intr
##cijas
لوب
##ماع
δεν
##wy
##ⵉⵍ
##ਹੀ
##із
##ಾನ
прод
##inio
##onso
cur
दिन
punkt
ked
preds
##ikat
##һы
come
##یز
##ਸੀ
##लक
##ики
их
##ветств
##vand
##ион
##छन
##راف
зап
vyr
ед
omo
apo
##ھا
chun
##iph
glob
также
##بی
afrika
apa
##יל
##ంగ
##алар
##irwa
##ges
##uy
པར
oleh
chua
##ποιη
##ukwa
##εται
aby
##tif
##bɔ
##ახ
##हन
يع
cir
##पत
सङ
##emba
amerika
##ное
max
##kh
leswi
##ayon
##anso
oper
bug
করে
##ton
##ше
saya
ats
##ater
##ಾಡ
международ
##lah
член
পা
##lich
##ⵜⵜ
##इल
aɖe
исп
ake
been
##ಕಕ
jur
##akas
##ებს
def
##نس
eme
བཞ
তার
полит
##사람
مە
kontrol
ওই
सि
##ᱤᱞ
##edes
##upi
đe
##ɩɩ
##анс
##ၢငး
##есс
udi
##րա
##yy
аб
تت
शर
اع
##inis
kred
##rag
##zan
taq
awo
그ᄅ
bila
##ına
##ligi
##ᱟᱞ
##πη
david
liik
##اید
نڠ
ес
##by
##ၼႇ
үз
##ије
شوې
##ਾਨ
##mek
##ях
দি
го
##ങങള
yezu
uko
##uwa
##ција
##enye
##πει
##tab
##وف
##ათ
##كر
ayaa
##19
##شته
##иин
esi
els
##tet
paw
##80
καν
##ativa
yake
والت
اھي
adam
materi
nust
direkti
riv
koji
##alta
bona
amal
##τες
oraz
##لة
##רא
##عمال
##kɛ
##성
۲۰
پاکستان
win
##ło
##ական
viz
##стр
##adda
satan
pob
##ikala
bagi
##ெய
opp
##호
##zg
##ელი
##enten
##stand
tes
مه
##ivan
lef
##lit
дв
រប
##дар
nacional
##iej
سان
##larni
ул
ran
##σο
##эд
uchun
uw
aya
##nis
##ender
vanhu
##오
kara
##før
ဖြစ
onye
nach
##cep
بش
##udo
##itik
##ारा
##etan
##فا
जिला
##icos
##าง
##sin
gur
prij
मो
tara
θα
##ਤੀ
##ತತು
vien
dog
tari
##onesia
##au
gaw
##მა
##েল
sn
##pp
врем
##ից
##ضع
##ettu
##بد
respublikasi
##ၵႈ
પણ
##θει
##arin
##ಂದು
дека
отно
##idagi
##ły
##eles
##ungen
65
ɖɩ
##іль
दि
##ɓe
##τημα
##ват
##ளள
کس
##іт
кан
##okat
##xt
##isan
jen
paul
belg
##치
ين
bibli
##omas
бы
བཟ
cond
##ىي
tamb
##utan
sav
lw
##ⵢⵏ
##lay
##eksi
##ικα
agb
2018
gem
དབ
keh
اط
##ᱮᱫ
sou
ਕੀ
they
azo
##الت
##arta
वरष
sasa
เห
سب
##000
##لاح
vun
dette
##jalo
रो
ला
##set
kommissionen
##ҳо
##ului
##ورد
pags
yɛn
तिन
hist
##ⵔⴰ
ដែល
##elsen
panang
atau
##ണട
ᱨᱮᱭᱟᱜ
vys
mong
जान
tv
چا
##mor
##ног
##erek
##கு
##يني
ประ
વિ
##ік
شر
ᱠᱷᱚᱱ
panst
##bat
43
##یم
##सर
repub
##sten
dre
شوی
##বি
klas
##tt
##वश
##ᱟᱢ
##امی
кал
ezali
##ମଭ
زم
##ipi
##vid
##imp
##әһ
##itsa
##زار
تص
जी
##otts
khi
##ним
والم
##कि
##ði
mani
##oga
##ема
##uan
##ись
##hol
priem
##යන
##eken
གཞ
##ога
guk
##वारा
##ew
આપ
ding
##str
indonesia
सवा
وړ
##вор
##قتص
46
mbeni
investi
##teri
##ገር
##jad
bia
σχε
internation
mari
wordt
##রক
##anto
##ေါ
##ంట
##son
كر
imb
སན
deze
##러
يڠ
αρθ
##lɩ
##ох
том
##δη
kaz
situ
pus
##мат
ናይ
uns
thanh
இரு
amma
##িনি
##ivat
agr
##embu
##ош
kateg
wor
soo
##коном
fet
въ
##ещ
сек
##ணட
འབད
าน
eli
सी
neng
भएको
нав
##यत
ምስ
##amin
##करम
##ыг
ਸੀ
##ahl
##zk
sao
pul
##iset
andu
##مار
##ாம
##ोन
##วก
kpo
instr
zuen
##ລະ
##ᆷ을
##ᱚᱜ
ert
##ют
എനന
##γωγ
skladu
koske
साथ
##정
##ევ
རགས
jir
vend
this
##ᱤᱨ
##වත
দে
##दि
pik
seu
##usti
เพ
nyang
ευ
ces
vast
මෙ
##egen
##ɛy
##fia
وفي
##тар
fas
ⵜⴰⵏ
##его
##kit
ener
##imes
kuli
sega
dau
##ап
tro
iyang
##idades
leis
##ديد
##aw
##lə
المو
१९
चा
daga
gov
muntu
##ᱟᱲ
bash
##bel
lom
##лав
##धी
bog
зем
kɔc
ref
sila
regol
estados
##상
##רו
##णी
##چى
##enci
##ria
##ოს
##upe
##hen
##мен
nariad
##21
lege
yhte
অন
روز
##할
##າຍ
vonatk
##те
its
##فاق
##သည
##อน
##اندې
rem
law
ပါ
ukuti
##ված
##vy
ukat
##циаль
ۋە
##മായ
diad
##ید
ise
اک
##onia
bena
کال
inform
esc
latou
##hul
48
pepe
объедин
##opi
ولسم
funk
stap
leyi
identi
##уз
yam
rot
##เจ
##olah
##үл
##дел
janu
ཡན
sok
##zak
មាន
गल
སར
##гов
izy
tongana
##तीय
##อก
ax
##imwe
##aga
انه
hud
við
##chil
##نم
ເຮາ
len
iye
##গা
ਇਸ
##zioni
##شار
যি
##راق
##plo
##רי
##ilan
##hy
chiq
រះ
вк
##ња
pʋ
##ਿਸ
уча
sell
ola
dwar
##orat
duk
करन
##pap
کل
ᱢᱮᱱᱟᱜ
##ijke
المح
fak
bene
##غي
luc
بان
kuna
eshte
مط
ren
##ojen
##बी
kada
##ितर
bih
##ivo
meny
##वय
sept
##ೕವ
##வு
##vit
##وك
euroopa
যা
##isaka
were
##کل
zw
reh
خپل
tug
##кол
##نگ
पार
нек
##خه
anthu
dokument
συμφων
cong
เขา
qual
وين
kind
##zet
strateg
##ለው
organiz
##раб
natur
##өө
الذي
##get
##תי
##فس
##oge
##annan
vei
##ikira
##onn
κανον
pie
مست
dhi
បាន
کړې
ade
##قع
##ایت
qar
##onta
##ონ
hum
futhi
##ၵႇ
estr
pras
##əd
##იდ
дан
##ҳои
##bir
##hold
aktiv
uta
##lov
##unta
##vers
##ereen
##லல
बढ
rw
##ɔk
များ
direktiv
##nar
##ያን
wara
00
वय
ਜਾ
##ាប
اللجنة
основ
ivyo
ratou
##सभ
##ilt
##말
##apu
##itos
##টা
ке
komp
##nit
##ford
програм
cen
##via
яв
##ቶም
##ays
##nas
##ugo
rele
خبر
jah
##ода
nder
نام
gab
spoloc
αλ
##elig
##qo
##ము
##siy
##fs
##미
zm
##ورت
maks
ही
bizotts
davlat
اللي
##োৰ
کند
sent
gara
standard
ngem
vam
##തര
eine
tart
##icas
الامم
doc
direc
##ਰਾ
##cita
##juci
genom
##ზე
##aham
##ответств
##دد
χρη
apost
rozpor
##едел
обесп
panta
##शी
tayo
өз
##ാൻ
ea
##atakse
##kii
##ivu
ᱜᱮ
mend
alb
basa
anga
yil
##ಾದ
##ဢၼ
##ordening
##idd
rik
суд
jot
අප
wel
dili
साम
ᱦᱚᱱᱚᱛ
abak
##లల
##ايل
##يف
ካብ
formula
##tia
##icion
pend
##kir
distr
nts
बी
##siya
##নদ
amely
kob
mj
fig
##রম
##ርስ
kali
инфор
##okuba
pela
##ovha
##imus
pur
ни
sebagai
доклад
tama
##alas
тер
dest
aho
རམ
rang
##ien
##ମାନଙକ
moet
هېواد
dor
##qt
##ችን
pek
telah
##ansa
bant
masa
##яд
saj
लग
komun
mala
tata
##hod
gob
##iaz
##ring
##ികകനന
राषटर
##hala
մե
##łac
dub
yat
วย
lic
ов
alla
##ition
##11
##لوم
ཅག
ndzi
пот
kale
opera
##emm
##ai
تە
##ايد
##වල
جان
ون
##నక
sod
ziv
izay
yra
इन
pomoc
##った
arv
pole
اﻻ
tout
administr
سند
##insi
##तम
ae
juga
##यान
##stva
##իս
bob
##ık
हर
ase
##juc
who
##яб
##25
##itev
##ាយ
##anj
dut
ولسمشر
kristu
nicht
mali
igi
##nog
ਉਸ
##াস
##ое
##reo
ori
taik
##embo
обла
وہ
##ekile
okres
times
ལན
##zenie
55
чи
vasta
##اتو
fit
کش
##ihin
##xu
##embe
##sal
##hun
проб
нации
##ەکانی
iny
##fund
##থা
##ᆻ다
##सल
##ාන
##ورة
yɔɔ
undu
##ито
##ᱩᱭ
##روع
##γο
##ាស
ukuthi
##ee
حکومت
##তত
ᱛᱟᱦᱮᱸ
بم
##ოდ
##tup
мог
اعت
inde
##umbi
zd
##hich
##тат
pagk
##tob
taʼ
##inak
иыл
sci
گر
super
##வா
##oln
ⴰⵏ
##ının
те
কি
dali
تج
zon
##கிற
##ris
οπο
mae
kpɔ
##ირ
reglament
##생
bap
##ᱼᱟ
minister
kutsi
بىل
pasin
##ોક
##erde
##кән
##عه
##ᱤᱡ
གང
tau
gik
##قه
##يء
kati
##ᱢᱟ
prec
##aly
moze
##שו
kue
##bh
##دار
bala
cos
##وە
մի
vez
cara
kore
ml
##уществ
zbekiston
आर
##때
##еше
##یل
chik
##शच
##די
maria
ат
##מו
сист
دوی
whak
kako
زند
জন
hina
##elm
adda
inap
##ێن
noteik
gay
##idente
atua
##wara
espiritu
##কষ
tana
syn
نش
##pek
##larini
##chta
hid
हा
በመ
fram
##اك
##こと
dani
kompet
##omu
##ður
##indi
kuch
##иту
##ty
mig
объединенных
མཚ
ess
##ٹھ
seng
##들은
buti
##rz
##ными
##æg
##omis
kami
##кі
وروسته
##gap
film
##कल
##வரகள
nol
соответств
##gɔ
jel
bhe
##ная
poss
##ېد
राजय
##লৈ
plat
1998
oma
##െയ
དཔ
proces
konkur
तो
##שי
ამ
მი
##ている
civ
##nika
##ilis
##орм
##ەکان
ike
izv
##ста
##غل
kepada
##cje
खा
##cijos
##ದಲಲ
نس
nta
tagata
##λυ
lond
into
malu
کرده
бр
cung
##الية
75
##워
politik
الاست
##40
yap
##edu
sau
##سو
होत
##ерт
##iler
bara
pare
нар
ᱵᱟ
ministr
christ
##वल
##ړو
ਨਾਲ
##ವಾಗ
##ପର
app
dies
fond
yay
bya
##தி
##ظر
300
##ыс
ukw
ایک
ᱢᱤᱫ
mundu
##lang
دست
##까
има
##għ
##ople
##umiem
бор
ngen
før
##owania
##ери
sich
##anz
tym
##ⵉⵔ
nyi
ସମ
##них
##usia
بند
##ствен
##umat
47
##онд
vari
maysa
##کا
##ある
##iman
##ias
##dek
foi
kaip
moi
ту
kwak
##hain
##सग
##ាក
##ዚህ
##ሆን
##irira
hans
tiko
riz
sɩ
менен
low
bango
##րան
##ਰੀ
mynd
##valt
pens
##ററ
ws
mont
##morph
tip
##ief
strongmorph
##ади
##ਹਿ
##รร
##ady
##wile
kaya
##hlab
བཅ
##tieci
##alat
##almente
jap
##နေ
យើង
ولا
##লোক
##dat
artiklan
##ian
રા
اله
sand
##oran
jose
επιτρο
कारण
##िग
interes
##chod
##ευ
##ிட
umo
थियो
jeung
pert
обеспеч
مص
kohta
##onder
wag
كت
##کار
wam
##pun
##ahon
##ၢး
##пол
##위
merc
##ገል
իր
jon
##వు
taw
သော
solo
yag
##내
поз
ግን
бид
##је
awa
være
หน
कह
##ады
##iay
punika
##лек
##हरल
अपन
##oru
##vik
##99
بیر
##ρων
##elho
##alin
يۈ
diff
ист
##বং
##ъл
##ⵓⴷ
##үм
##ۇن
tsy
##बन
##имо
gener
feb
##ера
hang
##leri
unie
τε
داد
##וה
##غير
ټول
##itra
##ಟಟ
अउ
china
##ям
गो
##جم
##ⴻⵏ
##ensa
θε
jul
λο
attieci
##fum
##τικο
anti
##ತಯ
##kum
##পা
የሆ
mk
##قات
oba
تې
saan
##رض
##ਲਾ
hw
ies
قىلى
جه
kec
prem
осуществ
ак
char
ཡདཔ
ninu
مشر
##שר
тех
##ible
##tay
##పప
##ahang
##ashi
وژ
##ее
zgod
##had
##akuwa
iba
ged
help
худ
##واک
log
##ρεπει
समय
##وني
##ahu
##ለት
##ово
##ედ
iran
1990
ᱠᱟ
##तन
ਆਪ
##tim
##ിനറെ
tres
##မႃး
يم
komb
##ಾಯ
پي
##ld
##люч
##apit
සම
##aram
lop
##jace
##itud
financi
chur
butu
sep
##able
##ရာ
oʻz
baka
пар
##tera
##еләр
##ече
sai
vyrob
##lha
सो
pana
##ાન
##даг
##ليم
மு
rig
کیا
долж
demok
lev
እዚ
##لىق
मल
ਲਈ
##øg
##차
bekez
थिए
mwana
tagħ
kuat
nama
edi
фин
##сед
##alen
##эх
прет
##وص
##들이
##शा
lesa
vaan
hag
jud
##wadi
famili
kamap
##яр
tig
pele
politica
pret
people
impl
##ېښ
تب
njeng
niz
ohun
satu
gir
##ارو
đen
##रस
རག
##ෙස
result
luka
vide
nona
amene
bei
##وره
##yle
sti
ის
اخت
york
##wari
##elele
##زه
##ছেন
##osan
##rai
##ало
##िट
projek
ഒര
##زو
1995
fy
##wona
hm
proizv
ime
conf
##erer
##wane
poh
sj
kik
εγ
##ठी
зам
zin
##ၵး
وق
མང
##առ
တယ
سپ
verordening
##خد
##mien
##องค
##hian
kabili
##usan
##lak
struk
આવ
##유
##खा
како
lum
##вен
бе
това
##əb
qay
##aj
##ugh
gol
vec
##zar
##ɔnɔ
अमर
yab
##zal
အမ
ہم
alap
एगो
##عب
yoo
зав
want
more
pate
##akuti
##분
##іс
ᱦᱚᱲ
##teagal
жен
генер
##ogen
##sy
เร
##itus
لري
kugira
करा
wab
حس
odp
กบ
##جب
ทำ
##ምን
div
##olt
thin
##ۆر
##35
85
##дө
হয
bod
rendelet
##زى
bef
വി
##ەرد
##nut
##onni
##atik
bwa
cia
##даи
many
##षय
conselho
190
κρα
##agra
##ismo
grund
##நது
##area
nea
igihe
##그ᄅ
خدا
overeen
информа
potreb
##اتي
##ιου
vonatkozo
mere
эк
##abr
বল
lov
zat
##ambiri
kuenda
##ited
##اح
itali
zal
проблем
##নত
espe
##vn
kaniyang
iri
अल
национ
##maa
##tere
boʻl
kini
##60
##lighet
##χυ
jako
##문
комис
कारय
##ᅳᆼ
jwa
البل
##ोट
##በት
sind
##uhan
mant
ezi
##माण
##owy
artikolu
nous
ነበር
πρεπει
regolament
osob
##chap
unu
नाम
hit
##eler
1997
##estel
##ulta
koma
ਹਨ
##নবা
alo
##ⵍⴰ
##तिक
мар
pril
پس
tov
##nac
##rem
##δια
мед
##نز
##ээр
##ປນ
##unn
мис
##dom
mondo
المست
##اغ
##خوا
##ବେ
##ايية
бур
हम
##수있
##σια
بشان
##ાય
##ضي
werd
##gende
##ولي
##oph
lon
sve
δη
general
##ellen
ແລະ
##كا
करत
##тор
ɛs
##king
##nym
##ေႃႈ
nhu
nch
##نان
эм
etm
camp
##idat
##מה
بىلەن
связ
ډېر
ټاک
##missie
կար
നി
##amit
vat
##σα
tij
##jev
նա
rok
##गी
##ᱟᱸ
لح
هغ
siy
della
##ਨਾ
##zel
mh
##istra
भारतीय
ချ
##ባት
ost
57
##enzi
mə
hana
комп
amu
##yp
##zit
nake
##මට
##에게
##inye
##ая
nord
##gawa
##ical
##ilor
prac
nkh
##េះ
wah
##ciones
sip
##ində
ntango
##wet
wanpela
49
##icu
gebru
##તિ
اعل
سل
ໃຫ
yena
##روس
ਸਾ
##gov
##oden
##ميع
##erra
loi
ск
##ступ
drzav
forb
مرد
##sg
##زر
##ылы
মত
##imit
##ød
##ties
dien
##lige
ⵜⵎ
##ете
##rɛ
tawo
##hd
##lab
hil
##ρια
##طل
##gif
preg
##ራት
##лив
yini
bizottsag
lil
ଏହ
malo
રહ
geh
##tat
دن
##ospodar
wer
kɛnɛ
european
របស
esit
vandaka
##μβ
##دة
دولت
##cak
हय
хр
teng
##truktur
##убл
verd
##দের
##лам
##ικης
umi
dass
རན
##מי
دار
##يران
##tions
មន
ank
##ਦੀ
##umbu
lena
##aris
commissie
མཐ
##ပါတယ
приз
biso
##לי
##सट
##like
punkta
##lant
تس
##vak
може
##zes
##шы
ɛn
##වස
maf
##fras
him
umw
##ello
##हि
juli
kapit
53
pali
##ⵉⴷ
وف
also
##ᱟᱣ
кел
اغ
gew
##ظم
برید
##ось
swa
samt
##ᆻ습니다
##ڵی
91
##icao
کېږي
qai
exp
##යට
##علق
##фер
ਦਿ
##του
##lim
taun
tog
korr
naud
##ambil
तम
##कषा
لوم
##łon
##ಮಮ
мак
gus
алар
kant
вел
##جی
koʻ
ngam
negara
pit
kib
##yny
ඇත
wad
καθ
ди
##lika
кат
##ዋል
##wira
##zac
##ورا
lay
##ของ
dla
##ubi
lep
люд
##ът
##ყვ
##ոս
internet
परव
##ஙக
དན
qilish
olo
krit
##رير
vazir
##ယႇ
##uras
##겨
##ಂಬ
##ron
iyi
##aron
kya
##sel
##การ
rozporzad
suka
nini
الات
risk
##щие
saskana
##ৰে
##တော
energi
roku
##ագ
rip
faap
پول
##ادا
fia
##ися
##otti
svo
turi
европ
##पन
ᱟᱠ
qua
##டி
##ስተ
тел
تور
dara
##লো
islam
աստ
##bay
част
##انس
gba
##ningar
ինչ
ucin
rep
1994
ویلي
lebih
anda
ngon
bwe
##ᱨᱤ
##აგ
##μενο
##گاه
oktob
развит
##өт
##ρει
##તર
وع
##uen
##omp
kwal
nags
##tev
95
##ړې
##एल
সেই
##osanas
##elwe
##জন
alkal
прим
##ощ
##asha
##нос
##ങങൾ
punt
troi
garan
এবং
##ਨਹਾ
sono
##ятель
کرت
അത
##inthu
##τυ
##hayibh
oor
вид
लि
paises
##χη
मद
zir
##ινο
ଦେ
atr
sut
необ
##េច
ilang
ду
##ну
##ەل
##कास
يۇلار
समा
##лож
##etag
bile
##мож
kila
##keun
##нын
แต
##ign
tabata
jis
деп
pis
көр
પા
които
ការ
nne
##рж
ⵉⴳ
දෙව
##apar
##ရား
##धन
##োগ
πλη
##iho
мест
##ೕಕ
got
طور
##xs
##খন
နေ
##hez
##lasti
arab
piem
suku
##cii
##మన
##בי
kif
##იან
година
suur
##olola
тем
##ոն
حا
stabil
##zon
##ρμο
роз
elektron
arm
κανονισ
انها
бал
अह
##ɖo
##σεων
##voj
coun
util
yari
fara
big
##ory
seka
план
urang
##fica
##etek
dotyc
##τικη
مې
##vang
india
##87
ast
const
##idza
##луч
ಮತತು
koo
icin
شود
toto
##ονο
##erte
gihe
##ования
दो
thay
##িস
parlam
παραγρα
##ಂಡ
قانون
bro
##ец
##ემ
એક
##ության
ไป
51
##yet
##सि
##yak
##ᱮᱞ
##ита
##बल
king
##နး
russ
1996
umuntu
mama
##apas
##gel
ric
96
##onde
elec
math
##ikir
ossz
ኣይ
##uns
##atin
##యన
##opo
hus
bond
لن
##ание
##anje
послед
##ope
##pak
tie
doloc
##әл
##ures
فع
buy
vot
govern
01
##лов
##ahe
kund
transport
##іб
kenn
bari
ще
العامة
kha
treba
aku
kao
##onte
حم
хар
##osto
قرار
tho
##рет
tasol
activ
pelo
##فيذ
##inc
cab
rh
##іст
##يان
##ۇپ
##خی
##olg
##ለም
する
##missjoni
செய
##amma
##zek
##คร
##াদের
##ાવ
ਆਪਣ
##ভা
उततर
नाही
gali
##ைப
refor
kura
tent
##دې
##onya
համ
mbe
した
podr
##రత
##ovu
ow
lɔ
##imen
иәһ
##нии
##ija
بھی
систем
nzapa
মী
##jiem
##ombo
##jne
##cip
फर
##larning
john
mambu
##jedn
mav
ملي
##히
kayt
hir
##tow
aman
##ную
سەر
kand
hvis
ᱥᱤ
##लल
kans
ቅዱ
54
##unya
kodwa
veik
tras
their
##ската
بىر
गरको
norm
ги
trat
##δα
##ischen
သင
would
##ووە
kre
verb
##ikwembu
kuv
στι
gall
માટ
финанс
طرف
ໃນ
##орон
##etta
##atia
##ares
salah
##cul
zag
##chit
kovet
през
күр
##ljan
##ګه
vere
минист
##ster
kapa
##abbi
##ских
наз
расс
##etas
##며
пун
བཀ
##ρον
කළ
##ونی
central
tuot
δε
තබ
нај
vic
##ymo
##르
##ix
fat
##еген
##قدم
człon
indiv
था
मि
87
which
##may
pont
##мотр
रहल
bamb
bula
ση
situa
##ikas
اسلام
##پا
juni
oy
##세
gɔ
##שה
##ندن
there
##버
کۆ
##ⵓⵎ
##iona
mulungu
sic
##ⴰⵡ
того
ᱟᱹ
##rol
##ൊ
##લી
when
##पछि
##day
прив
بخ
##osc
##လႈ
09
##emen
pathian
kuom
##uno
##ду
ball
uwa
##ριζ
hoki
##وک
contra
##ویل
sigur
кыл
نظر
##තව
nob
си
##वान
##ξη
العمل
мек
##ধান
##ოგ
отнош
92
##iao
##েম
##ekty
registr
portu
zad
##ահ
52
##akun
ⴷⴰⵗ
##يز
##قر
दवारा
участ
tarko
ਉਹ
##emis
kodi
##ವನನು
akw
##وار
ico
sop
##실
кос
სი
##funa
##وڠ
lama
ја
##రయ
mib
অদ
prog
##ɩyɛ
betr
হযে
мет
المس
##فته
xikwembu
مۇ
straipsnio
##onj
##amal
##ostat
##යෙන
##egev
ཆས
##сэн
##동
##իր
hvor
anya
داس
##ونا
##owego
##dır
##jum
nzambe
сод
##uai
કો
##نیو
##ැක
##tio
##ᱭᱟ
يەم
srod
##gas
מה
##ећ
##arra
##ាម
przed
##indo
##lema
clanku
emp
อน
ನಾ
##ון
mee
##bon
iga
##ᱩᱢ
кас
विशव
##ලා
atas
##λου
bom
##ovani
global
##장
##zio
##ಕೂ
##ματα
ⵓⵎ
하
relativ
dokum
##ety
lla
amo
mula
га
##पी
giv
##께
##ايين
pablo
enligt
bahwa
ots
yii
maq
papa
##mist
trump
##ыва
instit
##vimo
##इन
fed
##ၢၼ
جمه
##လႄႈ
કહ
наш
жив
موس
##andla
ενα
##tɔ
mosi
नही
lor
##stu
نق
##ави
ڪري
ໄດ
ⵜⴰⵎ
طالبانو
##tes
##зе
##اما
ato
فت
ray
##oce
सस
จาก
##enje
કરી
##ۈن
تل
mgbe
алла
##alit
مار
##erings
##anja
##မႈ
aki
abe
دري
הי
##τει
61
##anka
αρθρο
##uuf
97
مال
dey
ede
oss
الري
hall
##urat
##cı
ती
infras
##وش
##angana
aiz
##নতর
##ally
##ער
ме
##کرد
għandhom
kond
darb
ine
ومن
##larda
##اير
selle
وح
важ
##oven
##فق
ava
##qay
ຈະ
##ாய
##고있
поч
konc
pec
##ahay
##ять
##ია
ⵏⵏ
белән
##مس
##fl
кра
мас
bedo
ஒரு
##တာ
pand
meta
##କଷ
##ании
соб
##ⵉⵎ
samu
محمد
jez
خان
##ᱚᱞ
δι
##िति
འཕ
##ley
парт
atti
##یان
##fwa
##ından
##used
ਇਕ
bone
marka
кит
pia
##dı
ལགས
difer
geor
##etes
miz
equ
##idwa
##भाव
kadi
##ลง
waxay
dah
##ايا
vse
တင
tren
##ตร
##ube
##κρι
##skap
##yel
##ongan
मार
##ление
བང
##oraz
##inh
##તી
##않
rendel
##fen
mille
मी
tʋ
##iteit
##ลก
##తు
pasi
actu
আর
bem
##ulat
##तो
##োয
uprav
lona
sektor
spraw
अनसार
нап
##щин
##ybes
enn
##anai
hes
nə
rod
##naam
##pai
toot
bata
wux
rela
##гүи
তোম
کت
сог
##inge
##34
##eron
lel
##কা
1992
##ىم
##ання
ly
##usalem
##37
##engi
##arol
overeenkom
olan
##олю
ལག
toc
##лич
للت
ese
##ви
stav
ٿي
##ဝႃႈ
##jin
##perti
##гот
##держ
##طي
gbɔ
##ipe
##した
मख
avs
##നത
ⴰⵍ
insan
##gun
στα
dalib
рек
نە
##نهن
febru
гол
koje
republik
##واز
##ɖɛ
##ङग
δυ
repres
atbil
koe
##inden
aur
##ικων
##φορα
ہو
1993
wur
siz
спор
##таи
taj
obd
aos
saksi
##prod
መጽ
ⵉⵜⵜ
##လင
##ലല
विकास
##ყო
##อบ
oshir
##osten
tako
##ision
ᱱᱚᱣᱟ
mada
tso
tika
##uten
बाट
nako
ହେ
yana
##taan
حد
airteagal
##లన
bien
64
##데
##жа
##ader
##نامج
པས
پیش
orig
ath
حقوق
lahko
اگر
oge
ወደ
##bb
##رس
##opp
ځواک
##бор
থে
ይህ
quan
মহ
##وله
##loz
##पति
##омен
ምን
bɛn
##mesri
hv
программ
tien
##ските
پێ
caka
##ើយ
##эи
tudi
সং
##ᆨ을
beslut
##uses
66
ⵉⴷ
dapat
##akhulu
98
sera
आम
ви
##ರಸ
##انية
##মি
2020
zel
##fatt
ຂອງ
все
##oty
##waga
էր
##амб
##ดย
առ
##areo
ကျန
спе
שה
##မႉ
geme
विभ
##ratti
##ettava
яр
##елов
##چه
memp
artikli
##adza
element
56
lagu
ment
##ᱤᱭᱟ
जना
paiv
##ться
بعض
##టట
##ⵙⵏ
الانسان
उनी
primer
##гу
kwe
muh
##ينا
##რთ
izm
cult
##tib
członkow
##erb
##др
đang
##kim
##계
##jai
arbe
بق
vet
##otl
ခြင
maja
धर
##yaka
mwaka
##לה
##znych
aux
megfel
වෙන
გამ
lol
στις
fog
##ਕਾ
tec
twe
##شد
ieova
##ikut
зас
yur
##वसथा
brit
##ybos
##ները
##enek
##øre
ຄວ
само
ཐག
clen
##hel
wanem
##الو
##rio
##adto
asia
हि
kontroll
jasen
##ោយ
बाद
मिल
##సు
##님
ush
ulo
##ولې
toh
אח
abu
##alang
web
มา
##ነበረ
##ulan
##itim
בא
##alari
##би
##ereza
##ofi
necess
media
rɛy
فيها
खो
jik
नया
vya
##راض
aber
##gab
##фи
الاول
##හො
সা
сотр
##ាត
anvend
##كة
##riv
сотруд
##ാവ
chif
jav
پای
taman
wyk
##tep
##mus
ευρω
mund
interna
anos
##ၵႉ
kisim
##toy
##kap
##embra
され
ጊዜ
##נים
bja
rib
##ثة
wit
pete
trib
##emos
παραγραφο
wł
##mit
##eman
##weng
احت
##con
menn
oig
لاس
рам
##omet
##ljen
##στα
lus
##асы
##λει
##agg
##धि
mora
pran
lua
##ورو
afg
##لر
##jed
нач
которые
human
лиц
##іх
uria
pann
کړی
مخت
##ᱠᱷ
ար
tali
ebe
wek
##ತರ
americ
tera
##rid
##ხვ
ښاغ
##elijk
قبل
необход
naye
##anse
princip
ndenge
raan
##emat
ун
বয
##irish
གཉ
##ရေး
##zne
##сь
##ᱩᱜ
##ið
##יות
##ियन
##ss
sina
irany
##isin
##izz
##ojn
тө
كانت
##шен
ain
мат
##ibwa
##ێکی
##usten
##90
##ကျ
##ison
##दय
liikmesri
##ۇل
ቅዱስ
manera
لب
##овать
disse
##कट
mn
##tra
це
เม
hati
लागि
##cek
##rig
வி
pais
##cel
programa
jum
##ைகள
april
##inaa
پار
اړه
lie
هی
##ます
05
føl
སགས
उस
tou
##ега
serb
នក
##ौर
деиств
##නනෙ
baf
##manta
nhan
##ικου
rawa
##zzjonijiet
zn
##nich
##ايم
valam
comme
nipa
жа
jiova
trabal
menjadi
đoi
##mark
ym
##ضوع
##пт
hai
##ારી
##ihan
баи
zeova
##ative
kummissjoni
##gaan
మన
##imh
##եղ
compl
##upela
150
odl
##anao
kuny
##ᱡᱽ
##nd
այն
efe
world
##гон
ਸਕ
གནས
##stall
##وون
##enter
ساب
bli
abs
fiz
rady
روس
##asin
غو
কা
##เป
генераль
सट
##وى
##رج
ogsa
မာ
nwere
бас
predstav
##တႉ
تد
##λων
واحد
области
##관
toʻ
##ⵍⴰⵏ
##iał
jalo
ਯਹ
##amine
پرو
##әне
##ាល
integr
zvin
##kulunkulu
otr
##zyst
соз
ane
xwe
panahon
##alak
##skab
gang
яз
##ଲା
mutindu
badi
sake
you
##दया
##ataan
međ
##명
हाम
dj
##ᱰᱤ
امنی
gona
dyr
##లను
الحكوم
##မၼး
acord
જો
##ىلەر
##중
ін
эн
شه
cast
##βου
##ႃႉ
andere
##ுடைய
eku
paat
tashkil
tena
هند
##लन
##uter
##31
yakuwa
##ταν
iw
##оҳ
##সং
ook
يەو
образ
##plat
##ulis
##εργ
بع
spre
полож
باید
disc
ዘይ
##ரி
##ury
##ীয
##hodn
december
##иль
##ريد
ပၼ
kasut
##aras
##imet
yero
##بير
##урс
eile
tshi
bør
grand
kuila
##दार
जब
##າກ
особ
เก
eir
##صد
400
##كس
zgodnie
sant
sung
##कषण
##رام
##מר
paa
किया
skont
tej
fors
किस
##ذلك
##uthe
chom
##तात
nato
##wad
##taim
respons
mano
anh
بى
##vate
##বর
##unye
ᱵᱮ
##कति
transpor
акт
about
##ମାନେ
lip
oj
его
дог
##skim
दा
نمی
##ாவ
ເປນ
पतर
##ojo
##oman
รบ
fall
##ាច
##මන
perd
kendo
##ರುವ
কৰি
##دول
alkalmaz
##μενων
сер
##ezy
last
awtor
ms
nhial
##iras
शरी
07
cs
dam
جيڪ
ня
##itsh
piny
κοινο
banyak
##гө
##ەڵ
1991
##vall
треб
##isch
тор
bung
##wej
##әи
##бе
ອງ
viv
##jun
##ɔm
पहिल
kudu
ema
##պես
##се
neu
##kyt
ша
metod
atit
##изв
saba
dere
ཤས
##isiwa
жана
секрет
##ሱስ
তা
அவ
milli
kongreg
نح
gcom
##ⵢⴰ
##ark
suc
onun
##ωση
μη
शहर
##ᱮᱱ
ඔහ
yim
sele
##डल
munt
##کس
##jud
нез
asɛm
isu
##ници
ورکړ
##الات
الاط
problema
##لن
##jih
suma
tex
keb
##ети
челов
##okan
نز
piu
##ناء
mmadu
##ugi
##गत
sac
##enden
ممكن
ruh
##nɩ
meet
zan
##ምላኽ
jiz
##fur
vona
##ⴳⴳ
ves
##ɔwo
المج
ол
oso
mie
##arang
##eft
اهن
##ینا
##22
ايضا
04
##eret
##بان
88
који
##যার
għandu
hende
##ስጥ
ಹೕ
##jor
##ilm
##တင
सरव
jin
እንተ
זה
##atur
fot
цент
ነቲ
انج
##વામા
ድማ
##ihl
year
cewa
ntangu
đieu
##предел
##wie
چاروا
মা
yol
##तिर
ਕਰਨ
མས
06
werk
सप
तक
каз
##gah
##arian
επισ
ዓመ
ہی
интер
##own
خد
##ission
##tik
##지않
##ിരനന
yai
##ینه
moo
##हित
##tive
##alik
umwe
democ
appl
##हार
##দধ
##ايت
iza
##ுககு
prime
направ
نہیں
نن
wach
wennaam
fyr
##মা
aang
##atay
الغ
ngal
eru
chak
##비
απα
सत
##ily
управ
комитет
moto
ен
##더
##ubo
uporab
##ριθ
##گار
##geta
h5
##esse
նրան
muut
tib
တစ
93
فی
ᱵᱷ
##aa
##교
##enk
##rij
እና
##ason
dunia
एकर
stad
mono
تاری
pozi
يي
##inar
##ному
འཛ
กล
kalou
ཁང
##jang
그러
ibyo
##တငး
##itear
##gifter
الدولي
atawa
dilo
##ների
##ۆی
##ектив
##hon
##ᱥᱤ
##ением
##ward
ariko
##ataki
නැ
ув
kry
ଯେ
##ەکە
##ාල
depart
samb
հետ
##فه
خاص
##stig
ຄນ
##خاب
служ
мал
στοι
appr
وویل
rezult
##णार
##כל
pɛ
stos
pier
##சச
sho
uber
##چە
technolog
потр
voz
daha
ብም
face
የመ
##ᱚᱴ
##တက
58
##eteben
tee
sein
##اسية
##ekin
tomon
заб
ਵੀ
##гар
musi
##lac
##egua
kump
##opas
##ынан
##टन
##ант
μπο
вер
##wac
##fici
akk
##hixo
parlamento
ਇਹ
jord
##음
поддерж
##ashon
hav
พวก
ngoi
##łe
mbere
tark
sunt
ukuze
##കഷ
किन
##γη
رہ
महण
chang
بەر
eo
होय
##ኽእ
эконом
##aspa
abi
داسې
පැ
##станов
##າດ
או
67
##ਵਾਹ
aton
במ
##що
##це
ཅན
59
##yeb
બા
۲۰۱
##скои
hisob
##chten
importante
mpenza
##దు
koya
ture
baibolo
##ብል
خا
##ᅩᆼ
проект
འཁ
তেওলোক
##بات
base
شهر
questo
nakeuh
##pil
##િયા
tagall
deter
ру
lugar
mush
maat
##োর
kesk
##aling
hok
elo
baa
##ضر
##ील
yona
ତମଭ
konf
##ರಗ
megall
motho
##bes
деятель
nut
##agen
##تم
मातर
##χο
ти
apres
##wes
vik
##meny
##して
##ologi
##amai
မြ
##acht
ihi
##ⴷⴰ
bibliya
συμφωνα
wuxuu
التق
##처
##gd
js
ika
##ない
projekt
मानिस
##ததில
##wik
bibiliya
изв
##ram
##မငး
##ual
##خو
zaman
##चन
podla
##ၢင
##یه
##िता
ናብ
##िव
##ვის
ᱩᱱ
##icoes
##मधय
ха
##ids
الوط
uredbe
njih
##ዮም
एव
##อย
dang
##فع
##ingga
jou
lut
लोक
##isho
وړاندې
##ме
lav
##rik
##ree
##վել
qur
sonra
##hla
##נות
jasenval
git
uved
##vanje
waxaa
port
##υν
оч
makambo
##asion
mao
dell
##anyn
jotka
государств
##ires
##eling
народ
dalibval
comm
dic
อา
##ატ
chan
##ରୀ
##zej
ساز
eva
##روه
##োল
##ует
##imat
##ishe
jog
زي
ngoku
##за
##edwa
ཆན
##ebi
bali
በተ
##dur
ukub
##రక
##amatan
ᱦᱩᱭ
##qh
##ieb
##adem
हई
yicha
حل
##opan
duh
##τικων
ustan
muno
##ਣਾ
##ھر
##ᱚᱸ
chineke
તઓ
اث
italia
past
##aksi
hanga
ahau
مث
الخاص
مصر
maundu
##etty
##owane
main
##ента
ир
phu
เช
নে
##amata
##øt
شۇ
##षण
ekspor
##во
finansi
##මක
##ugos
presidente
##ψη
saw
qon
##원
time
##hawi
##گه
aon
shu
sə
take
иск
##ույ
buryo
yonso
မည
mez
εφα
คร
bla
ел
saka
શક
tamin
nha
##경
pode
ucun
كې
شا
##orang
trab
fɔ
##88
##ځي
ወይ
ace
يال
frem
кам
imo
الدولية
desen
##ામ
##ія
وزیر
##चछ
meer
##orr
##δι
biex
##کھ
##ሖዋ
ок
##યાર
eyi
##ics
бү
##wai
##टक
ех
verm
མཁ
በአ
##ograf
הש
##vuga
तिनीहर
nyan
##цен
##icke
उनल
##wele
##faidh
03
vad
##χουν
rim
থেকে
seh
dw
##जना
##աղ
werden
saking
іх
instrument
მე
##ικες
като
##атив
εφαρμο
сол
ځان
##niu
وج
иылға
##ودي
wong
thil
##uluka
emb
راه
##elses
पन
sot
fela
prima
සට
##chas
taka
work
kompl
##شه
χω
katonda
##ffe
##үүл
##ಹೂೕ
zr
##15
beste
bekezdes
##ikhat
##ести
དམ
##ᱟᱹᱨ
لەگە
tend
##வே
##γμα
##ାରେ
##erc
கு
normal
cla
##emente
drzave
وې
lad
##ঙগ
##uzu
##ום
##انا
##tirish
zb
##orit
ناو
tungod
fos
##گەن
##ја
##ethu
vana
vart
մար
кил
ಮಾಡ
ຄວາມ
##ىسى
jane
##दान
རད
យេ
явля
##сон
##चना
timote
nyonso
08
mip
##cos
pian
cet
##liw
juh
cikin
##فة
masu
##추
prek
jihova
ук
יה
таб
vara
etter
##ριου
job
বিশ
αριθ
አን
yeo
svoj
аст
мир
কিন
##ᇂ게
##قدر
##qin
sluz
terr
اسر
wsp
##ಲು
##কী
تی
02
yehovha
##करण
##car
##ıq
##stell
xiz
аф
##ತನ
##ەند
##διο
өчен
##വം
ता
zva
dodat
vida
מא
ውስጥ
##luk
સર
##etra
soz
beib
##ويل
##δε
##သား
##αρ
##aliz
chil
##paq
##عدة
##inshi
##িলে
##डन
##idzi
dv
##ازه
##ането
دى
adw
after
muz
wol
##orth
##ɛl
##िप
የአ
egin
##enna
эл
##ალი
nzoni
##undi
##பபடட
##ᱮᱥ
##oper
څه
##ಗಳನನು
uwo
ukul
##٠٠
##olas
##оро
مب
io
ہند
බව
##ɔa
باز
tus
##ဝႇ
kena
loku
##fai
##qal
##lap
кард
mera
barat
##てす
ارت
##обы
esan
ukham
estado
onu
##organ
##عات
dayta
##قتصاد
maw
name
ngi
##ေႃး
##ыв
##үз
དས
##ಗಳು
##akam
semp
##သင
nso
رح
##toon
industri
##ᱤᱛ
setimes
##ool
##ولی
##லை
##yana
mv
nyas
кеш
deci
পার
biti
##कन
now
##చచ
##ozas
##물
групп
##हरको
चल
2019
##32
##වර
##onisa
##arios
##опас
hoi
##ің
rol
##ڻي
##ենք
شخص
eis
iray
السي
##ovane
baw
##없
يمكن
##ારા
##raa
tond
bikpela
##chaft
##hia
صح
خط
##فو
bilang
iho
noma
cim
olgeta
คณ
przypad
كا
##anden
badan
##juce
signi
esa
segu
##واہ
medi
bizt
consider
##цы
##pend
##chd
waɗ
onyan
अनय
националь
##வி
##ⵉⴳ
kull
ireo
america
zac
пункт
tekn
пери
##itta
pasa
##alam
lidz
##ulula
ewrop
ktorych
##onna
ගැන
##ంల
##간
##ვენ
biy
pemb
samo
##odz
##alaa
##orpa
sprend
##sch
kato
1914
дек
##oren
##वास
fid
kuph
##chito
##ileyo
##pol
##ibo
कछ
##edia
ula
против
የሚያ
eci
##wydd
তিনি
ཚགས
لاء
##oval
##алі
ezin
lung
gih
##mos
لەگەڵ
##شم
##apos
##entra
الاخ
امري
kiv
mongwe
کرنے
##ยน
##agar
187
##ەکی
##ลาย
asetuksen
##ାମ
اقای
bilo
##ուս
##ovic
nodra
tos
دیگر
dug
bisan
zit
لان
kakhulu
וה
##jjat
##sto
##lys
bilen
##회
boy
##වෙ
##jeg
##ektiv
##ଧୟ
हिस
fɛ
##રો
##ριο
гар
krav
hta
sred
##hur
##etik
dnia
72
##နင
##14
gomme
аит
মান
##atsi
লোক
##ংল
помощ
##ാകക
##nje
abd
izany
vill
##eget
lapho
kete
vul
##ارات
##jaan
##остав
##μενα
ለመ
##eran
pagb
buku
##ikana
##onak
tob
viet
پل
##ാം
popul
muy
дә
soma
##ovych
እተ
hadde
##uza
##रीय
rit
مجلس
##eros
অমসং
##punk
وزارت
##용
##พระ
##ило
##kopɔn
onyankopɔn
הוא
mukaisesti
پیٹھ
cok
daa
nyasaye
##fyl
женщин
##ре
deur
bondye
kuj
okuk
##ټر
##ಳಳ
дав
president
nru
##امن
##کان
ਨਹੀ
##скиот
సం
hul
laa
##otas
கொ
##omoci
##নো
yati
महा
puh
##حه
##dən
gala
faat
petei
ayo
وك
##ျး
داشت
безопас
##dɛ
bħ
чет
ره
##타
##luit
##ادر
شن
fort
huma
भाग
##ʻu
bum
##ையும
tis
बद
##ਸਰ
##قان
##یب
rug
##inka
अव
##تها
سه
ɣoo
detta
##तया
##ⵉⵡ
##weke
##ىڭ
southe
##adigan
वया
##fon
##িযে
སལ
##cios
saat
##ict
##ણી
faia
##iag
tona
##lon
nau
адам
ως
basi
मत
##chte
##سر
##omm
attieciba
##aret
##ebe
viec
##уг
مات
كم
tsela
##បរ
##ольз
بہ
وار
tanga
##gih
##호와
વા
بات
##atok
prilo
दव
কিনত
##োৱা
bendr
##لیس
southeast
##ᱚᱦ
kapital
##работ
علا
##ၵၼ
##ەتی
##וס
cɔ
wena
ኣምላኽ
compr
##pel
sett
##ulos
لر
ɓe
эш
ubw
bira
##нак
##obu
##رته
rena
պատ
ⵓⴰⵏ
durante
##әш
##araga
ነገር
##جة
tshwan
общ
##వర
докум
##арды
##esis
##upan
##нең
હતા
##umwa
##ഹോ
oni
فيه
##гі
سات
##лат
##gard
62
matu
ник
##ması
yeroo
дип
buru
national
satana
##கோ
##মান
biet
##ያት
पठ
ನೕ
##ense
وضع
##alela
##unz
phai
સમ
случа
جميع
##мет
##στη
ukre
jw
oli
makap
rich
##haan
##ио
περιο
certi
ڕۆ
##لاف
##itz
##stvo
68
چون
##wazi
bagay
84
ክርስ
ndu
##ման
එක
##बार
spa
adu
लल
যিহ
##ظمة
##ခင
##itajiet
eni
##ыу
##বৰ
##וח
##કાર
##znie
mov
اچ
fon
rag
وش
vera
##sgal
පළ
vastu
##ival
aasta
ilyo
hind
##ومي
##иеи
##elel
##மாக
swan
here
##ledn
##unj
kraj
час
νο
##исан
སབས
##ρες
##പപെ
offent
##우리
##ாத
ਯਹਵਾਹ
##තත
kohdan
vald
##دمات
##xon
ᱨᱟ
77
dab
ਸਮ
τρο
vous
stanov
хэр
kho
##istas
jy
##ock
hø
blir
##ምላክ
ош
##வத
lingbi
##τικες
##된
umum
يۇنىڭ
aig
ብዙ
gha
##ლის
регион
twa
##ims
jira
ⴰⵔ
nsh
અમ
##फल
use
##پی
кер
সকল
daly
він
##धा
کشور
##hana
القانون
aud
lill
##ното
united
говор
domin
tɔm
នៅ
למ
##orwa
##ниот
##ብር
##gest
##jacych
##बद
ros
##ደር
હો
پور
मर
iad
##ାହା
موا
المد
cro
##ونکي
too
izra
akong
##68
তৌ
lenda
##받
##डर
##jab
struktur
##chin
agent
dra
tav
ചെയ
hataroz
##лог
##ман
##atak
ming
##ms
ການ
hiya
##arbe
jadi
##ககிற
hierd
sector
##hataroz
zur
तिम
##iriza
ལམ
mosusu
##ତା
ሰዎች
dawn
##onzi
objec
##ورية
regional
வே
tud
fik
sont
mwan
impr
izan
##जार
ཚད
##μει
یەک
fen
laga
seri
##anoma
##րի
##alala
लोग
##หน
send
chifukwa
akar
дем
परदश
heeft
##irin
##zam
قىل
rozhodn
مختلف
##றி
hɔ
##yaw
yıl
کسان
naswona
सव
##енә
##ках
stod
##ega
jag
הת
dial
fakt
جام
##שים
tamog
tokko
1980
##ረት
##وات
wr
වැ
##شتر
##ககும
##vaks
##ելու
keessa
tshia
timo
cop
itti
altal
##уул
инст
ҳам
ασ
##ړۍ
##ညး
november
##운
##tige
البر
cand
##ящ
##edon
##ovanie
##ريب
там
##oten
nto
fem
##dar
##larga
اذا
piir
თავ
##जञान
##sm
##פר
hierdie
##owanie
94
##پو
grande
подгот
saad
बार
empr
tusi
##elde
hasi
##ble
##дэг
sporaz
##परण
dne
seperti
فل
##ʼa
fost
ifyo
##ቸውን
بیا
sens
##цию
hink
שא
uvua
gebruik
##نہ
##tavat
##эм
##ского
##തി
নিজ
alm
گذ
مثل
##egħ
##زا
##ᱚᱵ
##ञच
##naa
duke
desenvol
##edr
##яс
fana
lelo
чт
લોક
##фт
imm
куда
нед
##kang
yem
gennem
ډې
lawan
##نمية
လငႈ
september
eeg
сил
##viy
##ილი
##орт
politi
kredit
وجود
##elei
radio
asta
##orda
ວາ
ees
गाउ
moya
##한다
amalga
##वाद
dist
europeia
nivel
##agok
130
##izacao
##ωσης
entr
iso
##znam
attiec
وقد
partic
##ᆸ니까
##ၶဝ
led
##usel
trav
##sioon
##gin
dział
kategori
والا
munhu
##ናት
iest
##وسط
зар
правитель
afa
##നറെ
##τισ
दिल
namo
мә
ут
ил
protok
eeyan
muene
##itwa
іс
##kay
སབ
##قط
##ev
भाषा
##າວ
##ektor
चाह
dhu
чтобы
##antis
གཅ
kag
kabup
იე
##amaan
уб
##ابت
روی
عبد
##kɔ
##pov
reglamento
##jali
unije
##ობა
kwambiri
##행
##وسي
feder
عل
לע
защ
tax
vall
قب
##رګ
ਉਨਹਾ
##ضاف
awm
##λιου
تف
skulle
הע
lei
##ау
pent
ded
hei
turk
tiz
གཉས
იეჰ
اړ
##국
sib
600
sır
adop
تړ
بما
clena
minh
हिन
maaruse
##פי
odpowi
##sebut
##وتا
nyo
dost
aso
pala
иәһв
99
கட
##тэи
##arkan
linga
##পৰ
##atsa
##быз
eny
ເຈ
كى
влад
rata
##ᱟᱹᱜ
##ໂຫ
nka
##पालिका
munthu
##jumu
۱۹
bers
போ
ап
##дин
##ستم
##upakan
tapi
##جل
##ect
भए
οπ
europos
kyse
##तान
##unge
regula
##جو
ghe
faapea
gutpela
kultur
dala
##ander
spor
cada
##বার
биз
materia
##wini
studi
ทรง
rozporzadzenia
##weg
зат
იეჰოვ
οποια
mug
בע
rur
##wm
ᱥᱮᱨ
دل
gio
fri
##ildi
##odes
##كتب
##ավոր
olisi
резолю
##zig
mbote
##شك
##بع
تھ
lowu
##identi
yaye
territ
##હો
##ᱶᱟ
ⵉⵏ
provin
paivana
ner
lotu
සහ
##ታይ
zer
nende
مرک
cak
##iladi
##inter
##ɣi
##ासन
##ಸುವ
jat
##arhi
dalies
##kes
##isana
между
kuh
##සා
sey
##ரகள
maidir
ನಮಮ
##isme
kien
government
azy
ntchito
dro
##nov
##ojne
##ращ
sali
##ၢငႈ
##மப
them
mose
##षठ
gis
vum
hur
byt
##느
##ቶች
tac
परस
##ାସ
ضد
ⵓⵔ
амер
##సతు
##lary
##иваю
бурх
thata
ເຢ
بالت
##ɖu
nila
बहत
rub
##াকে
meghataroz
gone
##rom
pasak
ⵜⵜ
вод
aling
วา
##okwa
али
##viz
gib
##زيز
પો
aras
vs
maan
##add
##ᱩᱛ
control
##pes
just
##enem
##នង
ер
##ومات
##দর
##atii
##lıg
##ультат
mult
##uar
འཇ
##əc
ನನನ
хүн
сал
بهر
جی
ერთ
##раф
##jis
cm
hukum
کابل
wakati
conta
परी
председ
ಕೂ
ਜਿ
##atel
##icio
##ikuwa
tersebut
prislus
##ilik
वयक
возмож
##ழு
рад
bangwe
rest
##וק
fye
договор
каже
уров
blo
##erah
επιτροπη
yoki
พระองค
##aring
##ድር
##enos
hte
εμ
##etso
eno
kusala
##rim
nustaty
mili
##овод
##truc
għandha
##قيق
##కర
ose
##sid
lee
वाला
etish
##inə
يوم
informacija
zina
##uge
ամ
خار
miwah
##ବଂ
termin
tagallam
##iyat
##কত
wys
провед
##13
cie
taip
རབ
neza
العالم
##amiseks
premi
##uhat
kulon
የሆዋ
भर
189
стат
vert
##лык
##24
##ils
europai
##char
##लि
เล
atene
გა
##ipun
##wali
потреб
##egov
##ileng
umut
अधय
oje
##וע
male
kudi
##ဝငး
bihain
ра
መንግ
##ತು
##umas
unjoni
clas
two
##eges
karena
how
##nea
gaz
᱒᱐
##တၢငး
##atakan
eƒe
##itiv
obe
##opera
پەر
ngay
##andet
integ
vkl
использ
गरका
##aniu
##ഞഞ
stk
parad
motor
##যান
kaes
много
##വര
##ၸဝႈ
##ices
නො
##ħħ
##vert
andra
##দনা
##log
nome
##ਾਈ
##nieg
##fol
вн
λογω
huwa
##두
##ರಯ
##ებით
##гол
dio
гор
اﻹ
##រះ
##erta
spos
พระเจ
##चच
zosta
ᱚᱱᱟ
зад
##ாட
chim
##יש
تک
jɛ
cif
noe
##ующ
सद
هنا
##ⴽⴽ
ix
bac
ps
neh
чис
##ware
निय
අන
##فظ
इति
##iu
ndlela
tani
##ଣା
चर
тар
ــ
gli
kez
སག
##kus
ᱟᱡ
ισ
асс
##ilen
कला
اجل
final
##aniw
##τρα
nua
##skog
دارد
##يب
koll
artig
dels
הח
וא
izjav
تخ
athu
##ogbo
unders
##lage
##igas
##tsha
koja
keu
##мәт
##ага
تمام
##ስት
##сии
жыл
sese
pagp
##enes
ཞག
##arde
ति
παραγραφος
international
baina
လက
үч
koord
пад
##노
كۆ
כל
##ાગ
vut
iwe
panstwa
##ಷಟ
##সন
नगर
##iring
##าว
63
##ായി
iss
yose
بص
##കള
##som
##tii
##රණ
rr
##lop
але
каб
hoz
##ред
##진
##ደረ
##ення
##amist
##іч
##urd
kapcs
##σει
##uhl
juda
##voer
মখ
##قديم
зв
dij
سە
duni
soki
##poz
ota
##rer
હતી
سع
##tua
##നനത
kanilang
ugu
pomoci
##atra
stop
ใช
ngayo
prakt
##abh
##ιτη
##олн
কৰা
prid
ijo
##ᱚᱫ
പറ
##ላል
megfelelo
##isel
өл
##েনট
godk
##ላት
goz
##iski
##ynt
bra
##ګر
kend
##صلة
وژل
ଏବଂ
##іі
##መን
##ulang
jewova
ሰብ
##ვე
سنڌ
##inst
diha
تھا
##ungo
##ෙක
europej
பெ
##үс
aro
##17
##abang
##ပြး
##ıgı
##vant
##vos
было
ash
شب
##olla
##ekom
##ilig
мес
##سات
kae
##ише
##ⴰⵏⵜ
ถง
развития
##руж
##ሆኑ
wannan
zast
##arii
keess
some
##usha
##കര
##erste
##ден
иого
##risto
##بال
##isko
##हरलाई
##ates
##apela
mic
paz
πρα
##łu
##chtai
##impe
البلدان
##ιον
much
keda
##भन
##ፈል
berk
##fw
##ters
enlighet
gauna
bio
kohd
লে
شمېر
##तील
hə
##vern
##utha
##كو
##odzi
yuz
tych
sakey
##ندو
دوا
##irik
გან
така
เส
kwes
##fas
##сы
apan
##don
cres
##ይወ
comer
قال
##ધી
ngati
សម
##pra
ᱯᱟ
##bl
ايد
79
نومو
##ыя
##ување
அத
##ᆨ이
most
mina
apostol
##배
##izza
##baar
zor
##زن
bualu
city
kle
holl
meda
##անի
nadz
konk
jerusalem
##говор
##ettel
celu
nih
پېښ
jaar
लख
जनम
agar
boe
##මත
##enyu
##год
##egek
бог
পৰা
छो
##ოლ
##æt
material
##ሪያ
##jene
ሓደ
በማ
muna
##فاع
человека
wang
चन
savien
अग
modern
контр
شی
interess
##ρουν
cikk
##۰۰
cad
##esc
antara
##לא
aq
##ички
##itie
##ezet
meme
ارو
আপ
วน
##जर
##elli
##akad
laika
##বস
ukus
foretag
##jima
membri
කරන
##ೕಲ
پرې
##यास
परयोग
##unde
todos
##কতি
##ارې
घर
отношении
waan
##enskap
ယေ
##िनन
##eleka
вэ
##кен
##θηκ
aad
pip
##ха
##τελε
##μων
##anno
તો
##ides
mach
##akw
##onge
kiki
##bre
dipl
##bos
بغ
taga
##ونکو
##ири
ciuta
αρχ
знач
anca
कही
##ilangan
жат
المنا
120
cip
vao
1989
##יים
ըն
ເຢໂຫ
86
мег
##मि
spo
определ
দেশ
ami
##ပႉ
ᱞᱮᱠᱟ
##akit
uga
make
##िकी
contin
тран
جيه
kadar
пет
xal
##سل
##unal
kommissionens
mau
nigba
ion
نت
mennesk
##ਗਾ
ጋር
lle
##unc
##uning
име
##arma
##مې
laba
##ուր
selv
##øn
prie
glede
lwa
εε
##раждан
တႈ
علم
##ၵေႃႈ
##कस
වෙ
foʻi
##ических
##հով
ھەر
singa
##ությունը
##еми
##iling
##ayn
##ேச
gip
cost
##نۍ
##ags
және
अब
##ನಗ
##בה
##에대
komisjon
ici
##ða
prin
hiv
kera
##dz
abas
##ске
##వత
py
joka
##alaka
##ኽእል
ለማ
##يث
##edel
##ተኛ
fah
frank
##jos
##وده
##аме
obdob
hos
##isyon
qor
kaesole
мы
crit
pake
гу
##ອນ
##ۈر
eiropas
akt
##ogan
##னன
##ველ
##երը
ياس
yuda
##itve
##어ᄄ
##ሎም
ехова
اپنے
iko
այդ
##ги
ⵉⵍ
##tura
##ekesa
བཏ
clensk
##سة
##tivo
hanya
tomonidan
##іи
мил
sida
##তৰ
##ଥା
ox
##cja
isp
##уть
##معية
##12
заяв
baru
##مال
##ননা
##ень
##ming
##lement
မး
ዝተ
##zjonali
##จะ
coll
##xile
kwi
jang
##करा
##amak
ยะ
##اتا
##orde
##ᱤᱭᱟᱹ
kuwi
qan
kə
km²
##kent
الشر
בי
##जिक
tant
##μος
pati
уп
བཙ
zakl
pina
gospodar
जस
##rez
منت
##isis
##ᱛᱤ
inz
thei
##موع
мног
##sɩ
muv
individu
##ази
ነይ
gbogbo
رات
##ontr
##vah
bjalo
raad
agric
##ulum
denna
##atea
##вар
जनस
soc
##ោក
##øl
tekint
قا
oktober
ukra
ald
mich
mhu
tula
conse
konkr
##alne
##νω
anvand
کنند
пре
##াও
89
مهم
طرح
##ию
lur
##ىنى
nyinaa
##dd
wanne
##ததை
need
##isao
##hairle
##engen
##جر
duz
hori
درو
##rar
##यम
##عاون
##vek
jit
whaka
what
radi
мон
partner
##qas
##ايه
##othe
##կան
کوم
معلوم
##tak
##ongi
##τητας
##വി
##ilar
եհով
mex
##দগী
##ᆨ하
##uer
##ферен
مور
##तत
##ikol
показ
##sky
mub
ktory
خلال
upe
##աշ
ule
લોકો
vang
##ခြ
سام
leo
naar
##zas
##yti
deu
##ینو
europeu
##proc
pielik
##ᱩᱞ
##ələr
સાથ
оз
##টে
##มา
deres
##16
##ได
obr
اللى
woto
##বী
cele
##мо
kunne
મળ
##േശ
ted
kambe
đong
##جع
##alk
##σω
ھەم
##साठी
இநத
##dig
होता
noa
ayi
kj
напр
swin
چو
##esia
kuw
nthawi
##მარ
mwen
##ीर
okus
##anst
nuo
ela
jarg
opatr
africa
##टल
##ungs
pah
yel
presiden
phan
महिला
བརད
ځای
μα
uda
euroopan
eel
amak
##ாரகள
δημο
срб
##यात
mellek
मधय
verk
##ниче
##mə
questi
skr
परधान
kohald
kall
koko
##ڤي
mass
التن
ᱯᱷ
##િત
ښاغلي
साग
гэж
##മമ
##inger
##သော
##стве
phala
우
##buah
##izwa
##ове
##ابع
##atsh
##гөн
དབང
لوگ
शा
##цип
dze
jekk
##imbo
sund
кад
nev
bund
##изм
##ရင
##ەوەی
gec
##qar
##irs
произв
আমি
gos
ŋut
परण
মে
##pite
dae
comunidade
##كات
##ოც
hund
##عداد
ᱱᱚᱶᱟ
پە
oun
##olle
skut
decyz
##æk
mundo
##eras
نظام
იმ
zai
##ciona
babil
ntse
शिक
##الف
diver
##lardan
haz
انتخاب
fw
लगा
##ਸਾ
syst
##okuti
riala
##unak
сө
फिल
گفته
आहत
oa
نفس
opr
##들을
rac
بالا
አይ
anni
list
##mel
##yis
##etel
valo
yesus
##ikwa
##νη
##ukset
##دف
##ضل
amah
закон
tarkoitet
##zə
##ifi
utu
tseo
сан
##भा
##ందు
zdr
වන
##iap
##რი
##பபட
एउ
##անք
west
iku
##ستند
दन
ښځ
secara
##ليات
ណា
##hip
ard
alem
muli
##ርት
##andus
##လငႈ
##ısı
кыз
ier
आस
##τους
التع
watu
lul
уз
##လပ
##egg
ander
##zali
##vur
##ⴰⵉ
##ሆነ
buvo
##maan
##ynn
##kach
##영
tieto
regulas
ایل
ضر
##tʋ
jɛn
алб
##oban
дод
##በሩ
daniel
##qe
जाला
##pli
период
##يون
##hed
эле
kinh
رق
declar
naka
##안
чер
κανονισμου
كما
maji
##ranic
altern
αυτο
κυ
করা
##பபு
bale
شاه
##وة
##чы
оказ
ཟར
pha
##جار
76
iste
құ
##ataa
##ustu
##ws
କହ
obs
##udzi
əs
##łow
stran
ertek
አስ
##ендә
##ᅡᆼ
##گان
ler
परमख
oru
faol
##ството
constitu
##োনা
naf
##ели
##skom
##ulunkulu
روان
paci
##وواہ
##այի
bilag
##ാർ
pripade
လပ
কার
یہوواہ
##ossa
skall
##ьш
szam
##ities
##ionn
ова
alang
73
nic
pant
stab
koy
umu
##bur
kaa
различ
##ject
nyen
inu
ეს
sulade
##երի
smern
ndip
riba
##ampi
конвен
թե
paredz
##هه
ᱦᱚᱸ
seorang
##gaa
##uat
لع
##ayah
համար
capa
##esit
yayi
βασ
tirh
конс
ster
##њето
##ينة
demokrat
sog
คำ
pado
spec
radets
##ⵓⴱ
##ውያን
##ையில
राख
কে
##λισ
toep
bahin
geen
110
##ager
सय
mater
boshqa
रहको
безопасности
दई
परश
musa
zade
более
دون
katu
##ᱨᱟ
sprem
nariadenia
##бы
##বগী
afo
الاد
untu
кои
२०१
swo
الفق
باي
rozhodnuti
тои
##arat
leta
mei
стать
wyn
ofici
ماش
ستۍ
হৈ
video
##inna
##πτω
##tais
zona
као
##akin
##عضاء
abraham
hot
зан
h3
##hail
cine
##oston
mma
london
##ekla
ευρωπα
##ekela
lexi
##ɗi
nhialic
line
wanneer
##جد
##بح
##эт
##थाप
sebuah
peny
مجموع
##ombe
prins
ith
वह
##μβαν
jeho
seura
konn
للا
بط
questa
##langan
##यर
ځواکونو
##ତତ
##але
##imong
##დე
##عية
ukut
##stwa
##alon
беше
эр
kane
##ulira
ਸਿ
personal
ape
##جان
नी
мор
unii
##უნ
##ᆷ이
##yum
ປະ
##ಾವ
##ራዊ
kuva
##arn
##chts
turki
##يرة
шул
##γα
isip
ཀང
##odas
సమ
##szer
يعني
коли
єг
muze
үчүн
##zisa
ман
##ası
tʋm
##피
##께서
ਹਾ
oro
đau
đi
##emwa
##ɗe
tempo
##ħra
bazali
рес
##ാല
เย
##よう
lob
##صول
wom
hub
##ensi
##мин
##غم
wob
рече
እስ
ਪਰਮ
##toj
tyd
##ица
##ၵႃႇ
अरथ
zaka
##ised
же
කො
ᱢᱩ
མཚན
دوه
बस
##รอ
overens
##vard
##amar
##imbiliya
روح
##utta
moc
##bed
ډول
##فال
total
##ела
##ოთ
##ικασ
kosova
poskyt
##בל
која
യഹോ
##خا
##ᱫᱚ
uli
profes
deel
##ŋu
dje
##തയ
##ᱫᱟ
##ɖɔ
насто
##της
##ике
##вол
##ନଦ
##вр
ကယ
puru
gc
dl
##ോട
ದೕವ
##ansi
##연
##дж
kuin
wani
عرب
expl
emis
##صوص
viss
##iais
စာ
eri
enda
##یو
подготов
guz
told
74
европеи
##umber
##예
እየ
اخر
yehu
##ivel
ᱥᱟᱶ
ating
lagi
##િસ
nanso
বিষ
মো
##isiin
##quer
##فل
##itika
##ให
##নতরী
بالم
##ака
hujjat
আগ
ከተ
##rof
##vot
##ڠن
##ोस
##μενη
hig
abad
uzo
##line
vula
##mete
##ерж
##ھان
waku
##ovania
svet
اذ
##ایي
##ving
merupakan
##নের
προιον
##कारी
เข
##inyaka
रपमा
حتى
ମଧୟ
extr
dif
##umay
ዘለ
सग
ايران
huqu
hart
##λευ
bub
omb
јед
huet
##աբ
##oksi
luft
στον
wap
ох
lomb
inggih
##wor
བསན
etu
##કા
nepr
під
##ەك
خی
године
##ერთ
##ാണട
##कषि
##ɛɛr
ida
##uluk
lamang
##irie
##ಸದ
##ано
rehetra
المص
##akazi
##ład
bert
##arda
##esen
##chuu
ono
١٩٩
โฮ
##bag
рух
уд
aktu
هڪ
##ектор
##ши
ria
bubu
करम
ог
##ပး
bill
obser
##ikus
daytoy
ڠن
upang
##araq
##ардын
baga
##iger
veiv
##gj
дом
grupo
dee
##तः
hamda
##ину
##τικης
69
valstybes
##வன
hyd
καθε
एम
paia
##prow
##enas
##oyo
row
изб
jaw
##فاقية
##utos
##qala
رييس
εισ
##ታዊ
சொ
##െനന
etre
state
##දා
چند
oħra
##حق
delle
ਅਸੀ
लक
глав
##කෂ
stre
vua
##পি
tiem
inom
ذات
##ফম
респ
hop
##ୟା
geld
nasa
##لمان
compet
teen
ሰባት
##blɔ
##हल
usk
σχετικα
##ilip
##ങക
ཁད
kasta
##மான
aria
jɔ
##ңа
incl
##nah
cuk
cristi
kac
ilmo
kommer
##ния
##ەیە
isla
вып
تك
##امة
dul
##iei
subst
##arik
minim
zimene
ສະ
##মক
##люча
ril
cred
جوړ
##tuur
##ستي
pays
विक
##arna
##کە
##σον
##지만
ఒక
##сә
সি
యహ
ado
##atus
सथान
oder
ಸಂ
##uzo
nustat
78
malamu
همه
جمع
##elige
mih
paragra
##hii
##لەر
году
નથી
##કષ
membros
##بغي
model
toepass
##idhe
kost
##حاد
dalibvalst
ilm
##лик
##ayaan
جګ
##енно
عليه
hoc
अउर
##ɗo
sposob
डा
##জি
##દી
##ря
##ılı
special
ګډ
kout
ult
statist
граждан
dessa
##skeho
seus
bwino
jej
གཅག
अगर
##समम
وخت
intezk
abab
faoi
##ايے
свет
##ᱚᱠ
informat
##kou
##yta
mateo
##اشت
##fir
moka
uri
yeova
endla
##bele
##upo
juan
##यता
φο
##otov
នេះ
yehuwa
ars
##तरा
لاون
##hane
برو
##baga
المش
##лении
bulan
biara
##fanele
lisa
##olis
loka
እንደሚ
##ەپ
##իտ
##বোৰ
##పు
diy
વર
h7
から
##תו
एह
##adar
##ولة
rendelkez
##ақ
apie
mengatakan
tyka
ozo
##оно
برد
##करमण
mars
postup
مى
mati
utan
وکړي
aban
कप
##berapa
##maq
##धिक
мө
##රම
##wij
##lju
pic
##ᱨᱮ
yone
##inum
xw
##վում
yek
##θηκε
##embro
oldug
luz
##φη
pach
fh
ple
ٿو
qonun
##ibb
allin
mash
wʋ
pateik
valamint
##uksia
pʋge
wird
##కష
हल
##agt
gblɔ
দেখ
ᱠᱟᱛᱮ
##pus
##αγωγ
##දර
1960
##ვი
uno
emlit
kristiano
##זה
ⵜⵙ
##ીત
qul
auch
သား
συσ
##rah
вак
sei
leen
يار
##جية
сторон
##ᅡᆫ
القرار
གཏ
ech
##hanan
nanga
##른
زمان
பிர
futsi
##aste
الذ
legis
noen
##annu
сооб
पी
تحت
zna
##کہ
##нан
##دل
determin
##ʊʊ
załac
##qat
##നെ
##방
jigu
igy
##ڭلار
represent
cul
дор
##erim
ସହ
jab
desenvolv
បង
бъ
hamb
раи
180
tran
##uaa
##ahanglan
kain
предостав
##сан
उद
namun
##ভি
filip
eso
عب
##जय
##ടതത
ရာ
##ীর
तल
چارو
##arg
bish
##itsi
susij
janiw
like
##estr
nova
napr
##गन
##iteiten
kabupaten
lui
predloz
##ናል
##taw
august
##abuhi
מע
oco
##मार
##omos
соглас
sikato
##urut
##ለን
szcz
ustr
produkt
אות
##ⴰⵣ
##my
ាង
pamat
##ləri
поли
##ията
paagi
موجود
այս
nurody
##اسو
bev
які
tais
توان
ⵏⵏⴰ
பு
emlitett
##rs
uks
गया
##dii
vig
стан
##ших
wet
بها
planti
יהוה
##нат
##elles
eda
esper
##wyd
কৰিব
##ilya
انش
matan
zok
enti
فيما
жер
ако
יש
news
आधार
भनन
##علقة
##waa
вони
##anstalt
continu
оцен
##adə
h4
##алық
##പര
##تے
hva
তাদের
##ላይ
ښار
##arti
komisije
ils
neuv
##ೕರ
##ಾಕ
##imisi
εχει
##insa
wanthu
medic
bolela
мәс
##것은
২০
როგ
##ിപപ
##راه
ཀས
##କତ
##gor
##irit
##akita
rona
᱑᱙
როგორ
kuriu
زیات
ɛzɩ
perc
कस
हव
kazd
##waan
##ليل
ቤት
##cions
සඳ
myndighet
ss
##ضح
མཛ
##many
##imt
##still
##prez
##daa
##zwe
##erv
kaniya
##हको
##edig
nue
##ەب
betre
##ကြး
ley
nins
forsk
##usega
muud
włas
##ालय
##γκ
കക
83
##ୀୟ
inga
civil
nc
ɖa
##ազ
xɔ
##تماع
าย
کام
##ลา
nationale
##әү
##ଷଟ
kwuru
##umping
##rak
bhfu
bayan
##wiri
geɖe
svoje
##ⵙⴰ
##امات
scr
##kyerɛ
##inne
tuma
एउटा
თუ
вопросам
वयकति
oʻzbekiston
##щихся
าว
##wit
avec
##δυ
نص
chon
##utim
##알
bruk
ಯಹೂೕ
##iray
будет
ngangu
ambi
ভার
##ⵉⴽ
ንም
##lep
tabi
कोरो
felt
##ilib
ପାଇ
##دید
vær
zdrav
મો
يكون
##되었
##னற
##emia
этои
انسان
##уди
##jestel
jigi
христ
nego
vakat
umur
nawa
oti
##पि
ojo
##جات
مهال
##leng
связи
##eniem
иш
atbal
gum
ৱা
h0
fhe
island
आफनो
##있는
##سه
##anis
කය
##84
evropske
camb
enk
##ாள
##baa
##yok
αξ
##poc
desc
##zv
pari
กน
여
desa
булган
##nja
موضوع
##ৰা
##arte
process
##راة
سنة
##પર
##iros
asos
otro
стр
མག
тек
##pect
yali
##ogram
ivy
##angkan
##ැබ
jun
จง
##yna
loh
yeb
##tsh
adolah
iesu
kval
বাংল
przypadku
says
##nego
сказ
##upay
##결
xana
кул
liitte
beberapa
מש
valsts
እንዳ
kyerɛ
##sɔ
##திய
bhfuil
##stof
kone
##េត
koutou
siba
nus
##oste
##ային
vsak
##tayo
##asto
नव
lou
walay
anhte
##ാത
οδη
##ερ
ཞས
అన
##akor
##ματος
##شرين
##اہ
batu
podpor
wenno
##ются
права
##orie
ellen
shah
##لىك
##ocia
ଆପ
##ဖြစ
##пер
produ
cant
185
ilg
186
شک
zaw
##ены
quando
teljes
зб
चीन
fle
##araan
жол
##adores
załaczn
oplys
kaik
chip
##yst
مورد
##든
##ƒo
nenni
##ใน
##jana
जम
##রিবা
پوء
astr
tuku
matua
reikala
##ussen
uveden
tillamp
##াগ
pii
##anci
##ιζ
##ምህ
##যাম
##nou
hien
kpe
дет
αναφε
حز
ად
nalezy
සඳහ
##mise
##ινη
рассмотр
tetapi
muse
information
ajo
##lie
அவரகள
##ⵍⵉ
##ਲੀ
direktiiv
##zace
##ура
haar
##ене
grad
fim
influ
##syn
мол
##anm
ইন
aplica
तयो
poseb
ساک
volg
artigo
##27
##amaa
myit
##ופ
ли
βα
##ايق
перед
kwamba
##liku
anim
operat
komisji
##ilah
naw
совет
республ
jim
деятельности
shak
##ujt
##cal
къ
dung
يک
##າງ
doh
made
##ple
##atori
##din
##ثي
##gh
podat
##зи
##biy
دەک
##וג
##କାର
##lje
ties
##ника
##անակ
قوم
suna
зал
παραγωγ
tura
доп
amas
предлож
ايت
arb
##ईल
##ोत
##itaka
யெ
##ମନତ
tind
##ников
сем
##جتمع
فان
వర
liidu
aron
##abas
simb
गण
##تون
##ιων
##များ
ዘሎ
рәс
slov
zmi
lokola
αποφα
##æld
време
##niesi
bola
kuns
ཡག
##فی
local
prest
qoʻ
107
##ᱠᱚ
##ნი
dna
##ayag
##ونډ
##ution
overeenkomstig
##мер
して
menm
ure
##akaw
##ڙي
##forma
##etsego
sugad
##egn
##شل
##abwe
##athu
##सतो
غوښت
##امه
##obh
##elv
##roe
wuli
##போ
##ърж
##yj
форм
མའ
1970
kid
##juma
##zini
तीन
##олж
rav
inki
godine
##िश
dispos
nhieu
ተመ
δυνα
##جتماع
##emas
##تیا
عليها
katol
##ⴰⵢⵏ
##ує
##యు
भएका
##امية
jei
##тк
##otse
##خاص
юм
##olan
izp
behand
##ката
aram
konnen
это
##inimo
ياد
##venti
dez
##тан
##laryn
##ɖi
##гиин
ပြော
azon
rumah
яҳ
##rot
سخت
##wenza
##ονομ
punktu
##jande
ผม
mercado
ⵎⴰ
##iyan
xalq
hau
same
##әб
कोरोना
hku
##elah
inici
##uria
##larını
vrij
inta
συνε
##ути
ساڵی
##ۇق
бір
helpim
اسان
##माल
اساس
ім
naudoj
richt
siam
##ავლ
##ીન
пат
nyuma
tingting
после
mart
tuz
##କା
##akus
принят
bijlage
##porter
##anih
australia
##yks
north
##imai
باشد
##හැ
она
atgard
परभाव
рекомен
##upp
##ikeun
spra
polo
##ാസ
podsta
##yam
##मनतरी
komisjoni
они
##циал
odob
##otgan
##ینې
##ilat
theih
ⵙⴳ
indien
##nosc
पण
सार
ⵉⵣ
иг
##гэл
προβ
konst
ថា
##βαλ
##دىكى
##əyə
##লা
মি
##tres
haben
pɔ
जग
apos
##idaan
lets
##োং
##وتمر
بین
##vist
##काल
##ыны
يول
sg
1950
##தல
یس
akti
##ணடு
አንድ
sudah
vay
kla
biolog
##mir
gd
zakon
συμβου
иәһвә
##atorio
யெகோ
##பபடு
##ілі
прис
##ilish
isl
##му
ری
ၸႄႈ
##ᅵ스
##لط
empres
zinthu
kite
mutu
poder
kiek
दकषि
bumb
##λες
##לוה
##աջ
vykona
##ordan
##vanja
##اسم
سمحت
вла
##মন
##ನಯ
ozi
##που
кешеләр
##მე
##ated
شار
يۆز
##haa
##ործ
gon
fyo
##arch
##थि
kog
##unar
inay
##atim
फल
##ומ
ଅନ
##πης
##ρτημα
##oses
annak
अलग
##రం
##itung
##مم
دوو
ᱥᱮᱨᱢᱟ
idiay
uznem
ਤਾ
παραρτημα
watch
##produk
نفر
##ilego
##ێر
uhend
##ytu
##σιμο
ಯಹೂೕವ
tany
ilə
##uva
vaz
##ovanje
monitor
##چی
##lariga
##angk
besar
lokal
কষ
##inal
विचार
##amista
##적인
osa
สำ
fod
الاق
##umia
deput
##bior
##verk
mola
كبير
##ⵢⵜ
ټاکنو
##خذ
doka
gil
ដច
##ⴰⴹ
bungi
occ
صد
باب
torten
##כול
дости
yɩɩ
عدد
ټولو
##æng
परकार
south
شامل
भल
##μενου
dess
sii
მათ
##ሮች
clanice
##unun
nomb
tangata
документ
우리
##ији
ⵜⴳ
##합니다
uplat
kona
##नतर
##fal
postop
relig
##eller
##uzzjoni
पो
wany
կարող
kiu
ند
##tao
kann
##aden
ек
##wee
##irika
bera
##તો
المتعلقة
vinaka
perf
##وط
##လၢ
##િવ
800
##ɛk
iwo
əd
##නය
gid
cau
##arias
လႈ
nouk
ette
##ipada
##ولا
##adzi
##ยง
##نامه
пра
##dial
indlela
##ሰብ
sosi
യഹോവ
gye
մարդ
යෙ
##фектив
خپلو
anns
hito
jkun
পরধান
##итета
##eger
обс
produktu
##omes
##ιες
##iner
сесс
pw
##فترة
##하나
##وج
##empel
دری
##nios
قط
ກບ
мех
##ୋଇ
##isku
##idia
##itori
##iliki
gri
noda
vie
alingbi
tiek
zabez
##ojumu
tj
could
hens
زیاد
tina
##isim
யெகோவா
##ালে
##amen
aua
##ession
##ls
petr
##zwa
дов
bude
##von
unidos
секретар
mida
фил
сур
objek
διαδ
##amenti
lalaki
ભાર
рук
##रोप
sitt
##nymi
##ыла
جس
سف
amag
koos
uth
ᱫᱷ
huquq
kasit
##обод
الجن
nɩ
bɩ
tambe
##ندي
##종
tinh
ее
rov
##ков
বলে
##امي
##ᆯ리
thab
haw
atong
μια
##증
##حي
пав
მის
ตว
school
अमरिका
##ાસ
##entar
እም
keng
ид
ڕۆژ
ochr
##میش
##الا
ఆయన
наб
prior
hatos
##ᱤᱠ
منط
אל
یاد
##итор
##ൊണട
edir
усил
zij
الرييس
##ାଜ
meu
oblasti
iai
rama
##edza
fay
omfatt
##vom
##uros
سولې
جل
##iskas
##မြ
##utsi
زن
##atta
##اسات
##enschap
##рукт
energia
arna
ovat
##যোগ
услов
երկ
##oin
kula
##당
nana
##ୋଗ
##arden
እውን
##iben
vizsgal
ਪਰਮਸਰ
##ابة
##ሁን
tez
foyd
illet
##ful
##ూడ
bwo
##ekan
##యం
##abot
circ
##τευ
مرا
okw
ᱛᱟᱭ
##टना
odnos
intezkedes
##ىز
##85
alako
##ическои
##staten
##omon
imwe
སས
واقع
andri
nakon
##enshi
မငး
میلی
izva
first
##atasi
အသ
narapela
##para
мекун
πληρο
aci
##කාර
վեր
fai
hyvaks
##erin
##jate
group
##তিযা
##ೂರ
##लब
izjavio
pouz
##isht
साल
##нем
##ിലല
نورو
##តរ
ucio
##оу
##gwe
##ules
cach
##wierd
##weh
فلس
##osios
##ireach
moot
##δει
pita
##amag
biri
жах
##zym
##ırım
mhux
##रथ
250
##elom
wenn
##gil
ibintu
##øtte
kongregasyon
##ədə
जिस
##عمل
##ଥଲେ
##pang
##மை
##izu
##այն
kohdassa
lj
reng
##enei
uniao
##last
১৯
མཆ
بب
##agad
haq
##این
उकत
puhul
ieg
##ାଗ
disip
kalib
##lor
unha
##otar
একটি
##ျက
##ግባ
szolo
##cyj
##sad
##ikhathi
rai
labor
##קר
kristen
##मक
##რის
ਉਤ
##enny
##олог
##것을
druz
मखय
##atzen
مون
##ிகள
ᱟᱠᱟᱱᱟ
##jim
##enne
odniesi
исто
arte
cui
##เร
##edzi
##ulas
ying
clar
ڽن
##jez
ishlab
jawa
tev
sovell
пас
utr
конферен
##ою
hiyo
hyn
πρω
نب
##ighed
##urwa
yez
our
xizmat
##นา
inne
આપણ
држ
cava
##omio
აღ
enye
abb
##мест
##ров
mudimu
noti
##umento
##embre
khac
##زې
##osu
##abar
##еф
##zna
##egbe
##amela
gua
tkun
##ใจ
##ᱮᱛ
страт
##akhala
wilayah
tall
##rade
##ᱫᱽ
spesi
phe
བཞན
##باب
##चित
##ዕባ
тоа
اشت
ལར
المسا
mtima
portugal
ᱞᱮᱠ
nuc
##креп
zod
##तक
##וש
въз
bħala
люб
##hayibheli
gul
रख
ktorym
rup
##arga
аллаһы
##режд
##engn
اھن
##ља
жак
okvir
રાજ
iyan
تېر
alam
ⴰⵓ
maong
buh
##ugma
sampela
يق
##lık
guerra
pagr
ነገ
siku
လႄႈ
##ял
##alde
##agia
unionin
##मिक
##iver
##თვის
ཕག
##دت
##wis
kontra
нег
nges
relevan
জনয
mange
بيت
##waka
##obah
##вал
လာ
noch
કાર
##ijuma
seda
##ជា
диг
##py
cı
အစ
##ybe
үн
wall
##ovanja
byc
были
ког
ډلې
megallap
##କର
##keen
##וצ
##igg
актив
maal
पशच
##antan
जर
##터
##hiwa
##ىرى
chem
paris
##िड
བརན
##किस
##ುದು
visu
خبرو
opin
##kuna
усп
##akukan
gush
##ences
##ပင
নিযে
##ସତ
হৌ
maua
iyya
баг
kanye
خوش
には
##ilishi
propor
lani
##ᱚᱲ
cov
##ডি
खल
##әгән
nije
##oniu
liet
olyan
##იტ
##πισ
##ংশ
##แล
##ايو
mbala
kumbe
period
vest
##atar
##ிக
करणया
ау
##cov
iby
##ық
nghi
##တႇ
wantaim
##икан
łe
consid
##burg
##ၵၼး
उपयोग
71
viol
komisia
खातिर
sveta
ktora
petro
ڪر
pinaagi
لوی
jezu
##جز
ciu
##িকে
##లకు
##თან
##etele
بوو
amor
pawh
bho
##olong
caso
##ಾಲ
యహవ
གར
##ouw
শর
##kait
মই
##سين
αγο
pagt
##uju
usu
विशष
ඔබ
kaba
ital
atitink
##atang
##entos
##ပႇ
##test
mafai
tunn
##град
ресурс
ikk
прич
##ократ
օր
salmo
vset
تول
##აკ
bele
kubera
##əri
ရင
##ىتى
##eskir
liitt
##રમ
nira
##اسة
kitu
ঈশ
##aminen
xam
##نين
karo
ହୋଇ
##pir
##mod
##ाइरस
##λλα
hele
περιπτω
رج
termek
sine
nnipa
##lıq
call
년
##יד
ngaph
bare
ඔවන
cox
ісус
##ಾಸ
##nyo
##चर
چی
бан
##िएका
##тя
அவர
##usus
wij
سود
posto
naved
nir
##হি
full
##olit
##леж
पढ
##ባል
sibawa
open
အား
تط
abal
рок
التح
##hani
pristu
हनछ
yks
masih
ever
mabe
##재
##قوق
tingim
खर
મહ
sena
eti
принцип
состав
hinaspa
ເຂ
##arja
##ාත
ເຮດ
lalu
ហើយ
##уваат
примен
ihowa
##드
ليے
زندگی
निम
##niom
yeel
fisk
जल
##anamh
##izvel
جب
##काश
##트
##eland
lemma
##اط
نړی
##тур
komission
##ruok
जाए
##еҙ
dela
מס
kosovo
##ชา
##inten
mete
##علومات
##തതിൽ
##uck
noz
miss
##ნენ
##সত
##ගෙන
##ламент
##ڕی
maip
पत
mop
##naɣ
خوب
##лаш
ដោយ
jaq
##ɛt
##ایا
stret
banda
ibu
##heth
fabr
polic
##िनछ
შემ
rakend
##ುದ
##larining
##едон
jehovha
обяз
##akathi
119
##system
##تو
ദൈ
imong
##ಷಯ
থাক
##غی
##imana
##ɣa
mene
guds
##imbu
qi
хот
##หม
##yay
يەن
##imma
цар
facil
##단
гл
##ᱚᱥ
រង
གཞན
jac
ɖi
вз
نړیوال
##isip
जात
होती
##erto
##voor
aast
##cag
levu
france
##itaki
##نین
##وندی
þa
бю
##ვთ
##isc
کری
##ението
melleklet
rog
##ξυ
anaa
##yʋ
##ไม
anc
проф
##ازی
##tah
urad
##ihat
fini
unter
##ণি
##भनदा
##циеи
katoa
बल
##සෙ
bende
يح
ਰਾ
vegre
erity
##num
bee
эф
ତାହା
##veni
བཅས
anali
##ებული
##تان
lori
ମୋ
төр
shek
pula
##oforo
1988
സം
##לוהים
##voeg
##ېږي
ход
vii
##chuun
##нач
modo
##jest
##같
ⵏⵏⵙ
လည
moeten
yom
##onis
चार
ਨਾ
amba
##گا
ويو
ibi
##پور
##mam
saboh
ustanov
በሚ
persona
##ɔnu
legal
##ሓፍ
years
##ேர
##athi
rua
لما
##նում
##zela
##డం
जया
daripada
ಸಮ
##いう
эксп
##imenta
160
##ძლ
##leni
ຄຳ
เจ
##ادى
olar
eut
##zeko
##vus
hely
دەر
pantu
справ
##στο
##ukw
lara
lego
yik
##ટર
الار
datum
##بې
استعمال
bego
##ibat
##hee
жахаб
##enja
није
cina
zwiaz
جنگ
##اا
kiri
temperat
##ไป
اخرى
##ozu
ብዛ
devel
willi
##put
olarak
lakini
ngaih
фун
##ിലെ
ནག
##الار
##रिया
##วต
##си
##etɔ
woa
kunnen
sixu
يون
pain
okanye
##enso
бұ
عبدال
##ekwa
##cava
##ᱞᱟ
##ۈپ
##aky
tapno
oike
site
خواهد
yanapt
مەن
ᱢᱮᱱᱟᱜᱼᱟ
tied
einer
yic
masha
##ического
##asar
justi
weg
##ایش
каж
##ောငး
##berg
##ವರ
##κολου
insa
tambem
##डो
soll
kart
##odh
##하게
โดย
нем
klar
практ
##공
algun
mening
##encias
کولو
##spr
##ampa
କରବା
##िद
tred
тав
##неи
##igis
tadbir
gele
mbʋ
##skie
##ەردى
##ركة
kuc
социаль
states
যিহোৱ
##ዋን
##еј
bakal
status
##56
##ові
##ورن
барои
doona
giz
zik
##دىغان
οδηγ
đay
##icar
##atom
##akala
reer
##មាន
##ەکەی
##ണം
##िसट
କେ
##ingon
sita
дир
aza
##పపు
wees
piemer
المجلس
राजा
##통
بك
comb
asso
avo
meter
الجمعية
##یە
##ስቲ
մաս
##vie
kwan
ڪيو
yehuwah
##بب
##ከት
##akter
keessatti
##ljiv
##atha
##indelse
##nimi
commun
með
تنفيذ
ហវ
cai
щоб
##прият
ပေး
##andan
##ദധ
##ማይ
realiz
genomfor
rut
dane
##ungos
hip
##oota
བཤ
priemones
tipo
police
neba
एकठ
zawng
nkarhi
other
kuni
dados
##وڤ
wnios
ngadto
guh
##რო
موږ
pid
##saa
##ætt
##τον
برخه
##maga
##ابر
ryn
nni
##zdas
uyo
##િલ
ሁሉ
ᱢᱟᱨ
diosan
vod
pagka
##នក
##ينه
loro
##werk
beliau
##yey
##ahuna
saja
##वरण
veur
رفت
सना
કરવા
الز
##ματων
kansi
прест
miaka
##োন
ukuri
bax
राषटरपति
cikke
##elang
##గు
nyu
##ранич
##ирования
chiqar
गइल
እዮም
еу
ask
##skych
##မၢ
sio
loyi
kau
turetu
तिमीहर
##ρυ
ᱡᱟᱦ
laz
fait
##gʻ
##েক
publik
##aniya
tsun
pany
lehet
##iland
omanu
##ements
ኸም
##чу
##ېدو
##태
uban
##ژی
##ambote
##anaa
amm
##λεγ
სამ
berb
temb
##ukwo
тол
##izzjonijiet
производ
разработ
ᱦᱟ
صورت
sabi
ពក
suro
##තා
ngak
report
##ование
yupela
##ikide
##하고
##kaa
##drag
mɔgɔ
روغ
##зі
pho
گی
مشروع
##اريخ
##alth
##olatabu
ville
##ไร
##ડી
কথা
ուն
##lama
##rev
morago
اینگی
numero
belang
##dor
tetahi
nkhani
kompon
lelei
##alai
الثاني
##ايات
الوطنية
xik
##atam
bahasa
##zadz
косово
##itha
##راد
waw
##жээ
##လာ
iar
داده
##wego
jasenvaltio
λα
##opu
рамках
##ья
दस
folk
vlast
vlad
##ird
##нал
kapena
כי
publ
εχουν
##ڬي
##ᆻ으
জা
включа
comunit
##ishwa
lidstaten
arch
cita
sajungos
شان
бож
нер
##enske
ఉనన
##walo
आन
ملت
اینگیلیس
##خدام
nodros
##иса
##ље
##ᱯᱩᱨ
yoku
ใจ
परापत
живот
awan
##রবা
hira
##ρος
##لان
hod
##skich
##ைக
hebben
աստված
##صة
bent
##ራይ
##uds
অমদি
მაგ
##fya
suht
مسی
kosala
##ණා
##alul
##itter
enɛ
##ନା
##ugyi
bilaga
export
wym
ipin
වශ
kamano
sym
спр
لازم
څو
##ɛr
kush
mense
waray
henhold
veter
##って
derfor
جم
специаль
##olos
sɛnea
yaz
##wem
importa
##ʋʋm
ais
pielikuma
##kak
##alek
निरमाण
##yma
basis
##সকল
တာ
السيد
قض
peut
##لاش
hvil
жүр
##olar
abag
sawi
राम
າງ
dhan
##ിസ
wata
##ytt
अनतर
##особ
##μαν
hier
hera
##ரிய
estis
##tong
dale
ᱥᱤᱧ
##τελεσ
##ationer
##نګ
thusa
հար
τροπο
wash
करो
voimal
eorpa
##থোক
reform
හැක
##eleni
##يتي
##गण
##िना
стратег
##यी
leri
جديد
##ᱤᱴ
##مۇ
proposta
پہ
##apim
каче
##हास
ident
มน
ចត
##េចក
아
jehobah
glas
##ɔg
capital
yaq
satanas
##เขา
##hav
المادة
hamwe
poj
##itr
##kod
efa
కల
پنج
##ندی
aktar
##ገድ
##れる
অমা
परत
##थित
perso
##መር
##irana
##cne
деген
##ৰি
direkty
посто
hosp
oprav
ngenxa
##ae
noukogu
өс
##ⵋⵋ
##alaga
eksper
##ሐፍ
کسانو
δικα
##もの
lahat
##etseng
##ките
тэр
##erea
ibe
jus
ماه
democrat
خبرې
##ሮም
##emt
بودند
##alisa
##োই
gago
doma
baibel
##ця
##ariya
##անդ
दल
καθο
seen
ej
##رين
azali
دولار
ın
being
##endlela
menos
kga
кир
##igos
starp
ਤਰ
##unod
була
كنت
niini
##woyo
akp
anche
##rift
##qul
შეს
##emene
земј
ort
##itoy
gake
##etud
##बनध
##dagi
##속
នោះ
##форм
mare
hoy
εργ
##xɔ
gene
##ците
##іп
##बत
##ানে
george
##ၢမး
હતો
गरिएको
atsizvel
سفر
ას
olu
mukaan
periode
##ikia
##otta
ubwo
mwari
##ozat
πληροφο
##ပေါ
militar
neces
gaya
སམ
##erwa
##elum
vos
##가지
##okken
##ᱜᱟ
ເພ
prinsip
получ
kosov
စေ
sprav
onem
porque
លោក
ᱞᱟᱹᱜ
sarta
اكت
##ราะ
соответствии
##روف
##тә
अफ
মধ
##ulot
پەرۋ
کرتے
निक
moj
##सया
သက
##ঞচ
eth
vaj
##ትዮ
##fte
كن
nispa
1986
##ылган
tiks
##ουνται
онҳо
आज
##izzjoni
invester
protec
##ৰী
##انیا
nyengo
sprawie
asu
сотрудниче
gbɛ
todo
##రమ
သန
##ድረ
##huta
עם
གད
##92
aru
резолюции
υπη
##уст
kunjam
कान
kɩt
۱۳
##siooni
เอ
##edze
##jah
##തതെ
##ڤا
jk
differ
কেন
ဒါ
सबस
##chis
uvedene
तयाचया
##ающ
kimi
##æn
##ەری
##วน
##حی
exc
durch
##malar
##বাস
##ۇش
proti
tigi
##zɩɣ
##ડા
दकषिण
##ারী
چى
مام
##under
hija
marg
iji
##દર
##ebu
voib
तब
##атор
reli
##inini
oke
##ican
buna
##yv
شول
ብዛዕባ
##ၼၼႉယဝႉ
##ient
odgov
ποσο
اعلان
##szag
вис
نژ
##ⵔⵉ
podl
##lum
prej
གསམ
bili
taimi
kaup
##იბ
فکر
veic
tego
သေ
faal
##ерг
##nın
##yɔ
өөр
##აში
בש
ପରତ
میاشت
stato
##stemm
balet
tema
##ovy
##ovej
سې
кун
ես
1945
##iging
bush
הק
##лага
##angin
ɗum
##ಸುತತ
tega
##ugg
##ാൽ
##ټه
##ʼan
##pool
agu
аны
##ико
सल
##tʊ
##ɔŋ
gbo
prat
##μενες
##ोक
झाल
fus
andriaman
##18
един
givim
كون
lup
जीवन
##sam
шир
всех
사
اینگیلیسجه
jista
རམས
##otsa
##wayo
aff
tehn
нис
edu
azi
ဢမႇ
વધ
zien
##ney
मौ
مذ
nucle
##غۇ
ເຊ
##angwa
ου
##ukira
merk
aʻ
soro
پەرۋەردى
##ಬೕಕ
راي
ће
##chaa
baibulo
##lantirish
መል
##ました
##ikin
opis
##ают
##ংদা
##ලක
ecb
1000
##yer
##atua
рав
афр
##чет
##вин
haka
kukhala
gest
οργ
مرت
independ
statu
##olgalt
cle
##ونې
##مبر
məs
сез
##terna
##jena
electr
прек
##zuje
##aken
##තය
##elaka
ولایت
##ᅵ스도
##รบ
amat
##seen
процес
mobil
տար
suas
گروه
##থে
##ⵈⵈ
##ıyor
##regelen
welt
##okom
jip
དཀ
##itati
place
министер
verif
##ilte
azalaki
taʻ
even
cee
אני
shaxs
kuku
##መለ
especial
##iocht
अहिल
nile
testi
week
##qaku
yuko
результат
##লক
##peri
rey
مجال
अम
jour
فقط
sɔrɔ
kulu
alkit
gost
nyaeta
बोल
##പോ
izman
##amisesta
obv
##ອກ
конт
menga
##ight
##στε
anam
##ظمات
##meri
##ayu
يتعلق
اکھ
##から
oedd
##لے
virus
##asaa
ಹೕಳ
##የሱስ
তেওৰ
କାର
##znego
উপ
##رال
pedro
waye
رد
##ထား
##وبي
turin
seks
okuba
temel
doon
hər
mann
##ardi
##ють
hian
пок
theo
zvi
οποι
לב
diese
vegreha
##들의
##ælles
##artas
##есе
ویل
##χειρη
politika
neder
moh
##yad
chomh
hodn
ах
totoo
roman
##anske
parlamenta
184
##ୋକ
misa
پەرۋەردىگار
gover
nai
ассамб
muny
alex
principal
رب
sez
পরতি
##wania
چین
انو
центр
##ebele
কম
##ապ
blev
##znej
град
trabalho
kip
komisijos
pogod
ᱢᱮᱱ
szerint
##கிறது
eup
কাৰ
##intah
##erera
##מת
##еть
back
син
συνο
##മായി
##סי
नपाली
behar
flu
##اران
shuning
##атын
respe
ieu
##ⵔⴰⵏ
##ято
kasa
باد
##많
##ıb
sla
परमश
slik
caa
пут
បរ
700
histor
##сть
བཟང
##cijo
kli
fili
##ingar
##ၼၼ
ను
নাম
عراق
##гн
##ksomh
##아니
##inzi
بچ
rehe
##tida
##නා
گو
##elis
lever
மன
##రణ
كتير
danda
resz
foljande
taua
itan
sabagai
چي
nil
تام
robert
જા
##wr
тој
роб
អាច
oshirish
kommun
توګه
kriteri
##ிதத
##akara
##দী
بڑ
##चितर
oqo
amelyek
هغو
##רים
##නෙ
##rie
является
شما
инт
επιχειρη
##നം
korea
στοιχει
раион
paka
zob
##வும
##asal
##জা
pawulo
##بق
##ۇت
ဘရား
##мар
torteno
##ᱚᱝ
ку
##იც
kitab
tiet
##asiga
འཐ
##ает
igyvend
##ilila
foto
apar
manu
لكن
##інде
##ငႉ
kd
##шир
وط
##agian
boj
##fumu
ยง
desenvolvimento
avei
1987
##aysia
##cev
পো
##ການ
##іш
mint
komisja
beng
کب
erd
##াদেশ
##irte
यानी
##ෙව
uts
αλλα
##ीय
125
ভারত
سکت
##nici
समझ
نف
cette
км
goed
##ington
##కక
moment
##రగ
##ଦା
okul
automat
##vaju
##ativo
mən
anness
##परभ
gunu
οπως
##imenti
##θν
ဥး
شرکت
ino
ισχυ
எனறு
paulus
cyane
##ಂದರ
##akir
##vuze
##ೕಶ
##elas
المب
अवस
ပြး
##యత
odun
##തതിന
##نة
leid
deleg
رای
عال
hava
##гел
##աք
ᱩᱱᱤ
##mɛ
فار
##पल
##ummaa
##irm
abana
82
##jus
butun
##anira
decizjoni
##amiseksi
transak
گوی
##อด
oplysninger
iom
tasi
faststall
##βο
##تھ
எனற
plu
##cibas
یوې
သတ
##rista
##vanju
پات
##дөр
dins
##book
ምክ
##gat
casa
создан
##anach
eljar
##asz
boh
wp
kuta
fælles
tote
##agala
jurid
##enze
bavua
пон
учрежд
xiv
##kn
ustrez
представител
##indən
หรอ
##ματο
##iskt
##κτη
##edet
ilmu
dispon
##енең
##daw
cis
اكثر
ଏକ
nte
##daki
dao
umb
##ardo
kinabuhi
##ᱩᱱ
berd
##ffende
bushe
кур
##பபோ
kira
пак
##esso
gikan
##jekt
##usar
изге
##ዳን
ezalaki
##իկ
##рем
##ʻo
##gag
wspoln
##akon
qal
མན
##лет
pasla
manam
##atte
अतर
ubut
##حدود
rei
##hs
жал
university
##চি
capit
##บบ
##ርከ
هل
##inea
sekolah
manip
οποιο
ਸਨ
kamb
##intaan
##ारथ
سوری
sammen
##ትና
##ოდა
##ась
##увати
насел
million
endl
bamp
##언
пром
चिन
kweni
wis
род
potre
شع
eby
kater
bintu
##cies
vilo
kaze
##woord
zum
##यल
شە
moni
japan
beno
##үп
বে
roc
tyr
фран
##ɛma
##ате
meri
##ειται
विषय
h6
edzi
##akisa
##ᱵᱽ
vise
болгон
gwa
area
thuc
edo
لې
##گری
##rupa
alkitab
##ايمة
ಮು
οικ
παρε
##ско
isk
eventu
typ
cali
##ekto
нес
nagp
iman
بزر
inb
james
ཕན
disa
##ᱰᱮ
پاس
istat
argent
lista
αντι
поп
##നി
muda
##ostr
##dal
bazalaki
toepassing
guc
##فين
##utatud
##కత
toimen
продолж
teti
##anym
##τικου
##kich
izg
hri
gbɔn
##ဢဝ
hold
##راط
taas
##igheder
რა
##bare
##ટી
ಕರ
##것입니다
два
##ery
##enim
isua
बीच
buyuk
diospa
##ቱን
##ском
обј
viranoma
##wil
វើ
toho
informazzjoni
##সক
সব
##נת
##ældende
##ାତ
thuong
jok
wart
घो
македон
ໃດ
##iwa
ilma
pf
##개
##لیم
##لاق
##نف
agha
podjet
przeds
##chain
##pui
##ਜਾ
jsou
##راو
parlamentu
वार
saf
heta
##њу
##uch
biro
##ayin
jov
##ħti
tx
افت
##arske
##ያስ
##سەر
##iser
##ukum
ჩვენ
sint
##etus
աս
nej
окол
gle
##sien
##ालन
##orow
##ισχυ
savo
matt
##ਇਆ
##ดา
яҳува
হযেছে
يۈچ
mumkin
kuulu
এর
yalla
vag
##nor
##لحة
exist
ኢዩ
मला
##iphi
##भर
param
gaba
##ynda
baie
malaysia
ပင
irratti
##yste
##ၸဝး
##yla
зах
##kem
labo
terror
पथ
नदी
##yaan
##osy
##ⵣⵣ
##ابير
##ŋa
δρα
##നമ
##မတ
yw
##선
prosent
##매
##innen
patvir
##વર
ενισχυ
خلکو
njira
osalta
##हरमा
##ану
##fikat
##طلع
##duma
##uloy
گرفت
##jara
##여호와
##лаг
ساخت
সময
##wam
##try
latin
##egol
lima
yit
stabbil
##kezo
munic
sarsk
##osha
sna
##සන
##ambulu
przedsie
जिल
पल
jeji
sust
ᱧᱩᱛ
ambeni
біб
выс
acu
##각
##ษา
##مين
##unna
##ागर
rab
gerek
acordo
##araz
अक
abin
درې
گە
##weza
alue
lekisa
bjo
bepa
kars
##uksessa
необходим
priz
zakres
##եմ
шум
ၼၼႉ
onge
kaq
ngek
pamilya
yɩ
втор
তারা
##esek
overensstemm
nyalo
##hta
uppgifter
##wela
αφορα
##ogona
##jani
нема
tagħhom
stati
གསལ
reikalav
מת
##გან
##طه
lau
དགས
факт
makat
wakat
жет
αγορα
##aliw
##araa
##bai
##qs
කරම
##ancia
cid
##кар
atve
satest
ཡལ
##ilər
lya
richtl
வா
سازمان
veiks
##σιας
мэд
foranstalt
##atai
cag
##egang
##amer
وینا
ክን
taraf
erdek
##jehova
bela
##oksen
توا
tentang
##لون
limb
egip
##ণে
##מים
przew
hver
##enen
##ynu
##ଯୟ
##uvchi
երբ
uur
umuk
eit
біблі
काही
iva
koneal
waktu
قر
hvordan
##سك
##θο
##ври
ಕಲ
##utar
επιτροπης
##otud
धरम
てある
##စာ
natural
##iruo
бих
loike
saker
##нь
bras
##pues
тә
##χεια
nuna
فلم
คอ
nand
##တေက
اجتماع
akwukwo
##ଧାନ
ᱞᱟᱹᱜᱤᱫ
faaa
egbe
##alli
odniesieniu
ingen
huday
gəl
##กล
करना
държ
associ
##qda
##ਗੀ
##اش
familia
kanila
ເລ
##िज
конвенции
нэг
із
##ابي
##كز
gawa
බල
མཛད
##elana
nito
##achd
ainda
##ighi
その
##ერი
afs
botlh
##anne
δο
عمر
##lal
बड
party
##હી
szabal
pulong
იყო
##ⵎⴰ
komite
##yre
##igr
##оми
##يند
dana
eto
icyo
kilom
laat
##дү
hoof
##ping
سى
##ches
البح
einen
yeesu
에
अधिकारी
##θουν
zh
zvezi
##λογη
терр
газ
yid
##ⴰⴱ
##anten
siglo
oras
otutu
ملا
##niej
achi
ukh
taħ
##oby
##аты
پوځ
wasu
uporablja
##atayo
##ataq
##ضو
##liche
διαδικασ
duniya
sær
##aties
fj
##lais
дес
matemat
аи
yeni
வெ
جمهوری
##qtis
ਕਮ
იეჰოვას
umug
##ⵎⵔ
##kaan
susijusi
##izwe
daerah
आपलया
બી
tarkast
##ការ
মন
##ayotgan
pegua
##יא
ਮਨ
хал
##elong
##isse
mim
القض
vastavalt
##នា
aonta
elle
interpr
##nikov
እያ
##бед
પોતા
bhi
##haz
estud
پوه
الفقرة
##uren
ᱧᱩᱛᱩᱢ
prv
raha
##ظام
##လၵႈ
##γε
bagian
##39
සද
abit
##ើម
##ырга
rir
##တႃႇ
laha
үил
අය
qori
##bɛyɛ
сессии
maand
көн
directiva
kuya
တက
##jati
usab
##ikila
##λω
বাংলাদেশ
leur
raja
eyo
##лер
##atat
##lichen
##atee
svar
##alaho
sea
##skiego
بەڵ
##امج
##ठा
dura
ሰው
##심
press
##ods
##ทำ
یان
աստծ
nth
وګ
##adde
##anny
##star
kutani
##ାଣ
سور
kioso
##דר
##κευ
mukonda
tere
вир
##لری
##راءات
maboko
braz
setelah
دنی
papild
nurod
অস
কোন
tomo
##udza
menc
kere
##asanas
бро
##തതിനറെ
naam
##ဢမႇ
الفر
##ાલ
kelu
##аться
##itia
investiga
##għu
tussen
gjen
کردن
##36
##চছে
##ekking
کول
##तरण
تاک
penz
regio
دے
##ിത
འཛན
##োঙ
##اسب
fill
##zis
seotud
ياي
sios
tyre
جر
سرو
tempat
ಎಂದು
104
kare
ayat
##adav
cosa
නම
stu
हाल
##odni
ဟော
دغ
high
ځکه
##jom
##kah
maoy
taon
##асында
انہ
күн
ketika
still
##apaq
ⵉⴼ
##ትዮጵ
alapjan
##prov
འབལ
oigus
wik
نشان
کسی
mira
##පත
##ावर
##ующих
januari
функ
##ၢႇ
##70
alc
υπε
##दयालय
##етт
ᱟᱭ
ᱱᱟ
##istic
goba
تقرير
nsɛm
##alle
fla
##akti
##ዓል
meji
groß
സാ
##engeli
##ዎም
เด
rais
jist
##ayen
πλα
استف
লাই
गरद
##ᱷᱤ
canada
बरा
kɔnɔ
inni
سيد
dyond
##ଦଧ
maked
##စား
adlaw
ورک
igu
likambo
##شتی
وە
rast
##لىقى
well
##ализ
noong
uztik
काल
uyu
رک
##ljanje
##zania
ᱜᱟ
##ટલ
##ⵇⵇ
##००
dingwe
paling
ၼး
laeng
mechan
នា
gare
għa
shan
مسي
##μισ
ᱟᱹᱰᱤ
ངས
medidas
##imisiun
cri
##ႄႉ
wina
##لية
##rup
gape
##ላቸው
##сия
يد
asawa
##ностеи
##راتي
muu
شوه
##ततव
diosa
empresas
kter
टर
jaaka
##fog
##оли
ear
##antsi
طريق
มาก
##ibheri
tartib
##tepu
##ႁတး
zaklade
voj
##μες
##odne
komisijas
bohl
اسم
prote
suhtes
કોઈ
wszyst
cuɛ
##faa
##укт
##જી
सथाप
begr
##ayang
##ষটর
##bang
szuks
قوي
ଉପ
aceh
vosa
ekonomi
##рах
german
lɩ
უნ
desde
ကြောင
ছিল
روم
ไร
rivoj
ᱥᱤᱧᱚᱛ
##যম
##ኋላ
##ური
##liu
##agna
ᱦᱩᱭᱩᱜ
##ികള
##isaa
doen
pertama
##ാക
nib
##taj
kiel
##antar
##janje
sier
verg
##jur
nngwe
wɔde
συστημα
##umen
noho
jami
##ehovha
trop
менән
dokumenta
lewe
economica
hore
སངས
ዓመት
##piec
دالم
##ความ
пл
ubu
kapcsolat
##ᆯ수있
dalka
koc
qars
##تن
##াং
##pac
आय
ಮೂ
yakhe
##roc
نیز
##rod
##alwa
##ាព
この
##egevens
kuata
genet
کتاب
السلام
গর
##ንን
##amus
##ющ
##иле
garanti
akon
exec
ตาม
##veau
يام
አል
##பு
hik
izinto
##ภา
##alarini
χρησιμο
sabiex
144
voidaan
законо
##giv
قل
پولیس
ом
##ላለ
ਕੀਤਾ
बो
اعمال
##ਤਰ
privat
sann
##ികകനനത
##enak
يەر
segd
##খিবা
тряб
##цијата
រស
tekst
nyumba
due
##atif
целях
##ilir
ماشوم
مف
procedura
myos
inda
በእ
##otte
##นน
diz
gege
gorə
ၸဝႈ
dɛn
##ၺး
точ
##інің
shuningdek
important
overensstemmelse
រវ
etern
எனன
אנ
ถก
##سره
ورته
tribunal
tiempo
##ابعة
##టు
پیل
gla
χα
ទៅ
σημει
цр
##ulwa
##ולם
прил
##ged
યહો
gm
nji
ᱡᱟᱦᱟᱸ
gub
эффектив
##wez
شروع
asja
signific
መጽሓፍ
##жения
##hau
olw
ⵏⵖ
خبره
komisie
dalyje
कहा
##ww
shume
##ণড
تان
saq
نوع
ھن
προβλε
ngang
tete
##urin
ᱥᱟᱞ
##альных
bakan
उनह
przedsiebior
niiden
##ებას
muoyo
सतर
##ције
ከመ
akin
сон
##jeni
ngaran
pale
zezi
##ಕೂಳಳ
##obola
pamene
##ulaka
##erti
##fall
sopim
फाइ
##zira
##sich
##არი
##enega
##awo
ရေး
##রকার
kij
marknad
##seben
moa
##তন
##ørende
dollar
सकत
तस
ਹੀ
##טי
corona
##owym
الامن
biv
वन
နစ
##apy
nsi
##ադ
היה
##কর
tuong
yiho
##ула
стар
orient
##yada
түр
abandi
ᱞᱟ
##емо
राजनी
koku
##pɛ
separ
##ibam
##ysta
பொ
एन
ᱫᱤᱥ
пал
##inik
परमपरभ
ਗਲ
pei
gian
savienibas
project
ولی
##agh
vard
бл
##થા
fork
##istes
##owia
##rek
tongaso
##ibon
forts
##ɔe
##utas
منځ
grond
jisu
измен
ты
jisas
shart
ndʋ
##hou
rau
##כו
রাজ
tecnolog
همچ
בה
paq
сар
park
ਹਰ
##િય
##ством
istati
ทาง
sano
##ustus
geno
tjen
##طان
##בים
לש
tiegħ
##esanas
##иык
ود
##ɔt
prib
nær
##ததின
এস
podlagi
##arar
##rel
nød
ଭାର
sebelum
pond
לי
مز
rece
muq
sank
vre
هال
##કો
##ibbli
home
##ex
erk
##لىپ
gera
izi
yaco
europese
##umin
жаш
uso
##veg
##कड
ইস
##ɗa
##ষঠ
member
##რა
էին
གཙ
προς
##seg
nans
അന
apre
##vut
الاح
الماية
njani
yun
##ээс
සා
เหล
##णय
kaesoleva
##λος
kuu
시
poli
hoj
##وبا
جاي
iwa
##ضی
##82
gere
جون
tarybos
тан
##нич
##xar
تلك
πισ
tagallamok
##식
podob
##발
تۆ
energie
ча
ziy
første
##ىدۇ
ཕགས
کرنہ
وات
##ernem
cod
वास
##etet
##เส
##ظيم
##tain
##iseera
##gaz
##waz
##org
##agira
شپ
##eleke
reci
##गल
მს
کړه
จรง
kunsill
##rian
##dik
economia
zol
بگ
pemer
сум
הר
mwe
valja
##ᱚᱭ
##gaw
moyo
##liek
руковод
##සත
##akap
##niedz
boz
##वादी
услу
attiv
##يغ
kondi
##матр
ໃຈ
prodotti
##hre
forte
##셔
تكون
##ვა
cath
##wl
వయ
##ർതത
kuze
##ografi
treb
##ادت
##ேன
tuleb
##하였다
kye
sadi
thoi
થઈ
##ტი
برنامج
##ଅଛ
##doll
tswa
กระ
senhor
mayor
##iyo
##alem
##wata
##ధన
##овании
tota
komissio
sangat
##etumi
reun
anne
තබෙන
किसी
မၼး
ᱨᱤᱱ
नाव
##рим
life
##ಚಚ
##аж
##cuje
tenei
dedi
وهي
سیمه
roto
##alp
mineta
must
##чин
##89
ღვთ
иде
##때문
festi
##வை
sabu
##ಗೂ
angi
ಮಾ
secur
##రచ
politic
sost
чыг
richtlijn
##മാണ
##onio
##मो
прос
ᱵᱟᱝ
anges
##igs
gema
##imos
nwa
अभिन
##학
##ριων
muma
##खर
##artha
##함
##lio
##idikan
technic
gaa
##ڠڬ
ega
время
هناك
##vent
интерес
dovol
##あり
mona
يش
##ipas
қар
zahte
170
nın
##ριες
sakit
##adha
vita
##इत
##ако
финансов
dahil
##รก
barn
đat
deve
##ہم
babo
szem
##ىت
алып
দিযে
hk
atom
tamp
zia
impos
المعلومات
##elor
bildir
##ulla
યહોવા
##록
amaz
feidh
እቶም
शि
ᱛᱟᱦᱮᱸᱫ
##до
##ಧಯ
ostat
iqtis
##살
anno
okwu
##fil
##tseg
##후
rozs
ɛyɛ
مردم
nosa
imag
baku
##rh
prist
wei
pai
haszn
relatorio
muham
nui
document
##maɣ
tutti
oby
cn
указ
##ᱮᱜ
μεταξυ
##qam
नपालक
saud
##iban
munas
hatarozat
چارواکو
рәсәи
ては
##inig
##lands
الدولة
kwem
cifukwa
aer
##udd
##istar
bidi
##akah
sika
akpa
##itut
##itswe
ɛja
##ези
пост
hanno
ellenor
##ळी
##ciji
cus
zve
##eding
##onto
##кин
##artu
دیر
ভা
ཞང
didi
##kani
prezident
कई
မန
##ком
##adin
produkter
##vara
##ола
##pot
1985
##eleng
মোৰ
##역
kolm
гер
##જા
##but
gez
##ɩlɩ
##skoj
cuando
##imbi
serie
##драв
khaw
##ulung
sans
##ែង
##ሪካ
ماد
vaku
οργαν
find
ବର
##upra
chor
##blik
stør
ahli
mane
قە
ماس
imyaka
handel
##ગર
перв
prostr
ελεγ
тим
yize
baay
хо
loy
##arit
oldugunu
иылғаһы
kawa
efec
appar
madi
##pora
འཕལ
omu
செ
apaks
tlo
finanzj
##ᅥᇂ게
##सथय
meghatarozott
ياز
ເມ
##дары
##prezent
##itir
##iseen
ደግ
##vaka
th87
lue
##ⵓⵖ
processo
forbindelse
گه
##his
kino
অধ
μπορει
هاد
##oter
yank
perche
التد
##vision
council
mess
གབ
##னால
manag
qaba
##لیل
modif
##stelling
тие
υπηρε
##əna
moga
дон
##rend
avy
teknolog
skir
##zacych
##cina
soli
adott
##ಬಬ
कइल
haa
##वशयक
##ᱵᱟ
##ګرو
असल
##ezg
tink
ɛjaɖɛ
##ayong
##ihna
срп
bulgar
mats
okol
сак
##ћи
##zoek
memiliki
partici
##포
##ukun
##ረስ
##ারা
tengah
##akhale
ریا
##orio
بولغان
##wiye
##تاب
##utsa
pikinini
iranyelv
##েষ
##ysz
hard
kʋ
nong
##ðu
گي
##تك
दी
##yf
##дения
povez
ingkang
##zdasagi
##еді
wedi
හා
баисан
ይሖዋ
jaana
faama
tkaz
chok
மறற
vɔ
##דים
մեր
ဘယ
##isuus
##xan
##قتصادي
የም
comite
prepar
atta
труд
решение
##qanchik
##egar
##خي
##ализа
##چھ
##cter
غیر
##waro
wez
##님의
kwez
сы
በኋላ
##ሎች
institut
##කර
nada
haus
obra
##خر
منها
##щее
hali
infrastruktur
##ताल
আই
arum
##سب
rada
кара
##vær
ਦਸ
inclu
europeiska
κε
##ⵓⴼ
mz
##yangwa
فرانس
##stait
သမ
gute
lø
lenn
عدم
##uoj
##цца
hed
として
##idwe
##ikai
دفاع
##ხოვ
leti
posl
കര
ਨਿ
##وتی
utiliz
##ظه
##וי
##ၼငႈ
##caq
pikeun
##ਨੀ
gina
jean
##ван
##czy
##udian
idan
विभिनन
##akal
anta
яш
##ಕರ
hawa
तरी
حر
ubur
##परा
##wol
hof
zmlu
##rap
faz
##caka
vazirligi
##lek
ию
##ართ
नय
ilk
वाल
##diy
እት
ushbu
teta
##wino
informatie
filos
manmeri
##anin
##ҳи
koa
##iaus
samuel
gemeenschap
galler
##juje
##29
##할수있
تھے
despues
##lerin
zaj
##nienia
##દા
##иться
decisao
dadi
состо
##ension
syr
सवत
kuka
kamar
عق
##ukela
હોય
##нолог
avea
##যেল
##วง
##tioner
taz
##ится
##ligini
ዝነ
##ابق
గు
##ะไร
सघ
بيا
##ڪي
##fn
нив
pamo
aceasta
##iriro
januar
трябва
کښ
suke
water
imper
ଆମଭ
bibele
##iniai
ਸਰ
सच
makas
##રણ
barba
සං
wes
roh
xvi
inten
##ထင
divers
समह
soos
##под
##ично
##itis
##ნა
daug
امن
odloc
woon
##łoz
##aming
##itabo
لك
pea
လမ
##িনন
hopi
هڅ
health
##ايج
bibeli
##باط
སམས
समिति
הם
jad
ዝነበረ
##ahat
saam
amesi
##ضم
እንታይ
##urik
بھ
الاطراف
##inek
duto
mellem
##ڼه
milion
gn
asal
tanto
perj
dopo
##orn
според
ettev
##qui
μελη
##ᱲᱟ
##ایل
walang
mipela
##keit
##etar
##ኸውን
##inni
kozoss
හො
##ನನೂ
##றகு
##inam
اطار
αε
nimet
##ettiva
##بط
eksport
ڤرو
ዓለም
##læg
הב
##ιω
hwɛ
posit
besluit
foydalan
දර
##াখ
momo
##isisa
##ilh
yanaptʼ
tuna
##үи
ღვთის
yinga
nich
eftir
##akajj
emu
##ရက
chhu
##मित
joma
##авис
##ভাবে
тому
metu
##ðar
##arki
##ثير
lider
שמ
##던
iespe
خپله
##ীন
##cionais
แก
##ವಾದ
gasan
ваш
комитета
bhanga
##essi
##uding
යෙහො
##arag
бат
##ଶୱ
আছে
odstav
людеи
##chilik
əm
##परन
##জঞ
inggr
peter
zape
ଲୋକ
lake
##ていた
других
visa
##صف
##26
##ताब
tret
##наи
susitar
zimen
nyaka
يەمە
sosial
podmien
المجتمع
##vula
իս
##واء
koli
nahi
##ाउन
nabi
kayi
##ــــ
butang
pars
كي
включ
ᱞᱮᱠᱟᱛᱮ
متحد
ειδ
ຫາຍ
νε
##23
##udad
##amentu
##chita
hagua
##valu
##unci
faktor
mellan
било
##ɛmɛ
##দেশ
##قتصادية
cyangwa
ande
##tou
restr
मतय
هون
zvik
byi
អព
##нар
kutoka
እነ
##annoo
##ኦም
zuwa
bye
##zh
harus
كۈ
salyg
##राम
sabab
దవు
##funda
##idde
##ርያ
multi
waz
konfer
slu
##มน
##ҙә
##too
icha
langa
යෙහොවා
show
##ាញ
byg
bans
##iejsz
periodo
##uod
kaas
##atse
eya
كيف
ဝါ
elab
##ительно
##dim
tg
biztosit
инв
тұ
##طاق
##elem
##عين
অনে
sekret
години
אלוהים
った
dotyczace
hn
##दख
وهو
##कम
##이러
меш
##łi
བཀད
gouf
##тәр
##ಾಮ
zion
iloa
##eker
три
##ikos
ntlha
##داد
onlar
padomes
##शर
##итан
spolocen
बला
право
mosala
கா
##ahin
##interes
##eritud
##inius
аның
##инг
kexile
કહય
##خلي
үл
##jii
nchini
ենք
chiy
зд
##ulik
oznac
##arka
beogr
##ektyw
عنوان
ngolo
ਮਿ
##에는
##ρευ
##ilaka
אם
categ
waren
ਗਿਆ
ukup
protest
##utti
bontsha
##ବର
##ոլ
##edzy
##sus
##porta
этого
azt
مخې
څل
ನಾವು
##heit
##বদা
##ીએ
داي
mele
gapu
styr
140
sapos
ነይሩ
faoliyat
ထား
механ
zmien
twitter
အကြ
##യോ
##ታል
internacional
کمی
жаз
الانت
cust
дух
##kup
aks
bonso
mowa
rio
##पण
adwuma
##వస
##qiq
##คน
dheanamh
पद
duna
byen
அன
##eghi
1930
fatt
yoʻ
सवि
##يش
##বনি
අතර
waaqay
पकष
gjør
ᱞᱮᱱᱟ
нәр
isin
yeye
ситу
nogut
dadduma
semua
आल
##akwa
##سټ
ᱠᱟᱱ
##pit
obul
xu
myaka
ਸਾਡ
سک
мі
##aber
αι
##кә
بزرگ
ແຕ
उतपा
dap
مك
##ᱴᱤ
vedr
##ابه
работы
vista
doda
بسی
##ылар
تى
imay
anto
antr
perk
გამო
##ၢငႇ
##τουν
सामा
kriter
talo
mela
##øm
худо
isaa
niy
##ትዮጵያ
##цията
##kien
ينبغي
гас
ситуа
##ობის
mond
##ญญ
mutane
хэл
##chilar
siv
yabo
වැඩ
ⴼⴰⵍ
rett
ເຫ
offici
##ೂೕಗ
##cich
එම
##phe
##मळ
##את
สม
panon
##intas
ካል
##ће
ⵅⴼ
средств
vuk
kaug
##टस
##sd
avses
##ይኑ
##oor
##பபத
треба
byo
τυ
##alama
হবে
##كنولو
##れた
##пор
##улар
comene
առաջ
coopera
##ناه
##ዓት
##xwe
cɛ
לח
##iber
##ⵉⵡⵉⵏ
srbi
##ලල
##ため
zwe
ستون
bast
##asy
##inj
તયાર
awal
كاو
##ikor
##elijke
##ورات
oi
mabalin
නසා
แห
groot
laikotar
چارواکي
micha
yadda
prema
ᱠᱩ
##체
سۆ
sev
පො
##alarni
хүм
mpasi
sekt
maze
ασφα
ཁམས
##زان
##කම
##amay
estat
weer
གངས
cell
##گرد
एस
##kami
nnyo
##еме
##ekani
گل
wacho
secret
தொ
hinga
##خان
тал
tamogatas
##wach
تاریخی
kwenye
وسله
beta
सामान
1919
ziren
հավ
زمین
##ותר
bord
isira
##षटि
paam
##ләре
soyl
जनसखया
##इएको
ата
турында
##sub
mismo
##wenu
elem
##ၢၼး
##hem
relihi
ཐབ
አለ
społ
liboso
##kiem
mohl
ove
##ৰত
##նել
##าส
kahle
panan
##γραμ
##imiento
regulamento
bə
##endu
zambi
към
##لته
maha
माझ
nima
ලැබ
##ying
حض
wanda
##arah
##əsi
##oneka
##εξ
##ikali
вним
##оди
ток
naij
##ንቲ
وڃ
##инал
መንፈ
##vaz
wari
ware
##ρους
##নী
ktere
rero
##ffen
᱒᱐᱑
הג
awe
રીત
зн
##ᱰᱟ
diper
##ikulu
direkt
talla
##chaf
wetu
##ukk
စတ
alko
##იბლი
##аса
ɛsɛ
पड
vrat
##pla
трансп
сь
jiru
moro
περιπτωση
الاجتماع
anay
ಕು
##orium
##елер
zato
хүмүү
kro
##ავს
கூ
##øk
##ဟာ
जिन
##ٹی
##elaki
taytan
##jjin
izda
##иск
##េល
alɔ
ٿين
කරනන
паи
##եք
aɖ
espan
अवसथा
malam
decembra
ڬاو
naton
মণি
##ueng
ovina
##బడ
koʻr
pitan
##ওই
##በል
##တၼႈ
##តត
ngez
##ٽي
kany
##ziwa
##гл
আস
##tud
##atis
ᱮᱱᱟ
##زل
##انع
παρου
##ಗಳಲಲ
карда
দা
sute
##মবা
##ሳሌ
##itzen
quel
больш
##កខ
##كمة
##abba
untuak
процед
muc
mahdoll
teu
mener
kindl
##zz
dadka
bakhe
kwen
##paw
ทก
پخ
##ಮಾಡ
publica
##れは
غوا
မဝႈ
reka
##ᱚᱡ
##ataka
مرکز
sport
التنمية
##jalik
yamb
##കൾ
داخل
wereld
ბიბლი
##ၢၼႇ
##ندان
stori
zeb
##וכ
qırım
भट
støtte
beibele
συγ
neuvoston
jika
##ɛlɛ
boye
trebu
kwo
##нәр
মধযে
##ceg
ivolatabu
mots
طل
##ಕೂಂಡ
මන
либ
##ਕਾਰ
sukila
नभ
गाव
غني
##ମେ
khona
जाता
ill
##ពរះ
بور
##xat
яго
##راز
ημε
ɛsɔ
وما
idir
شور
##anen
##კვ
کردند
kig
##unum
reb
##xxi
izvoz
vkljuc
tvr
##키
ngir
چاہ
faata
фар
##ᱣᱟᱜ
##stra
което
##इस
vra
ⵉⵜ
limit
##inza
##lede
registra
favor
диск
##пов
lamp
rud
##амі
ум
##mıs
หม
##fah
lgan
##inei
dens
##ativas
##unen
zama
moral
educ
##adn
medzi
парламент
tashkilot
pav
##zeti
ᱛᱟᱭᱚᱢ
ኣብቲ
##esp
እር
##andle
पाकिस
##abbli
помощи
manusia
ክል
##िलो
dikg
kamu
##егов
گوندی
##дик
maso
##ელს
##ಲಪ
દર
सबध
གསར
##umela
antid
عملية
davidi
##ሓት
arvio
сөз
noud
okviru
حيث
ያለ
##လညး
##erson
استفاده
##วา
nabo
##եռ
artic
agg
lun
baik
##оти
sɩd
უნდა
##ডে
ponto
##ريا
swinene
##ands
##uja
argument
##egay
##лению
følgende
siri
##ᱵᱷ
informaci
ramci
##ensia
haere
הה
बताए
##들에게
tule
finance
##riz
toimenpite
poten
tohto
##agana
abay
##עה
##альнои
나
##ਬਲ
##نداق
ના
##ofiq
##ᱮᱡ
##vura
##ᱠᱩ
##86
##cimento
##allit
antuk
حص
##vany
umue
##ⴰⵙⵙ
##법
ania
अधययन
##است
oet
##ofo
teny
vata
##irok
kollha
قول
##קרא
record
глоб
##เล
ziad
oblig
мәсих
##umenti
rwa
ден
##انات
aller
वयवसथा
esei
##bij
naijiria
বছ
থৌ
##പപോ
кл
##amt
kristian
##وتي
##لارنىڭ
##తత
parag
olish
##ywed
##jale
##bul
##ေႃ
##ariga
فض
istr
##աստ
เพราะ
आग
ժամ
##իմ
kri
gjith
##angka
nadal
کله
ငါ
uyehova
ukamp
pristo
##крет
##57
##niki
पशचिम
##izm
धार
тул
##heden
teritor
необходимо
aɖewo
##ардың
##ێژ
વરષ
lt
##чл
106
##ukt
##ося
kǝ
hevi
##hver
nyoe
tt
ugy
##jeve
cakava
মর
ŋg
##lif
popula
демократ
##পত
может
seni
gap
jezi
ಅವರ
الخاصة
##ገልግ
опера
بنت
เท
##edy
gemenskap
##றக
##ojuma
cent
kii
##បាន
aten
bada
##לים
vlada
kene
sinn
yarat
##rov
##రవ
други
##ygg
##ikar
προσω
raho
##වම
mester
صاح
##olwa
##қа
nani
1982
##ency
көрс
##acha
loik
##iochta
##ofia
ᱜᱚᱴ
zez
установ
selatan
ɛyaa
##sih
ਕਈ
prost
##еле
seuraav
κρατη
fant
कोई
##lega
kamapim
سىلەر
beo
энэ
мус
نوموړي
##래
##ᱱᱟᱣ
1984
غر
##дын
والله
ⵜⵉⵎ
tento
غونډ
##ику
##머
##ımız
makasi
##уы
moti
olgan
kenya
europæ
wɔwɔ
##বক
##დეგ
hjel
libro
ці
kutu
essere
##कय
##jaw
fejn
लिख
##83
ica
осн
dint
ناس
masyar
იეს
##منځ
##ይወት
##దధ
ndin
juu
ತನನ
##ᱫᱤ
वयाप
##ախ
##දහ
lana
niniejsz
pera
##مىز
##ction
##owanych
بدي
xx
##akke
совета
kontin
##ekte
##षटरीय
##हम
कट
كانون
bybel
wurde
دوم
##زة
ilu
##annon
mena
аж
вед
gjøre
bihainim
##bs
aquest
سوی
kemb
फिर
##ⵛⵂ
##estu
##ины
baya
makan
##irak
muvofiq
##ɔth
tarp
taki
inden
fwete
##ען
##jap
##ᱢᱤ
##وازې
ukum
जहा
formal
شك
ಅವರು
ಜನ
wid
நம
nares
सखया
lud
tempu
rapport
жит
loai
بري
confer
اپنی
faze
##ၢၼႈ
fok
процесс
##enin
etats
কৰে
naga
start
##ⵙⵙ
##adii
##ിലം
asara
ապ
hong
##97
objet
היא
hata
##ይሖዋ
पारटी
olun
содеиств
tiga
##ərə
##esch
འགར
81
aking
бө
hany
mesi
shima
##лән
মণিপর
вик
doz
komm
bate
vale
##ᱮᱨ
##ուց
##활
##stipr
##ких
jehovas
##کاری
##ørelse
υπα
epai
جز
ⵢⴰⵏ
aven
##uphila
gobier
kpa
##ብረ
##املة
##ضة
##ماد
##okun
##ාවක
indik
##ationen
boi
ві
گا
##ിവ
##ποιηση
waaqayyo
করতে
засед
анын
##డనక
መሰ
##ವಾ
##ابات
grav
vahvist
nansha
##ᱛᱟ
##ууга
##दव
causa
طالبان
හැ
redu
##ਹਤ
بدون
massa
አምላክ
lega
pola
يور
ful
करव
popular
##akur
nata
##ᱟᱹᱭ
##hlas
##lom
ekw
ekyo
##ług
##เบ
tattao
##amanta
ahaa
##jucich
##qanta
پلا
तपा
##ાઈ
хэрэг
hkr
##актер
##верж
rink
olona
##אר
##роб
हामी
ನರ
##chadh
پې
##vera
##еке
ደግሞ
دغو
nasledn
##လး
##itate
##गरह
ет
став
जव
પરત
##ினற
सवासथय
##προ
panstw
dejav
##ಳು
འཇག
које
##прост
teo
mbo
aar
beschik
бюдж
کلی
fyri
மா
##రంచ
συνα
alan
izmant
##رده
##ၶဝး
##xin
وجه
bilər
ikki
mudi
جنوب
american
ترمنځ
##بە
gana
##ေႃႉ
##iding
##ಯನನು
bic
##ችሁ
предус
##hoz
יכול
##aray
nove
##isma
ther
##ᆼ을
##huri
##ಯೂ
profess
olm
fih
kece
propri
egyes
##eletsa
##ॉल
презид
##ستانی
bii
##uduk
##toa
امنیت
eerste
đinh
##യടെ
poi
wona
##eshe
لق
##juk
ⵉⵖ
الناس
والو
المقر
རབས
##saan
chh
iyong
##ξης
##etin
##xia
##press
सामाजिक
जञ
##ਉਣ
konse
ദൈവ
wow
##vala
##ciais
##idla
persone
pue
noq
##oja
##ဆး
##akom
azər
##তিক
mc
wao
energet
छा
yyl
teka
माग
##enih
ᱠᱮᱫ
##atuur
এখন
##षक
patr
cane
##janja
##teen
tiemp
zach
الوقت
##itur
reak
hoa
looi
دەپ
##รรม
serti
##akiw
własci
##టల
##হন
##ыч
lenei
spl
aja
##ynyn
##μης
teks
##هي
santu
alban
পরি
വയ
##allo
##elelo
##τερο
هېوادونو
staty
##zea
есүс
நான
##xh
##ريك
уг
طلب
aky
##нер
tiegħu
اليوم
angg
##ڙو
membuat
markt
##alema
tuig
systemu
capac
khu
terra
মতম
##ⴰⵔⵏ
តាម
करि
pensa
tegev
ክት
যাও
##енности
ujehova
lao
እንዲህ
pesa
یير
huomio
##sung
##анын
تقديم
##wago
включая
naklad
direktiivi
يێ
څخه
johann
ᱯᱚᱱᱚᱛ
##ارية
आवशयक
##ompok
england
తన
##игур
##ከል
##iness
##ⵓⵏⴷ
لوبډ
##ture
المراة
உண
##hadap
##yva
##gesteld
আন
ସେମାନଙକ
ορισ
программы
##രം
##ied
przepis
fya
ямар
ᱮᱢ
timoteo
ಹೂ
##ാമ
ची
##diq
##नत
##ንግ
##28
##라고
##שות
xii
##ሕሪ
איז
talab
canc
##ومڤ
zadev
disk
antes
##hall
##анда
शबद
hunda
تار
##vul
होला
found
существ
представля
कया
provinsi
potrebne
dith
subjek
##yth
तरह
พย
##ијата
##ምር
##ندوق
kalan
1979
ista
reser
##onton
##енные
republica
мод
کېدو
dele
способ
hafi
kanggo
contribu
٢٠
qabul
##imentos
ዓይ
kuatisa
##कतिक
numa
senti
matou
festival
longa
baada
particular
##plan
ақ
##పంచ
தே
તમન
ኣሎ
baha
ອຍ
ཁར
##ികകക
ᱢᱟ
##بلغ
শি
προκ
razo
konven
virksomh
ɖɔɖɔ
##ریق
ките
ཚལ
нак
ભારત
پیدا
هاي
رقم
facebook
satestatud
ပေါ
##styr
محک
xin
توپ
onwe
nagpap
எனப
##icia
##yya
teb
quy
##דבר
обеспечения
हजार
निरणय
##niomha
##그리스도
fung
puso
အချ
##ගත
medzia
nagb
לכ
##ሳይ
طب
##akata
##fau
लकिन
##akab
nuoc
بشكل
вас
##volg
zastos
responsabil
dubb
##මා
oʻr
αποφαση
##diɛn
независ
##lwydd
##דם
##ⴷⴷ
nadzor
страна
hair
uitvo
گرد
##urn
योग
eden
##rei
urug
banyere
##satt
##ין
okresl
पानी
pinis
ኣለ
##ணடும
φυ
##gwa
कनदर
105
semb
jsem
##jeca
технолог
##डि
##бр
gog
##бер
stim
##adaan
##lok
apstipr
##ೕನ
##osen
andriamanitra
διο
يس
быть
يوه
føro
##0000
२००
группы
##ologa
εξε
resol
اباد
##ଙଗ
پورې
członkowskie
तव
##작
##akai
##لول
وەک
##angal
##পে
ადამ
akeh
##ffer
1975
##چي
integra
##نډ
चलचितर
##đu
nødvend
రజ
##ytas
numer
گے
##voz
##너
poll
nii
##ukut
ଆପଣା
jup
##ادل
##pay
zwi
##शल
##ళళ
##atian
sieki
rusi
नो
પછ
الاف
pesso
tratado
બન
yong
##ється
##abad
##τας
##질
కూడ
##jarah
serbia
##veis
respec
സമ
##اجة
##불
tich
##anoa
##sie
##izzi
гаис
##भाग
የሱስ
##ekti
##сколь
pism
##তো
##ener
seyle
ସଂ
nac
kalibotan
##авон
##angay
قى
మద
മന
kən
ལང
итә
##минист
ترت
οσον
besch
chʼ
sheegay
chis
##وهن
selama
وكان
qell
био
##ollo
hala
kiɛ
yig
vakas
پنځ
kecamatan
լին
boph
##erl
کورد
lant
iche
نغ
##γραφ
bɛɛ
sistemas
##үндө
err
জান
tapa
##ulet
agbe
##감
miaƒe
##धानी
##angar
अथ
ingon
##건
utara
tood
esti
وغير
##ෙර
maak
##ituen
charles
company
##fet
wrth
bop
කයා
dific
организ
euratom
utama
күп
##ලය
mehr
homb
dopl
སའ
πραγμα
##ално
##erez
duti
عندك
تعزيز
offentlig
opatrenia
คม
एका
خاطر
مخکې
##орд
azərbay
majaw
через
##lerini
تون
ezen
سندس
##ுமப
##geb
##oveho
##entemente
##оруж
volgende
##ural
mary
يىش
##سمبر
керек
системы
teik
една
tanah
бъде
دم
##mina
##әп
##iles
kɛɛ
##heten
мили
അവര
pulo
ຮບ
##શન
काय
सहो
шулаи
tamata
##ણા
##əti
baebele
##േഹ
##ടകക
نین
yaka
tiy
ਸਾਨ
##εια
##irani
##utet
inggris
##enean
##tavan
##asanak
هستند
انجام
##رین
evol
##շխ
harmon
परधानमनतरी
rusia
##laa
##ਾਹ
गए
lux
njeg
##раст
##үүд
lɔn
##اپ
पाच
മാ
##ikazzjoni
##מש
дж
админист
nema
nawo
absol
considera
kote
jor
jizos
mesa
reduc
manif
yohane
واس
خدمات
##ikk
##hato
##elk
ⵜⵉⵏ
kohas
jalan
##око
isaan
plac
##eriya
gese
taytantoon
oe
##dev
افراد
##ንስ
kanga
##ipal
ചെയയ
رسی
بووە
##ndr
गरी
дня
milit
##utat
kima
letz
genesis
arra
swes
rigward
##ивер
##yɔɔ
##roz
zakresie
הס
##ais
##λης
བཙན
##කා
қаз
##wiz
bezpec
احمد
მას
elet
##ାଯ
drugi
seis
kee
መስ
##ابان
##цев
##যের
tilf
οικονομ
សេចក
##zzioni
саб
1983
esk
بہت
tava
##θεση
##kost
urc
འཚ
diseb
جنهن
nneɛma
इला
fins
programu
jeova
##گەی
unkulunkulu
དར
എനത
मिळ
aceste
##تل
##larida
##थिक
bomoi
مود
beca
##ສະ
##धया
была
satt
very
ملات
##fuura
가
நட
##อร
fud
здрав
hpa
##راب
##ukulu
hank
##semmi
##cze
##ween
##घि
kudz
аң
saisti
imi
109
הנ
##jte
ɖeka
nayo
dirisa
witu
##파
ਯਿਸ
##ሳብ
##ীযা
איך
dros
##adal
تحد
##лары
##적으로
මහ
однак
abat
##ards
##რამ
عملی
кудаид
uza
##essu
pren
economi
ered
ngwo
suq
utawi
بج
##ೕಯ
##уют
##okra
##फी
हवय
##ører
##ۆن
техн
світ
##مانی
onde
##راج
santi
iu
##იქ
##hetha
##ovni
##었다
clenom
لجنة
kawasan
fes
##χω
##igid
לפ
##эв
kora
gennemfør
##تە
##tis
comu
بوده
##бо
pyr
##полн
##andel
diris
ndiponso
laj
информации
frances
##सभक
##onc
ewropea
##ليمية
معلومات
##මය
नता
##wera
##ⴼⵍ
##반
maatregelen
william
सदसय
ikkje
hevur
jama
##ᅥᆼ
##uoti
##လက
చయ
rsat
iep
guzti
дал
##zib
##हरका
баих
အခ
##ayaɣ
##شک
finansu
cham
यदि
##risti
europske
115
ግዜ
аш
अनि
marca
конкрет
##ibla
##입니다
ыиык
gou
wales
##ostra
بیشتر
וב
ओर
ಆಗ
zivot
අව
##vam
##umos
##borot
##hn
ንኣ
##әг
mph
saman
diosar
##ኤል
##aritu
##rec
##asjon
chap
arglwydd
ନାହ
hospital
##itaan
alter
##ደን
##och
abanye
потен
##േകക
isə
ಮೕಲ
ລາວ
##سے
##ภร
truoc
fanele
##hoes
##yne
attieciga
##sebenzi
##παν
popia
##ករ
ପରଧାନ
##ႄႇ
حكوم
##কি
##eshi
##wati
##итар
##ального
पग
langit
samme
хто
##দোক
##odiy
mamp
##χαν
daf
##gs
subs
བན
کھ
अनक
##akuna
tia
sef
##رمپ
##yamba
อม
cambi
##obb
##ıgını
hinn
llan
उलल
थी
ents
vamwe
پاتې
iru
techn
##kino
##ستو
укреп
بېرى
كار
##इट
##udan
atbilst
##ങങനെ
##કી
ਸਚ
dean
##ambira
ntina
##ಂತರ
tuo
yash
কিছ
ኢና
society
مول
##utse
pagkat
##alele
menurut
hung
axborot
ახ
tlhal
##алары
palest
##анды
predsjedn
نې
lika
anci
انگ
##ytos
manda
откр
kute
buhat
связан
mest
rid
هیچ
σκο
##unau
tiin
sempre
##egan
ᱠᱟᱹ
##iranje
##हका
arasında
szolgalt
milj
bec
ولكن
##tuar
gim
monga
शाम
gegevens
bestemm
kategor
ಆದರ
##alig
inti
परो
kolo
страны
##ىپ
бос
wilg
pt
گزار
cc
afir
الحكومة
bejn
emi
##ittel
##दवारा
geg
##날
##dio
uzu
##еге
کون
noo
रहा
təs
prow
ရန
болох
مقد
##мы
##ோம
cɔl
##ість
muku
##ስፋ
##져
##isya
tup
##elan
co2
stol
##하기
##ባቸው
1976
vur
cert
ڪن
zahtev
ጉዳ
заг
##λαμβαν
##mɔ
ရေ
##ۇم
ogranic
##ious
##usz
##rox
kpl
##ናገ
көп
liitteessa
##abila
##terior
fell
##гер
wakhe
ром
##ием
moises
حی
##შვ
##ಾಪ
tupu
peruste
##ประ
wymi
martin
##eau
zil
παρον
clankom
act
saul
##uhr
bibi
##skr
کران
skul
дз
oya
obb
khan
সরকার
ཁབ
##kych
হাযনা
##vald
sampai
##wia
കട
خواه
වර
##дации
zari
##utr
kingdom
ucink
##аде
##તરી
долл
##роз
gand
present
##fung
michael
##uring
##ანი
both
toy
game
dati
##ovit
tuba
օգ
##angg
##дыр
nshi
##tiga
##larının
ڤا
##κι
તમણ
දැන
##נט
εμπο
##ijen
##كين
##wɛɛ
##asya
واست
##كار
perman
pase
कएल
##ويد
flor
##anio
συμβουλιου
service
##anggap
ændr
##ekileyo
##hara
gue
##yku
اﻷمم
##asai
abrah
окт
##ⵎⵎ
skupnosti
##gota
##مثل
шу
okun
##ताव
##owan
##کړه
##ြႃး
יותר
خطر
down
##ថា
muon
##wenera
erdekeben
segundo
tað
তোমাল
##ተር
##شطة
अधिकार
ຈາກ
marc
##ဝင
paga
##atshe
igba
सथित
resulta
nsima
enged
##ருட
prih
manatu
##ເຈ
дев
##قال
بولۇپ
ᱨᱮᱱ
##tivos
momento
eksp
##ාවෙ
feta
agama
یم
ټرمپ
ದೕವರ
##ⵉⵉ
##ehna
oʻt
सङकरमण
изра
kolon
cela
qever
uff
##bantu
बात
pkt
1974
##ମନତରୀ
europæiske
zav
##ashtirish
жар
##ରା
جدا
ဆး
##რძ
##ᱥᱟ
שב
##adamente
สาม
ତମଭେ
##वाह
στοιχεια
##руктур
สง
dawk
буду
относ
##abol
wathi
घटना
##liz
##alni
##امت
meas
relativa
ਬਾਰ
##ষণ
लाख
##inos
##ване
глас
##عو
uya
واش
торгов
prava
मनतर
चौ
করেন
lage
atsk
คมภร
baile
hing
##iyy
ยว
##เท
ແນ
það
कोरोनाभ
##onse
145
هدف
##atio
उचच
##ᅵ고
ارب
##कता
இய
damu
tokala
ماڻ
etil
lapud
emas
edell
امنیتي
маш
совещ
دۆ
सीमा
rya
susu
beb
taba
nitori
μον
manca
##csi
##kot
famil
бүл
գործ
yud
internationale
geograf
muito
##گز
##मत
##іне
जीव
घोष
عد
сва
ระ
##ating
예
##ulah
ساعت
##mine
εξα
అత
##tschaft
መጠ
##wako
##ድን
avtal
ukha
##ാജ
##ದಯ
##었습니다
##waat
bumi
saav
itse
##ၸမး
ወይም
##গর
##ايف
##khe
umoz
##urira
##apjj
##ကား
accord
babaen
##ٹر
##رې
##енного
trz
ethi
##inyi
##atanan
##itettava
agi
outros
##رق
நாம
##ⴰⵍⴰⵏ
nett
تەر
##fice
huomioon
gav
##ტყვ
anpil
अमरिकी
##ⵓⴳ
##екс
ยน
##ናን
##انة
##ща
##მერთ
kuete
##ɗum
##شرة
##ാപ
interven
##gus
বাবে
lupa
##ชน
awak
vle
##անում
اتفاق
faire
rɔ
##ககள
##وبر
##endre
laut
##alui
ಸಹ
ဘာ
সহ
negeri
##ɩŋ
##eff
##មន
##வில
betreffende
عالم
informacije
ពរ
szerz
ahorow
قسم
##emin
كه
ชวต
##енность
##wid
pud
བསམ
كري
##urar
اهم
تھی
ትምህ
##ekse
manch
##ქმ
1973
siata
бурхны
danych
##omoya
ਪਾ
estan
sest
organi
acest
المل
##ists
یکی
этих
swilo
စစ
##listo
ڪي
ла
نان
pac
##apost
##ически
##дат
##овои
boli
ikun
governo
ښه
چیز
prik
##omeye
##ας
هيك
fad
ait
membro
##ستې
##මණ
سچ
соң
##जित
ford
drzava
##ava
##iert
##roj
naan
moom
##hayibhile
timp
##uzima
يۈچۈن
बाल
##anei
##riste
##kpɔ
তোমালোক
roi
hib
##оме
##كسي
##ambia
sf
##ubah
##nud
##gia
woƒe
pade
zoals
الوا
##akul
poku
mogu
sach
terd
##нес
hez
##postav
joseph
##agn
uning
erint
hensyn
egiten
आउ
དངས
kuenza
##osai
##τουργ
фор
nki
cheart
низ
kure
меры
cakacaka
konkret
շատ
##amentos
##डक
مثال
vyn
тэд
kɔn
reir
ไว
##ಾಜ
tio
ღმერთ
законод
hozza
тип
##vania
##radet
idea
glav
србија
##داف
##unay
yle
##nice
##other
اثر
##عی
vinthu
##ներին
anna
qof
atgarder
##ednost
ಹಾಗ
1978
бирок
wai
##ambul
declarat
ⴰⵜ
aun
ᱚᱠ
espirituwal
takze
امريکا
матери
cyn
bida
coc
teis
wakal
jezeli
마
idos
##lyk
გად
لږ
asina
##ဟတ
##직
وایي
##cias
antig
##dav
##dyr
يه
маи
הכ
##াৰে
##ပေး
mian
boq
direttiva
pagældende
experi
##fata
monde
कली
##हरी
##որդ
##ርን
gaan
##भग
later
puniki
iria
wole
sigui
କଷ
##unaan
##قييم
##uco
##izga
##nyane
##בות
##χισ
dej
case
##alka
##ɩɣ
vym
galaw
முட
##кы
##ညာ
##ရေ
##ники
##емых
##ofanira
ژوند
##ambuluisha
yor
adamu
buhay
কযা
tsi
##শা
єгови
terhadap
##ριν
##upun
##ħa
कहल
ترکی
##ባቢ
מח
podatk
##onek
прев
dih
eseteben
պետ
##jul
үҙ
##ος
πολι
ран
santa
1972
##ጣን
##ريه
business
##ші
##вид
сор
میل
##ezz
##etakse
ενεργ
##eteik
##ству
##ارن
##app
ач
franse
##টর
αυτη
##डिया
kuikala
##простран
##ۇرى
zonke
##rayeli
##istre
##ନଦର
maran
බය
##след
jem
によ
δεδο
covid
##லாம
udel
ժամանակ
esia
التعاون
##ารถ
ನಾನು
##aday
zbog
##ᱮᱴ
allo
api
##ʻiga
##onomi
යෙස
exemp
##өв
nariadenie
##иров
##heter
بهرنیو
منظ
##moo
##ⵉⵢ
chinh
##ilwe
##ाउ
##સી
##urang
অহ
διατα
احد
##كام
huru
ཚན
ලෙස
##33
##dese
மே
дост
busa
dø
وڏ
ishte
мл
mundial
பய
peu
##های
##סט
ადამიან
kwam
##ാനം
necə
##കൊണട
minimal
گھ
mungkin
གཡ
اسلامي
لها
እዋን
ajan
المان
##ীৰ
jego
ኢየሱስ
ife
инд
##ամբ
пог
ihre
നമമ
ວຍ
##দে
##بول
szczegol
przedsta
##hep
پوځي
##ගනන
आव
##plu
##وەی
sort
##เรา
osu
වය
##ская
##sim
юу
##ungano
مخالف
membru
આવી
قار
어
##ongwe
veika
##гыз
patvirtin
##onz
tham
εως
only
अख
##طلب
##ober
kabidi
prefer
##ிறகு
##ොන
##nama
##টো
##เม
major
##ારો
##शत
ijoba
##ока
yt
##cem
यी
trai
อาจ
kotel
सिदध
##udhaan
દશ
مسو
دهد
រម
##جيا
##ማሪ
pagh
voim
graun
ډېره
যদি
##ினறன
nundu
ahinya
##vl
##ася
isti
ସର
подоб
ⵜⵖ
##றறு
alɩ
##양
##umal
kuras
##ledu
ntiy
##irayeli
because
lueel
##ுளள
##inske
وکړه
##ህል
ہنز
##teur
कोरोनाभाइरस
kafa
امت
kabi
toda
chir
##ентов
akham
ہوي
गत
kie
##jete
riad
অভি
wakawa
огранич
giao
##रात
जाय
chino
##unika
hadi
album
mizuri
ପଣ
ogni
kerajaan
ហេត
namba
परकाश
кандаи
spolocnosti
nene
##akol
shq
##igura
druge
##녀
projec
གཟ
##راوە
རའ
##ints
rivojlantirish
அநத
##வுள
##adaa
##গলো
##skiej
ainm
##otra
nug
##ಕಷ
descr
njengo
##куп
##పపుడు
yis
решения
177
شورا
einem
##தை
##idel
##ᱟᱹᱲ
ebi
##ינו
समसया
##िकल
ከምዝ
liga
ала
الامين
##ريقيا
dǝ
twee
##tam
nasi
##дагы
igb
ቃል
benefic
##رر
нин
##بەر
sya
##ију
tumb
ಒಂದು
extra
##raitear
##ատար
bhu
tillgang
##τρ
valor
paar
##inih
key
##ll
suvis
فرو
государства
##гал
etdi
கடவுள
दिया
mmo
pup
ahon
sami
tare
گیا
##ຽນ
выполн
nagu
##शिया
afi
##rich
gora
বেশ
बक
##хэн
মহাক
##owany
ڪرڻ
##lhe
ⵓⵏ
##جھ
##لە
pagl
steun
##noj
where
##ehan
pubb
##ټو
regular
ਸਾਰ
zawi
127
контрол
परमाण
तयसल
ενωσης
liberal
##tee
ifya
تست
احس
χρηματο
leon
##pach
##angun
##ednosti
##apul
##cih
##다른
##ⴰⵕ
##ریف
##နစ
envir
لس
ከኣ
##ობს
##ሰር
الاش
##থি
##agas
ٿا
##ostu
reino
vakara
اداله
ارز
مبار
##yinza
نع
inneh
minden
##ʻia
podem
پښت
##кои
##ियम
amewo
وص
##ായിരനന
##داشت
##ıp
gima
##aleng
ukuntu
അവർ
mapa
politicas
##mati
herr
нат
desta
masal
##qinis
memba
asp
ලබ
##ानीय
##ಕಾರ
iyon
vek
ڪم
##lø
পী
dumping
doch
##루
shir
point
ditsh
##uska
##شون
##เห
រៀ
ballstait
keres
##ehl
jua
کات
##iksi
##innya
हिनद
bilip
##ября
##ቶስ
##umayela
##isiunta
ell
hef
지
##жив
##erimis
anka
rawh
должны
kehtest
liaco
eza
सरवा
##ोध
సహ
эмес
ਹਣ
##ಂಗ
الول
samar
obvez
ngar
ets
nid
##ဢၵႇ
##енти
##isaki
আপোনা
ولي
daun
##atum
लकष
animal
##jaca
##الح
صف
นก
toku
իրեն
sklad
ihu
བཤད
relevant
##ергә
nchi
##ககொ
##igir
##ከተ
टी
कमप
washington
дополн
neste
maana
оил
หลาย
समाज
свои
провод
մասին
##တႄႉ
##hlabeni
##jama
##ಕತ
##गरी
amamas
megfeleloen
كە
territori
πλαισ
nike
eky
1940
ron
##ᱯᱷ
pih
karqa
باس
##လဝ
##ទាង
##hairt
serta
ରାଜ
##κη
imene
##hr
pamb
##اں
exper
निका
maju
##niku
dihang
لک
ро
maca
sanga
##cwele
clanok
ཉད
priprav
zaradi
ၸဝး
жөн
كو
prit
або
konflik
кв
##қи
dyn
##рон
##ግዚ
кызмат
produtos
okut
raya
vaatim
ff
برا
##चल
milij
لار
συμπε
##સા
##iket
اسرايي
хез
छि
##ickych
##icacao
producent
сад
chaidh
garga
سون
نج
##asca
tungkol
அதி
حالت
deklar
##racht
##ⴷⵉⵏ
##име
##staat
ovo
prø
ၸငႇ
britan
##gaba
ପରଧାନମନତରୀ
##ሎት
##քը
diag
##ियर
сед
ພະອງ
asut
ሥራ
##தில
##јки
##ገኘ
εθν
nangu
ওইনা
مشت
proizvodn
eger
sovi
##ями
##иян
lent
ukan
gcas
mungu
राजधानी
નિ
ezek
referenc
vahem
##ربية
1958
sile
було
осуществления
##anija
ipa
juta
##मबर
ende
frans
حو
нәрсә
adat
lamb
kach
alɩwaat
نخ
обвин
##mista
ngaba
irak
##다는
hov
ול
организация
##ॉर
##שוע
##oir
##unakan
##ገባ
##ените
agen
unios
בח
conte
chuid
##োধ
103
##hlang
telefon
##షట
##λια
##umaa
##မယ
austria
عشان
uthixo
εαν
mika
inclus
٢٠٠
भो
bantfu
баз
relevante
मस
##јот
##ността
ambiente
##uavo
keti
oka
অর
##حية
##খরে
داشته
whenua
##цу
тези
##zny
##vun
ror
##fde
kuenje
##ardz
##الى
লৌ
започ
##ശവ
chet
उनको
yhd
##abona
вос
staat
शामिल
tower
ყველ
zie
##េស
##ограф
башка
papel
дос
##wic
ⵜⴰⵙ
##իսուս
##omaki
##akax
आई
negativ
##esten
ntima
viena
الذين
อะไร
##ிருககிற
ondernem
ఉండ
##lyg
especi
pɩnaɣ
##ikela
##atura
біль
sech
artikulo
indic
ngatanan
##ък
##taja
גע
surat
ادا
ಹೕಗ
##হে
penzugyi
kube
##باره
הצ
てす
##alada
положения
##yty
klassi
tartal
cogo
##ulai
uwzg
گذشته
fte
ਰਖ
jij
british
##pɩ
##ては
specifika
side
##usk
##ಡುವ
وخ
unis
direito
ekoki
ian
oce
بک
##ални
altera
##hlaba
##shire
timur
يوق
isaanii
##ഷട
organy
##enni
##44
ເຂາ
puede
նրա
##jata
##оби
##허
##ಯಲಲ
##ември
personas
koro
ост
repr
##ksam
weche
should
akhir
namoota
الجديد
सथानीय
##bara
##anca
##ineann
##tʼ
##atos
##ilio
##ds
የእ
##നനെ
poki
##ठन
tejto
##राज
##ziy
##ishiba
следует
##भव
සය
##వల
##chiu
##ाइन
पाकिसतान
##ᅳᆷ
good
жылы
##chtʼ
##isii
diffic
ਕਰਦ
кудаи
##omin
##ابی
dzidz
خپلې
##혀
kohaselt
mawa
dunya
specifik
yacha
##ress
quat
cyk
esim
یسوع
unionen
srodkow
palab
ଏହା
quv
##virus
ɔk
председател
##mann
রি
##оров
गाउपालिका
##ඩා
##anyu
##itira
##קה
mondi
دوس
##etswe
quad
خي
башҡ
قۇ
##ረው
तह
##cej
kral
sooma
naveden
pum
clanic
ਦਰ
ngom
##ነው
لوگوں
canke
koda
##كە
tagħha
งาน
takođ
##sku
##okl
##zien
eset
daya
1967
процедур
sili
boro
keer
##χν
##מות
spot
volgens
ακολου
อก
##ysk
kemudian
rapor
##ၼမ
mys
##ⵉⴳⴰⵏ
##utaki
которых
परीकषण
##ometr
فعال
taisyk
امله
བསར
##ⵟⵟ
##ivanje
molek
##ingat
##ຍງ
##ална
mesmo
##bra
##सिदध
الوت
miy
غور
##եցին
jistgħu
##λλη
shar
eljaras
النه
pokial
kumb
конф
jumlah
سك
већ
##uega
bikin
التقرير
उनक
ramach
manjadi
##okera
##қт
цель
inm
esitatud
##nica
##hlad
boleh
##เก
لغ
постав
راغ
##لات
tiu
कति
နောက
eig
##asia
peaks
المشت
court
introd
ਲਕਾ
##lob
##ிள
administra
nederland
forsta
jet
فو
tuleks
ɛlɛ
ګډون
биб
odbor
##edə
себ
##малар
segur
##շտ
واک
##ⴱⴰ
##kenek
wada
megallapodas
gade
جنھن
##жи
##νος
milhoes
constru
sengwe
##vira
##ittaa
##poł
بلا
##jacy
наи
ukampis
قان
niem
perus
millega
those
##ستى
abena
##চৰ
##ಸತ
##шта
##atera
##शवर
belgilangan
##τρε
ဆင
three
международного
##dam
اللا
обязатель
inj
##itanti
##otr
gee
panga
darbibas
xid
risidagi
اعلام
##agang
##alacha
ديال
мүм
markii
brazil
tshwanetse
सवी
##រប
##ගැන
பல
##ضية
todas
ممکن
حاصل
hla
##ንያት
oik
##दम
лет
##टो
cooperacao
מצ
##ራሕ
perang
##নৰ
##میں
boshqar
##екта
##ێز
##ပႈ
мүмк
ምር
##wys
##yong
ruk
guer
људи
албан
sma
ដើម
ဝငး
tista
wprow
شدن
szerinti
##ሎስ
##aleli
دع
##origa
zemlje
također
##iejs
##േണട
##சு
λει
ቦታ
##wanga
tinggi
begin
बताएका
abba
pakalp
χο
भइ
hudud
##rej
အဒ
##것이다
destin
neni
budu
number
tiro
ðe
##θηκαν
##egt
##itaria
prevadz
##करिया
riria
##engu
##ским
cikkenek
sper
kəla
##upaq
नर
srɔ
##dren
jejich
##پر
mexico
##ilin
paragrafu
хезмәт
zajedn
##іння
risida
والح
##iller
հո
mini
يست
علی
قدرت
##عراض
##елич
всем
bim
pric
zaklad
sard
zemi
たち
##ႁၼး
yard
develop
hij
कौ
##yicha
zaidi
esto
berg
##ината
##რისტ
atmos
chuti
betyd
recon
##شو
atia
гэр
##ሉት
umub
oq
kuye
##ceae
##uls
##வின
osutatud
خمس
##ondi
##vesse
centre
ζη
comh
الفريق
##raft
exem
ము
универ
##تانیا
##лық
የማ
qaror
कऽ
spiritu
خبری
ይች
ပြန
دەب
rozporzadzenie
##nuti
##emiya
##aniiru
araw
sekitar
tvar
ดง
engedely
##יין
සත
kasar
natin
##લો
زۆر
##ɖee
rownie
жо
mup
##илан
##imina
በዚህ
bibelen
visi
##тап
woku
##ænd
महतव
##elago
καθως
suv
##דו
vajadz
benefici
##adua
alagad
##لارنى
enf
orile
عموم
##itaʻi
القط
них
##եզ
##ню
##سە
valuta
vegrehajt
kuth
initi
যায
##گو
temps
качестве
sini
revol
##iyar
усилия
भम
पहल
##ডা
##zone
ঈশবৰ
nala
propos
koncentra
یون
држав
بايد
##vra
##ⵓⵔⵉ
hend
ਬਾ
तयार
rze
lac
kompetent
qas
ɣer
##jwe
yell
luar
letsatsi
##abanga
paula
লৈবা
figyel
njengoba
jkunu
##ಮಗ
##ذك
##ilai
##യകക
##дән
jeigu
##umwe
franca
bose
झा
ella
နာ
##پوټ
baara
##ерш
##ટા
##ingana
##isne
თავის
کنم
##ছিলেন
bea
haf
chye
توسط
apakspunk
bino
tano
##ပေ
##wanan
конст
##ту
##ிருநத
##esci
mpa
##mid
##nemu
muhim
viii
##ෙනෙක
##siin
##চে
पाठ
##กร
##opay
alguns
##জে
پنهن
dru
##ၵၢၼ
##േര
обществ
##ኖም
##ushi
atla
##ၶၢ
მაგრამ
ڽو
##যাল
ⵓⴼ
neka
##ญญา
wose
##ித
##ojas
quanto
tekinteteben
##และ
מי
##दखि
##dp
булып
##arse
enter
ialah
##owiaz
taja
##рен
geval
##ସଥ
##lıgı
kdyz
##ishga
സവ
##alii
genera
의
##bud
##das
varð
ڤى
##ንም
seva
specific
probleme
##lidz
##자신
mall
زور
##යො
mail
##сты
المق
которыи
##hiin
γε
##alet
calıs
##ezer
puk
svi
uztikr
tair
hua
ځانګ
основе
##biu
ਪਹਿ
##losti
gadijuma
igin
tambi
##ⴻⵔ
kinde
ເບ
punto
претстав
##rent
##ilit
सास
hikw
##ште
##ਮੀ
1920
hamp
julle
before
riik
##øres
okan
hp
medlemsstaterna
##itvi
လေ
##უთ
генерального
མར
##ezes
μει
тази
##mens
rimwe
balay
cij
سيم
##atele
menggun
##korlik
elu
kort
medio
kisi
могут
tiedot
waze
parast
zom
rese
afe
ምዃ
qad
чун
ዝዀ
pane
تحقيق
##aŋ
##ตว
අපට
cumu
izdel
свобод
inspek
aire
##chir
рабоч
خلک
dtag
nho
zimenezi
##km
##iniz
परिवार
##ምና
##æs
##ⴰⵔⵜ
##বল
uhoro
ukoll
գր
##vention
tarkoitettu
##cza
##ⵓⵜⵏ
bheith
pondola
##uit
##തിയ
sela
bibidia
صرف
spoj
##tek
рел
pogo
##ᱫᱷ
##atira
tambien
##fri
ཤང
miq
puta
ekstr
##zane
betrokken
muf
kole
uredba
yax
pirma
када
نحو
##ировать
منډ
സഹ
него
montre
رپوټ
##ɔkɔ
офи
##จาก
blan
شێ
##ⴽⵜ
mumu
دغې
##รส
##റിയ
yeu
##هور
kari
##গত
##wikkel
نژدې
ସୱ
succ
kansall
phakathi
fail
##jacego
tanihi
th8
##udes
অনেক
ഞാൻ
isik
manje
##ostas
text
elke
##wamba
##amee
راح
embar
ଆଉ
کبله
ملی
##andik
##alay
పరత
joy
amenny
##ligere
vali
##okwu
1946
ទាង
##idl
##ijumu
aontais
मरा
mimo
hlam
##utaka
norad
analiz
يىل
##عش
##bit
komisijai
هغې
agba
частности
##னறு
reglam
yhteison
کلونو
dyrektyw
yrit
##odob
bej
قی
tusa
##յան
dziko
##alos
hura
##aking
ទេ
sido
##cam
تاریخ
emerg
होख
लगभग
قص
##ರೂ
##עת
يب
mulimo
خصوص
##ость
پان
##참
iqtisodiy
তমি
okub
kurios
##ﻻت
##ριζονται
betrekking
##ξε
dome
twi
##ogela
##rati
##θυν
செயய
tato
bawah
##aza
##emain
հիսուս
ھڪ
novo
която
الجز
ᱯᱨ
##wenyi
##ദര
##વિ
botsh
kinahanglan
ᱟᱠᱟ
##τητες
##ափ
##δοτη
##ekenys
kovetkez
ewropew
##ጀመ
sifat
rowniez
##pligt
မတ
verdi
berak
kwab
##ədd
αξιο
نړۍ
কৰিলে
қал
##ɔfo
परष
mura
##ดง
cinn
##pri
##рш
##ивает
##zol
##ങങളടെ
##ⴰⴾ
peab
##иран
दसर
ነበረ
##ads
terus
##hetho
potr
actual
##ងគ
jedh
વાત
sporazum
меди
પડ
##aland
された
##ɖɩ
хор
wyd
##bn
##asie
##amah
guru
##ภาพ
1918
##ᱟᱹᱱ
መንግስቲ
cultura
provincia
naman
##liy
##eriwa
افز
##ێی
fyrir
##isesta
##ables
ማለት
##ekkel
##ڏهن
transporto
ଭାରତ
##name
izme
##tok
север
παρο
επισης
priemoniu
ايه
mfumu
imig
loke
##ילה
##μπ
##isessa
diph
aps
##inom
##ۈش
koskevat
##ासा
anggota
zvino
پرا
tii
##egal
းက
الموارد
##obra
ཐབས
eupsa
ครส
බයබ
##дээ
##많은
यहा
mij
สด
tush
সাম
البرنامج
##டுதத
szemely
##embru
kozala
bukan
##नस
##obaki
অসিগী
കാര
##পন
##රා
saist
##arakter
גם
ⴰⴼ
##ivad
cya
расход
ιδι
##opim
ᱧᱟᱢ
если
između
##ქვ
##enyek
##amisen
vahend
opt
دوای
marta
tehnolog
قات
نیست
խոս
##эж
เว
kedua
##ующие
fine
uvoz
ସଦା
ཐན
##osana
nenniya
##yonse
nhat
lame
##ⵉⴾ
tayyor
unsang
noku
saint
##æss
bantsi
jasenvaltioiden
##dzi
##67
##nee
##ାଳ
##ايش
lyg
size
बच
avi
##ице
yaw
isaias
##சிய
##54
##kond
teror
namoonni
этом
เยซ
##افحة
ць
दिस
warsa
ਦਖ
vazirlar
regler
offer
oms
گرفته
stæ
nagt
##መል
##ною
pernah
наруш
##כות
dwe
እታ
##59
##odis
##jeva
కర
##τοι
##ણાવ
##γων
##ቅር
bija
والد
##رية
әит
सकन
کنی
##वरी
##సన
উদ
##ಸರ
λειτουργ
##mag
##တဝ
भग
pohj
ᱫᱤᱥᱚᱢ
өм
##aniem
aument
##قف
institucija
αρθρου
##τερ
##เต
informacie
##ପରଭ
طول
hob
ⵉⴳⴰ
ном
прист
economico
##yri
##पट
вл
ګڼ
सपर
##rog
##aliya
##idae
natan
ið
matin
նրանց
код
##নধ
کاری
nacion
øk
ಬಳ
ਅਜ
##णडल
yd
الجه
##ിടട
##ubeka
religi
nomu
##jien
gold
नक
##өк
##61
amennyiben
xar
##icamente
sino
ཙམ
##aper
##rait
sast
##usim
toog
llo
mite
ਬਾਈ
##సతునన
##푸
##난
བསད
فیلم
ساتھ
##vulu
cosi
##umbo
natura
zich
##সথ
итеп
κιν
voru
bip
##ті
euros
करता
yɛrɛ
আছিল
dispoz
апр
##pond
anz
bevoeg
##toi
##riga
મન
##ያው
1981
##ezwa
decyzji
greg
αναγ
##နာ
##erade
រា
سبب
biibla
children
ኢሉ
لای
##nitt
ayɛ
yuma
hemm
haj
##sts
##iris
liitty
dast
qabu
lelu
nusi
##mee
commer
##orero
thiini
হে
##ودی
molemo
zl
##were
##దద
bhfe
ھا
ၼႉ
##иси
cog
keenya
##გი
више
tukuna
قرب
ཁག
##yati
مقابل
նչ
هان
##عث
zvys
ishl
bwana
ettevot
##waq
مانند
तयानी
##ratt
mendapat
دوست
##ⴳⴳⵯ
##ymas
grunn
lina
યહોવાહ
##ବାର
##μι
انتخابات
vedrørende
мира
cristian
sola
##ayd
मानव
ባለ
##లక
යන
eviden
اضاف
αρμο
ዝበ
##ারে
fire
##ኔታ
mbu
kredi
##inyake
ابت
tayta
##eyi
sax
kamat
εται
ھۆ
parba
##fort
سخ
##ozott
##ført
απαιτη
##אה
##utor
pagrind
кез
##fani
adres
sırb
spolocenstva
فن
ပေႃး
ہمیں
ਬਚ
maara
akh
ambiri
seja
##wila
##erende
hre
يان
مگر
##unit
ساکالار
##χου
##hos
برخ
##년
αποτελεσ
ھې
##hreir
хрват
##81
பார
pakistan
لوبغا
oliy
##дог
##pro
namen
vyt
tijd
verte
##कटर
يىلى
المعنية
##vwa
guy
##essen
##τοποιη
masyarakat
असत
כא
सरकषा
आरथिक
atlik
direktive
##றப
##ukaka
##νται
இர
##haszn
vett
##су
##erior
وعلى
##beeld
ਕਿਹਾ
ريیس
ผล
##سيق
priloge
##wisa
vpl
##ilih
bats
airson
ᱯᱟᱹᱨ
##চা
##ורה
nyujt
##ındaki
รก
##ራል
ngendlela
owo
rajo
ټپ
store
واري
##दो
الض
היו
секретаря
##المي
##كد
##onti
##ellt
##щества
##wanda
beth
##թե
иткән
##rys
فرا
sond
innov
душ
fha
##isela
unio
akam
tawh
szere
yapt
##عيد
##abili
pomocy
##nɛ
##থম
הפ
##لح
code
##વાન
##ује
உஙகள
trze
##বাদ
##aragaza
εγκρι
handels
##িকষ
##ساد
niana
norte
##ीत
##ashtu
##see
##ⵓⵕ
عمليات
οταν
toet
forhold
mozna
মনতরী
ลก
moja
отм
boʻyicha
التص
then
pristup
##erz
кеше
##iriria
sever
##នេះ
##ılar
##ᱩᱨᱩ
##atau
support
ابو
##ския
##따
cunt
##pin
تجرب
##скии
mukanda
bajar
регул
сообщ
##మమ
loob
næ
gcomhreir
аг
ys
##ᱞᱤ
##는데
##ɔɔr
شته
##ኖር
زبان
odino
##נית
##σκευ
##ෙද
ошонд
gach
שי
ism
gbɔg
trakt
nebo
борь
مين
##שיח
نێ
subjekt
##قول
tshik
таких
daca
daudz
masalah
ntoto
inuu
amach
##челәр
##ahkan
dtagraitear
تشرين
##umam
##daan
amwe
وزير
ਕੀਤੀ
γρα
tikai
vnut
##עות
##집
hikwalaho
धन
##увањето
ᱟᱜ
##etsh
##juan
mesia
##ရစ
##산
##ाय
jung
ਵਾਲ
##ussa
ସଦାପରଭ
પછી
mait
##শিংগী
αρχες
##ानि
bongo
##ursos
wod
strane
სხვ
لارې
##yowo
ansvar
kvali
##যেক
##मति
কাজ
мом
##λιο
sırbistan
なと
بنی
##ezga
រើ
නැහැ
yakobo
بمو
hidup
##θυ
estabele
ⴰⵢ
خور
વિશ
bunu
مک
មនស
znac
##ското
##នោះ
##זר
##erede
ཀན
කාල
##odik
dziv
авт
ਬਾਈਬਲ
##மைய
##amul
##ၺႈ
##eresete
মসি
##필
##alna
##endel
cic
konstruk
##ebenzisa
##คม
##gabo
##got
kalim
##روز
खास
barr
крит
##کټ
##hio
##raf
преп
##ве
lakue
шумо
генеральнои
bolo
##эс
##west
##ђе
བཀའ
utvr
الاج
idoszak
##zem
ζω
##olelo
maml
сат
vakacava
बढी
##طقة
penting
ստ
##irdi
komit
kasitle
sisi
##ojj
cio
wog
##ihu
liwat
##iken
while
##सस
aine
jwenn
यथ
112
##दिर
ⵢⴰⵜ
liber
iq
moses
kraist
inzake
خۇ
две
##წმ
النا
cuu
εισαγωγ
үг
coz
alusel
бұл
तत
sandi
gjithashtu
##울
ᱞᱮᱠᱷᱟ
1977
caracter
##ⵣⵡ
##imentazzjoni
##ଛନତ
prispe
સરકાર
panji
தெ
നന
regel
erintett
##ებლ
##ардан
सवर
auk
myon
vent
wot
##jni
presente
bulo
##vista
##ାତର
सयकत
haji
القد
termas
kaga
ater
abang
lowo
ɖʋ
##isang
လျ
сша
осуществля
vazi
llaq
ਜਾਣ
ពេល
historia
niso
महिना
ail
##wasa
##ልና
##ႁဝ
eji
ithuta
станд
mulandu
##oport
mans
ऑफ
кудаидын
hain
caru
##arus
##oriy
##дің
aleke
ради
komo
##ାଙକ
apsa
све
##apho
omdat
##ζεται
бла
##গনি
##ேசு
maqsad
waaye
##ሰማ
tarafından
यदध
דבר
##ovala
μετρα
##ਮਾ
##ılan
##jeno
##արձ
##vari
##wt
යෙසස
sada
obama
daoine
التج
direktiivin
magp
доступ
##약
अपर
anat
##dɔ
gile
##תח
الفترة
qat
##yoni
##채
##taq
##аның
##ሳዊ
opa
لګ
##ስታ
umn
tawen
##wend
##كىن
گزارش
##alee
##सथान
menggunakan
##યક
##ikke
ქრისტ
કારણ
tonu
سیاسی
##ᱟᱦᱟ
diba
##erian
تۇر
skirt
بنا
holda
##سط
olee
aɣ
بخش
nisi
1971
dits
perg
maipapan
russia
politike
##აფ
oct
drugih
била
siekiant
kuphela
selo
centro
बदल
прилож
##аро
##ymu
menye
versch
kinn
thomas
ਸਕਦ
الانم
खोप
wind
##imum
сүз
##akk
lands
үр
##isira
##laim
زە
yewo
##سیون
##ويت
کوچ
##ару
##لىنى
امر
يىك
бод
##ುತತದ
##jehovha
budget
szamara
bekezdese
##uwe
##edda
bahan
комиссии
##형
kune
उपलब
призн
stros
##jajo
##oco
सहा
yuk
##وتن
##ⴰⴼ
بەڵام
##дав
##imise
muta
មយ
##መስ
fug
##শি
нев
richard
##vill
amet
διασ
juk
عو
ekue
buli
cual
##ందర
formacao
науч
enyi
uposte
lyo
ህዝ
polisi
rozpoc
والع
མཁས
wz
##ៀត
##מן
биде
##liv
النس
делега
##될
##lation
##amental
grandes
##ео
##ɛŋ
toko
fasts
ui
ଦେଶ
sue
##utana
يج
ቤተ
##মী
हए
##ستن
##long
სახ
فرد
осв
उललख
##wano
буде
চে
mahitung
blitt
##anyag
regulu
valmist
among
##alanan
principi
##мә
##فض
иб
protiv
அதிக
དའ
##اون
##ணண
loma
isten
##amina
эс
warun
კი
##olagi
претсед
uzsk
zuten
##unyai
##што
ⴷⵉ
polis
неп
anvendelse
толь
ڪو
##ɔgɔn
ಎಂಬ
porta
predp
hospodar
##anong
##ⵏⵜ
##ingas
pove
##ستر
umwana
muddat
omhand
##اسه
duhet
##іть
ବୟ
laborat
##ριζεται
یوازې
కన
##oles
uiga
велик
څې
##ҙы
umul
##ril
##rus
francia
diplomat
gercek
foranstaltninger
κεφα
norma
เน
ကြး
garant
##ipt
ags
ambito
##ଗର
##ози
ahy
madu
##ξεις
##ovor
zodpov
##ऊन
ᱞᱮᱫ
беҙ
fore
##ಯು
##ические
mahitungod
litta
बरिट
##شق
bazi
##taut
##ekh
varia
seno
##िकट
raport
този
योजना
simpl
##গৰ
zanak
ente
maksa
แม
##דה
##हनछ
##asining
##uruh
##hatag
वरग
прик
mooy
##ologia
असति
##ovne
قىلىپ
დღ
##уна
пры
##abay
норм
उहा
членов
ях
##tə
razlic
estos
து
##ovali
##ezza
##irane
pion
αρχη
##ാഗ
##larına
حزب
##പപെടട
gah
orait
vola
onse
##엇
obm
satani
ཡངས
студ
##ክት
##brug
ufodu
هيا
шуд
کډ
identific
පස
##િન
ред
прем
##दल
##ерк
හෙ
għajn
##ندڙ
##τερα
kuatekesa
resta
dusun
##သာ
##pras
ura
solid
γεν
##رے
##نفيذ
##േഷ
свою
sex
##روح
##ⵔⴰⵡ
yetu
belgi
##ماعي
miljo
۱۲
##ثال
##ances
##yse
افريقيا
ularning
දක
roedd
giup
##ାବ
##ليه
##రథ
ite
##ብን
##एस
##istik
potenti
তেওলোকে
yos
рус
كۆر
ሃገ
##ਿਕ
##ᅯᆫ
izu
って
ᱵᱮᱱᱟᱣ
ⴽⵉⴳⴰⵏ
تېره
##elia
1961
kiz
ارد
مما
loyih
##যো
##ыми
distrib
защит
taler
iwi
ufumu
međunar
फाइल
kuria
##kluz
##جاد
hospod
origin
zagotov
##wch
900
சு
pli
tevekenys
##িকা
kufanele
litt
1965
পৰি
zinga
beda
##elin
##irim
##اسى
kuts
##vali
##طق
skol
conto
analys
##nene
investig
эти
##ように
online
costa
##fasha
परिस
##에대한
ego
kayo
تره
bizi
wk
nguva
তেতিযা
kier
moham
##agwo
jedhan
##ႁၼ
পরে
شمال
თქ
povec
##زمة
valt
##ukir
buz
todel
##organis
##utum
##ather
pig
ਮਤ
նրանք
увелич
gegen
লি
##ದಂದ
dibe
weyi
##께서는
##qina
##λους
gett
ntir
nekk
bibilia
doel
sle
##еговор
##כת
aplic
nagk
##xis
guath
##erol
mennesker
idd
ལའ
##ologo
funcion
сектор
زان
##ɔɔc
##иши
uguo
##алык
sadu
tm
##ught
hek
සඳහා
দর
perust
ⵉⵙⵙ
plas
##ୟରେ
انس
nɔnɔ
cek
ሁኔታ
отдел
साहित
##στηριο
teor
##نچ
posi
##ياه
##vum
লম
binnen
alesi
yawa
##еди
заключ
##ድረግ
ioso
##ుక
тако
መጽሐፍ
ميد
وسي
unga
ktorej
तयाना
nelyo
ସେହ
оруж
пеш
##류
##უხ
##askan
tasdiq
fab
куль
##চিত
ᱢᱟᱨᱟᱝ
francis
datu
rao
sikker
детеи
biani
##이다
##اريع
svil
එය
illetve
##യിൽ
աստվածաշ
vura
##jov
akat
тв
##ତେ
prus
mushindu
##ільки
g25
##rok
##ambila
dika
dann
victor
eeb
##လၼ
mahi
##বিদ
ادارة
ipasi
1962
επα
##asp
##enca
resultat
જોઈ
##थम
##ᱟᱨᱮ
gobierno
##asema
خون
mempunyai
##σαν
##ظفين
toliau
##لیک
##isce
##lex
parl
cay
gull
میان
##დება
##ᱟᱱᱟᱢ
مغ
ibrah
godkend
motema
menet
autres
лу
өир
نارو
##igus
##ahy
ورځې
core
##ရး
##حب
வர
##ρεια
##vaa
כדי
##zana
तयहा
sona
147
##गरस
##ugan
##pensa
##ətin
##adis
lalolagi
ଗର
teat
##ොක
vice
جە
##ziun
##yclop
rasa
содерж
eitt
yuta
преступ
kingi
##သခင
quand
olla
προγραμ
лек
চা
विदश
##خدم
swanetse
tuy
المعني
##ява
образом
โลก
##arto
##ират
меб
proved
##fwaya
##गणना
##orden
kanan
gayod
kust
##etil
रग
intezkedesek
уровне
עד
##নস
wos
ukuc
##đa
δραστηριο
##hes
ute
тот
inyong
setiap
betal
കഴ
##گرت
بالنس
services
implimentazzjoni
##ipay
aspek
каза
hesus
##ireadh
dalis
чак
okreslon
izved
##tavia
លើ
buri
##सित
##æd
foram
yuks
جای
##წყ
##orta
tabatin
foll
##agne
benshi
мя
##etare
country
แน
##etsi
তাৰ
वरत
سين
salita
##ehi
##لاث
##анию
сч
uruk
ᱛᱟᱞ
etait
zaht
характер
##들어
defic
المساعدة
खान
##uil
##wɔwɔ
mozu
dva
секретари
##위해
jeb
ອນ
##angela
##არე
##imir
trgov
##ⴰⵗ
эмне
უფ
##дал
infrastruk
өн
صن
sovelt
##ਦਰ
problemas
хам
nella
គរ
##ahayag
१०
cose
huo
praw
##ևոր
saann
الاعضاء
uppfyl
##erung
##лом
##issance
##ankulunkulu
ومع
hilo
αντισ
##णाम
arvesse
موقع
चाल
pannaka
ទក
mno
##دای
ክፍ
समबनध
zes
##רג
##forordning
trabaho
kish
##ᆨ은
##atna
bestamm
##ville
niile
##ashobora
journal
##otland
aniq
melakukan
លះ
##utang
katap
позвол
nikech
pajj
pep
mux
such
##omob
gusa
##unjuk
ɛbɛ
##hong
##hap
##дег
ging
τρι
ኸኣ
pron
teori
##peci
##વાની
غواړي
abah
permezz
кы
داري
laman
yanga
ⵓⵉⵏ
##ၼမႉ
zvis
kgona
paraan
##otlhe
muth
zou
##uting
yiri
ਬਹਤ
##unang
ekp
fade
niniejs
these
لیک
##ேய
izpoln
##ɓɓe
उदा
##ему
##wg
kirit
ltd
هوا
nyil
nenn
ем
##μβα
ၵၼး
trhu
##ристи
##раш
akwa
##ورم
اونت
пър
ដល
ogu
februar
##ਿਰ
##ibys
απ
##ᱛᱚ
wspoł
##நதது
aplicacao
ples
##መይ
##णयात
आयो
xiy
mec
##сыз
##terne
##tein
jil
hakan
##ᱮᱢ
##antz
ochi
##తర
trung
mokili
سین
ngb
школ
zabezpec
##ريل
##best
वयव
институ
##ayaw
slut
smo
##cept
##िनी
naku
kumpala
زده
##leges
##arm
olevan
individ
rere
##ሰው
слов
กำ
ҳар
yunan
##uec
##anaan
২০১
राह
نوي
##65
##లప
##ககிய
ⵜⵓⵙ
အလ
sht
##chean
استخدام
##yld
apresent
parce
διε
kurang
##edin
dingwaga
proizva
kiris
არის
өсөн
##धारण
հայ
##arap
##vic
реп
ezing
ultim
##vore
چهار
##ishon
##tryk
χρησιμοποι
eze
##posta
##نج
##iranja
stal
##لىرىنى
senesi
##stak
czy
съд
##okka
pemerintah
etti
hanh
##jeti
शकति
##յալ
sof
##akiin
එහ
taħt
1947
hudayyn
ಅದ
grandi
wale
march
eins
ஆனால
##akis
گۆ
##itæ
alu
ໄປ
##assal
estrut
##тү
මට
اوب
kieb
الطرف
volt
madrid
μετ
दिलली
##aton
lemb
##ɩnɩ
##ڭا
##важ
ཆང
##wene
##نسان
megallapit
eph
टा
bakeng
comum
العالمي
##ዕሊ
##ashin
boc
шуда
ስም
podstawie
type
##ıt
каи
##ദയ
जोड
##дық
تز
prep
leag
##ungg
##ستا
##امد
lebyi
##절
tatu
bezala
##ڏھن
տես
##vale
amerikan
toimiv
tahay
eropa
##ankupaq
विशववि
##produc
coma
alkohol
зм
बताउ
##vaj
१८
##늘
ayr
##રાત
identifika
bawk
##magan
མཆག
g4
##otne
kisalu
oseb
##ርእ
##jeta
##ɔla
##տն
dich
pienem
تېرو
##irai
annet
تاسو
бош
znam
сав
added
##лон
বলেন
##ositas
##skem
אז
##reste
##amisel
jong
##дың
##ርቲ
##नाव
għat
##әнең
##igini
emir
##ርከብ
version
unang
##ոց
##ology
લાગ
##ستل
##जञा
ஆக
##اسن
pocas
amar
zvaka
##maya
tsɔ
##uranca
intell
لاب
##राषटर
##માથી
pagtu
لومړی
گژ
ero
bist
област
wykor
اوت
parec
##못
##एर
الاخرى
ᱯᱟᱹᱨᱥᱤ
jedhu
milyon
##قترح
ជន
##नाथ
aihe
##ciau
પહ
##okho
фед
##dad
जानकारी
kontroli
beskr
##erno
kwesiri
لیکن
johannes
##kos
ਸਭ
යො
canh
дин
pool
##சி
##খানে
కు
zos
servicos
vastgesteld
ngum
மூ
គេ
للح
futuro
manipud
gukora
zuela
##ames
ਮਸੀ
##faat
obchod
tosh
##ទល
##icky
##wwan
##انت
charakter
cru
पि
##owa
البي
##овић
##ദദ
##কৰ
##כים
1953
##نوات
kovetkezo
ubang
##anju
koik
υπηρεσι
##лиин
lefatshe
berorda
vzor
##hets
##ებულ
سعودي
अश
niveau
pequ
##ебез
vuravura
христи
ڬا
##যত
ⵓⴰ
reglamentas
##સત
##যাৰ
याचया
эх
##ดน
##ibre
##قاف
bedoelde
परया
preoc
##گەر
##қан
##istencia
그러나
skutec
##biamo
poroc
##ows
##חר
##амон
मरो
direct
মীওই
تاريخ
##फर
قابل
འཁར
гран
progres
##ері
iestades
зү
##zeni
##రయు
राजनीतिक
мав
ишен
waxaan
турган
sasaw
terb
##lech
1968
bomb
##ၶင
##ይን
##umana
नइ
##ukolan
proses
##esaka
##ရတ
##xx
##ⴰⵍⵏ
kule
##ندر
marit
पश
##දද
naha
দিন
##øb
voc
kɛse
pj
termasuk
babu
여호와
1948
جيڪي
##وء
##nag
decision
vietnam
okum
##ະນ
eszk
མཐའ
##خته
աշխ
sement
##لاپ
tuc
##되어
לנו
spi
իսկ
vab
торм
atum
##ayar
neih
ਕਝ
##etho
शिकषा
struc
adz
##imentu
##orszag
##කට
##ወሰ
నను
alba
mumwe
اڳ
kulong
maaaring
سبا
##าศ
##ᅳ리
पथवी
kontakt
##ikit
хүмүүс
conven
##하면
gostər
foforo
##kning
допом
sign
vap
ɣef
دیا
ավել
##dag
##ધા
##иях
##मब
away
gibi
##강
nemot
كادا
soh
##onden
prok
rabbi
قي
bou
##gos
ומ
##βι
##करता
ပြည
तपाई
ukuth
misi
isto
##のてす
##ረዳ
##opol
##quia
kapac
ŋac
kɛl
अपनी
ဘရားသခင
##ոտ
ازاد
بدل
कत
##μενης
बठ
held
lead
1966
fead
تنها
##μβριου
##isye
tour
tsarki
ujesu
همین
tae
##ball
економ
plant
મદ
olul
##okui
##ەنی
##util
ubuzima
1939
हिसा
##ວກ
विशवास
##لاری
হাযব
unay
kompr
mio
##heb
##شف
munene
##rega
own
الاطفال
amon
makim
अपना
##વો
##егор
ftehim
philip
##സത
##ⵉⴱ
##اسا
##izera
##kk
enor
##기때문
۱۵
bedrij
fare
yika
خۆ
##کے
ସେମାନେ
##する
1949
zvinhu
ან
unionens
بز
tulaga
##صب
hwenu
ziz
##unin
конференции
будут
religion
۲۰۰
நா
runga
mediter
moy
ကောင
##ظاه
ချက
zasad
यहो
trak
aʻoa
##ماية
ਵਾ
gini
##iril
majlis
proizvod
##udar
manga
yehow
izmanto
##имер
mitɔn
##ವರು
##その
##ули
اخی
ដេច
teata
αντα
অসিদা
##ளி
جرم
##იდან
##ubwo
लया
mulai
##aysay
ישוע
##mək
gazdasagi
مني
тап
banka
dont
metode
འབང
##دور
mitt
federal
הז
##yʊ
doi
applik
##ிடட
tratt
ಯಹೂೕವನ
मग
##jonijiet
rialachan
kiko
##کیل
ᱟᱥ
सङखया
परदर
претседател
yosh
xix
ڏين
vom
##ⵔⵓ
toka
##ہر
##blo
خدمت
eve
think
tatau
##stvi
##isik
conver
உத
прост
xil
##ithia
##يار
الاحت
impa
1964
##ାୟ
##embros
হো
wic
الاتحاد
ծառ
osszhang
feso
সকলো
আহ
ihr
uklju
cchiu
##obat
irl
سيا
mewn
##ելի
##টার
အာ
##ገኙ
इतिहास
##gio
##alaman
##ellige
##aramid
вол
##richt
дигар
kindlaks
##rada
العالمية
តែ
##ambar
dys
manj
الاه
facto
##udha
##يرن
نامه
এটা
aizs
fie
##nye
بیان
ամեն
gak
##δου
##jent
##abel
lk
եղ
buloba
ds
zvikuru
cielom
lukim
ministar
બહ
##opfu
##iskai
във
දෙන
poka
सारव
##egy
casti
амь
##ⴰⵔⴰⵜ
##98
##لاع
муз
মানষ
##مب
##abile
##ايب
##ань
جدول
##ዴት
يات
##vene
बग
ipas
हात
##arama
##tahu
کړل
laakiin
ولسي
##cow
##금
##မန
yahay
বিশব
##ضمن
barra
وارد
اسرايی
1944
##という
امد
luɔ
자
##ทธ
##zim
##ishda
anvendes
জী
##нев
vyo
pusat
पास
##wany
kaf
खोज
သး
medlemsstaterne
다
paro
baj
għajnuna
##თა
##ljanja
وڌ
gdy
##سې
الموس
##yki
tuu
##program
##onyo
##xit
##kep
tanan
schval
leʻi
commission
bait
امي
##wani
bong
nia
monet
kej
زه
##чил
непр
шест
також
thon
европа
μο
##غام
comuna
undan
##τια
dato
राषटरिय
ملاتړ
##со
##jno
##окот
laki
##했
##பபடி
međutim
##lings
##eris
مكتب
##sun
##νια
ант
turu
##ির
dni
##леи
##etto
чын
##onka
budaya
რომელი
дэл
##ereye
aju
moli
##eliu
nota
ନର
ಅವನ
башк
لج
bendrijos
##اليف
ਮਾ
lidstaat
لومړي
##گي
метавон
biba
##тың
##ույն
##ливо
##fana
سکتے
wska
ከአ
##asoani
##เพ
тра
исполн
unsay
respon
calo
lod
##ameni
ځل
حالة
adə
##istica
হা
##ehu
vij
##หรบ
nakap
##성서
nshita
رکھ
##დი
eer
gero
პირ
##あった
##พระองค
zug
གགས
##sai
##ывает
কিয
##ግለ
ድሕሪ
fesoasoani
dande
lepingu
ኢትዮጵያ
##غى
##어떻게
යා
poziadav
##abab
aant
##سوول
سای
kupu
##ɔɔlɩ
ແນວ
##ланд
1969
finland
pł
house
##uvent
πλαισιο
wee
##ពោះ
##imer
qara
sendiri
##icne
##ينية
sche
##फा
chine
##amvu
неб
टरम
##hluk
kɔrɔ
ဆက
کریں
##ается
##alim
##enis
κεφαλα
industria
мам
බො
##ంచన
biss
##شة
alta
##ⵉⵣ
##engele
icun
##гэр
salit
##ⵉⵙⵜ
consum
кет
##θα
poł
tanacsi
edellyt
##akeun
δημοσι
পে
##akana
##фиц
بازی
##ۈم
aussi
भमिका
menschen
##fuma
ڤڠ
بىز
makita
کويی
##faq
##rave
##ிஸ
##ಾಣ
yvy
млад
cał
xay
fou
##ينو
oport
இருநத
##əcək
кроме
بناء
المالية
##امبر
##טר
dijo
##본
autonom
##аша
huu
nera
जनगणना
མཁན
##मस
##նդ
izo
brug
العامل
##vanhu
##ارير
ramba
##δρο
##jarjestel
xem
გვ
کډوال
##ছি
مدد
doonaa
##נג
atbilsti
##ിരികക
##inko
olaraq
izb
nuair
uke
##եպ
настоящ
##কাশ
mwi
belə
mikanda
##κρα
udara
melalui
##iochtai
gior
канд
##meid
حدود
تاریخینده
##হৰ
##vec
##ترین
korral
##خاذ
##بور
ਦੀਆ
##otos
lawa
nimetatud
تقري
pind
lief
hwn
naba
##εργασ
περιλαμβαν
##ску
##יהם
στοιχειο
ruta
nghe
څرګ
##ivanja
सरकारल
چاود
один
access
muslim
##모든
##wig
##zul
wsz
vaik
အတက
ikunu
tehnic
دفت
1956
##टिक
isht
фа
behov
হেন
زيادة
##ၢတႈ
putin
partn
ᱨᱟᱡᱽ
street
anan
##vanti
کہا
кап
vyuz
الدا
lisusu
tf
негов
البلد
asj
tanang
fif
##3588
##igur
keessaa
##ghi
##वड
mahs
##heids
black
inyo
fə
ବେ
الحكومية
##kuu
##ону
##iteter
##inia
seoses
##ness
##ertu
بريد
##jais
nadom
көз
یوان
##كتور
##okk
नागर
##రప
##38
##ituz
dese
##றை
ښځو
dush
##ინი
##ᆨ한
##бия
mort
seguranca
jave
##oresha
группа
young
##ረብ
##onych
نسبت
શર
nuost
##ছত
ante
tui
##ዚያ
baino
ከተማ
kiebhi
ott
##инации
##cat
##eringen
вза
ᱰᱤ
##рт
muj
##prof
titi
##agba
predpis
maya
ശര
##uvin
bizony
##رز
between
##စစ
##اهد
##မျ
mayele
chuym
utl
##עים
##riften
##ives
##onyeza
##दाय
توص
مسا
##ಸು
intens
جيڪو
##yem
##ীং
qabel
ميت
##ებოდა
पछ
japon
მხ
##pieczen
##জিক
സന
##طيني
yavuze
informaciju
##ପତ
##inii
འདག
##ukod
বিষযে
##yɛɛ
www
kilomet
##ټې
uld
zvak
κοσ
##alaan
##veck
puo
wed
##zij
##enera
invol
иәһү
နည
karhi
mmene
zdruz
कारयकरम
परतिशत
кии
##ለሁ
self
ජවත
शास
##قرار
##izira
##ekes
##еннои
##urile
uzn
germ
##ilde
klasi
lpp
##ongol
verti
matte
angu
kidi
##ອບ
##ⵍⴰⵢ
ሳይ
деиствии
chimene
##ାରା
##রেন
jug
ikaw
زد
قىلغان
##уни
jie
operator
##wood
##ског
apl
qiym
гаисә
पहच
##innan
mablag
життя
iph
##sey
powi
тус
आद
insh
##ۈنكى
જી
##egs
##iyor
##umbe
##ழி
pakati
niining
prije
لمن
##yarin
##сте
σημειο
##ربي
своеи
##hab
smernice
##ⵓⴾ
olib
কোনো
ရက
katere
##անգ
imbere
##etien
πληροφοριες
##jaban
februari
direitos
andro
##णारया
डी
zeme
ภา
font
##ሥት
වට
##քի
##레
##ekpe
управления
ᱴᱷᱟ
##ኛው
επιπε
##isema
##ହର
thro
##සය
socied
chize
##なる
##voja
дур
##քում
##itasi
estudi
medlemsstater
некотор
մեծ
гот
##קו
##akore
politique
##اڻ
##ovis
подход
eura
##alenge
helt
ngwe
product
zlasti
vertin
##ريت
monna
##ضاء
agt
##ზრ
partir
vach
cinnosti
##idin
obsz
изг
plaats
##ops
##ගන
##plika
midd
##etten
##yru
kaayo
osszhangban
##iez
इसरा
ekki
bepal
bade
opred
##րիստ
حمل
nombre
##സസ
offic
since
izao
nden
##ekli
##विषय
remi
##ruz
зада
vakav
karai
ureueng
##무엇
จำ
##ilom
##ednict
ndax
مسوول
##lijk
##θμισ
kaytet
##الیت
જણાવ
الموا
निमति
##ದನು
ترا
هزار
##ገለ
##amuna
##бу
ᱜᱟᱱ
##ঙগে
##фта
##כה
betrag
ሲሆን
godina
##लड
##ជន
##iriye
परसिदध
gaminto
وظ
खला
##رفة
हिससा
yimɓe
उदाहर
##emd
шта
##isil
قدر
մենք
ᱜᱤᱫ
innych
##ليے
daz
mhe
##ာန
изј
ملګرو
##radh
##anije
повыш
##tuu
##남
##ekele
ديسمبر
prir
медиц
##ᱜᱮ
fundo
##ичив
దశ
##ulti
##lərin
πι
ark
لەسەر
##যক
##ാധ
likvid
bersama
##anej
##नट
##igira
ходе
giu
republika
##ிருநது
ƙar
##ተን
मनतरालय
hingga
әм
##giu
varje
##akuuta
معد
##engero
##band
olond
##lase
##ээн
भइल
wʋsg
hazır
nola
##ностью
jonka
##asanna
egyutt
ھەڵ
zainteres
##தான
ukuk
aca
##zvo
pochod
ngwenyi
##సం
उनका
kraft
մեկ
##ახურ
kuita
##פה
kopi
hic
чов
##əh
vog
sprawoz
आख
hia
vina
குறி
##iky
tey
opg
##aghan
boo
विजञान
##usto
1954
market
##सथित
##ተው
shekara
##ibazo
##akanaka
azɔ
للس
##ርካ
galima
##せん
miedzy
##ረጃ
hae
ruo
##impin
##اته
kozott
zul
اصل
##aliza
##사용
preto
бик
##achta
##ទៅ
##მო
اكبر
##ariu
opfyl
tikang
പറഞഞ
##irako
دانش
അവൻ
tychto
ηταν
تنت
former
υποψη
hatosag
##onthe
zisk
усто
ngayon
##owana
garuu
##elit
##idik
##ність
mfunu
##ခြား
सिर
##ᱚᱛᱚ
##ەش
olon
##bilta
##orera
##opia
##اسیندا
ozn
kamo
mtu
таш
wisa
กว
tovabbi
##ብሔ
##люд
пен
krimin
բան
##erja
категор
вој
awtorita
રાખ
##inaj
ماي
undersøg
##хан
tion
አድር
##igba
fora
##biz
opoz
nɔvi
gco
##ophi
lih
maopay
vaxt
##იკ
##ulig
माम
##표
##बाद
hara
যাম
کرتا
##เอ
seine
##កនង
narod
juo
szervez
sce
dər
پھر
##شرف
uhenduse
##ததிய
болуп
بولسا
lokacin
քրիստ
##czas
##enej
##imui
navn
clenske
##หลาย
خٲ
wac
нич
##pada
brando
समत
aliy
##oiy
##okon
ние
ہوں
##ħed
##ገብ
ibrahim
ᱜᱚᱴᱟᱝ
soviet
пис
##chtig
##dit
۱۰
իմ
ഇത
quali
તમના
duine
ವಯ
വര
paragu
pihak
iekla
##mt
##यः
transpar
##urr
raaw
jack
راو
خال
pocet
##ић
samen
nɔɔ
brez
snieg
एकरा
##ውሎስ
##iram
সৈ
##lare
निरदश
##unku
##ందుకు
درباره
بحث
##ereke
##ивал
ryb
##ordin
foren
##شید
президент
고
truong
بيد
stadi
##qond
##टि
abuo
माधय
##라는
представлен
##ging
##lanadi
घोषणा
geogra
##beh
espa
goda
خۆی
οποιες
##બર
lait
traba
##ບບ
##ukur
boʻlgan
sər
hacer
##μον
##enger
klin
117
##ودة
##ҙа
personer
ᱵᱤᱨ
ዓመታት
##κατα
##noo
vare
ਜੀ
##கொ
##icin
ᱚᱱ
သနည
સધી
kristne
juz
zake
phat
voldo
europees
##unto
##impi
tshidi
##akuy
##વન
##tavad
tarkoit
sinabi
ресурсов
##оо
##وية
##ᱩᱴ
sri
свід
કરવામા
##inet
transfer
સામ
##okwadi
gesch
##onstr
konsol
duomen
እንዴት
##የት
##opolo
##ေႇ
көрсөт
dyrektywy
સમય
þar
101
eest
recht
perusteella
غوښتنه
##ycznych
##ეტ
बाह
gbɔgbɔ
kuid
environ
བཏང
баига
felhaszn
diger
##ambili
##লাই
الخط
habit
hasta
ياب
szukseges
##ħtieg
gjate
mii
##وتو
##jje
##ују
laikim
bunun
دین
διαρ
oznam
##편
haci
##орист
##jut
lingu
ied
histori
yingo
1957
##amien
ใด
link
ngakhale
паул
kopien
##edan
##siyalar
परिवर
diversi
##арга
العم
پولیسو
##antam
прир
سوم
##ଣଡ
leurs
##inao
උප
##cut
##fug
לו
นำ
##ዘይ
akanga
servizzi
##ഷയ
jf
konus
wakwe
##වාද
uru
юн
##izvo
##fea
##agbe
##সম
##hasil
माल
дода
##ŋŋ
##vaid
##юз
jing
myndigheder
##لمه
##үнүн
ਤਰਹਾ
مشکل
runakun
##तमा
##овар
паз
##hind
##សម
##niho
##നിനന
בר
##ৱে
подп
zort
tahu
તન
akkas
konstat
karakter
meddel
telef
زمانی
ossze
##vio
##ᱟᱨᱟ
अधयकष
आपण
సవ
director
کین
allahın
chiqarish
pim
##inny
विद
nemzeti
##cke
##atit
avt
তেওলোকৰ
гал
خەل
सकल
##sas
naft
विमान
vsetky
##ysteem
##bank
##даа
##ിനെ
konform
okrem
ᱠᱚᱣᱟ
ਜਦ
##ышы
bov
ασφαλε
disebut
##δων
##ශය
ਤਸੀ
οργανισ
##anding
कवल
##oya
mita
hmanga
varten
##apon
उपलबध
nowa
برابر
egesz
യി
mbandu
mone
##asing
maging
popo
##արկ
pp
##ಬೕಕು
حکم
amp
परसकार
متن
##ilda
себе
##سال
सश
bansa
##ሃል
##ongisa
qulqul
پڑ
zariad
##ଦେ
kuchita
##बीसी
δει
izmaks
##ንቀ
##ابط
##घा
kurie
څوک
##ວດ
สก
nky
మనం
uod
ناڠ
সাথে
##ziv
##ችል
##ⵔⵜ
kapab
##ikasi
##udya
##weyo
antar
међ
خانه
دڤ
معم
##koz
пс
النظر
عبدالله
پاڻ
ŋutɔ
nustatyta
ನಮಗ
हवा
hrilh
دارند
अवसथित
կամ
ନେ
##дәм
পি
##jjan
همان
##డన
##ⴳⴳⵯⴰⵙ
##ноі
##astr
##emel
ठो
##ၵျ
sehingga
hini
ян
##बो
kanada
##ايدۇ
وڃي
patik
encyclop
##ክብ
##اهم
complet
کچھ
##vag
འཐབ
##елгән
kalp
##mai
سط
komanso
##ᆯ로
##yrus
nast
আমার
##وير
edil
bheil
##ۈل
detal
mitte
angel
administrativ
عندي
кож
##ୀର
mbiv
छोट
aty
nastepu
informacji
babe
##सता
rendszer
liz
##ybiu
baglı
سیاسي
yehowanyn
niguo
март
##ᱟᱹᱛ
pouzit
##fornia
zmen
##achadh
##ਬਰ
maber
پېښې
##moqda
འཆ
hou
##atiamela
ልጆ
ዝሓ
ayuu
##ebwa
poolt
ମହ
##midd
##owing
regier
auala
##lee
##тыр
##যায
καλυ
kent
##ોન
konkre
##தம
##عزيز
##മപ
##ekel
внимание
uyesu
##ენი
ተጠ
đao
##වලට
বযা
соглаш
ɣeyi
egys
kerana
وفقا
galile
emaw
പറയ
##jmu
##asini
دەست
##ikuti
##দৰ
##rauk
##عتبر
attiecas
##حات
possibil
metal
njegov
progress
##ләрен
الوطني
geri
##حا
ⵡⴰ
##ဆောင
toga
##ょう
egyeb
nale
##pass
ithe
##oyin
##ask
alli
markan
သလ
##τηρη
##45
الاعمال
imib
pfum
##하느
stats
##রণ
##adian
ಅವನು
##ባኤ
##уман
قې
стороны
##gol
##повід
##ipat
filem
nida
qam
##ንያ
##ၶမး
څېړ
штат
##ced
زمو
đung
θεω
##نتين
اسے
ᱱᱟᱜ
usl
പോ
##hwɛ
##ɣen
pash
rile
ವರ
tegish
विरो
sungula
sui
##اسان
##ernes
##غة
##kanı
coronavirus
##θρω
##খিব
እንዲሁ
##vats
##ζονται
##វត
གསང
##stalla
پام
ออก
##96
##েনে
سلام
lucht
##रास
##मल
tukuy
ਕਿਉ
##kontr
##დნენ
kibi
320
bhana
##چىلى
berish
wakh
##yyət
##poro
يعي
اونلار
остан
menteri
degli
прес
tuh
##isit
ελα
leader
malee
жас
ivakara
եհովայի
##miot
banna
број
##cian
##ansu
եւ
oga
nipaakar
mbimbiliya
auto
##ාජ
гэта
అద
byd
##ಪಪ
କରାଯ
##مييز
කරමට
##χρε
yiye
پنھن
##રન
bhaile
പി
##зор
##ियल
cem
kate
ngel
ཚག
##ವೕ
dogan
dalej
අවස
##øj
##ⵓⵔⵜ
මම
##яване
kelen
unna
ໃຊ
look
odgovor
زموږ
##ۈز
vratane
хак
##חה
##werking
शक
##γης
algen
##enai
vykon
##नदर
przeka
насил
یمن
##yfika
##ീയ
##जप
تمہ
tanacs
insait
партнер
ويت
##เบล
မဟတ
##ែន
four
##fora
##heto
##כן
##하고있
##ovany
gede
pama
engtin
jakarta
##තාව
mej
##ovanych
##ريس
##തതില
##asang
crisis
##adus
yani
atlan
forfar
зөв
##ethe
##раи
genyen
partikol
##ινων
shim
काठ
dugu
ᱥᱟᱢ
##fiku
atsizvelgi
##adka
அர
##omia
elimo
dup
##izibwa
تړاو
පහ
##200
osn
exerc
segun
##ɛli
nthi
##рал
ଅଧ
መዝ
ຕວ
##arji
##konc
පට
essen
dihl
turp
##ხოვრ
αερο
##veru
законодатель
fue
##बीच
##ukisa
ⵡⴰⵏ
ago
##ардам
তোমাৰ
тарт
تیم
કમ
##حل
വെ
##वक
ڪيي
nasional
phuth
##ികൾ
quello
cym
पतरिका
চি
##adat
educa
vkljucno
alat
engl
##ᱟᱨᱤ
ಯೕ
ມາ
turan
##हान
##නද
##entacao
##embi
geu
audi
zena
аль
маг
gek
##yev
##kunata
deng
menyeb
گوید
##মেনট
##ulup
##សរ
teises
brand
cd
इसत
mutima
срещ
παρουσα
##رون
##tica
taf
h30
##ɛnɩ
##есь
nenten
مطال
##ကက
nezv
thong
adan
ରହ
##alih
##லக
പരി
once
kats
некол
requ
play
##ɛw
##자기
distribu
veren
էլ
dona
##스ᄅ
##opha
isig
##ач
##ઓન
noj
przyw
επο
toʻgʻ
отмеч
##аду
පැවස
##గల
kasano
##ские
##asaan
##anska
всички
##иру
##כם
leer
ਕਿਸ
##onk
النظام
خارج
fej
##ಸಲ
ተስፋ
##stw
због
මෙම
βασει
kanjani
баидаг
کرنا
начин
dieser
تهران
исо
mindre
##죠
##ъз
tozali
رنگ
estar
правил
చూ
ተገ
milan
бога
पौ
يك
hebre
yox
باور
tuotte
##वारी
miri
جوا
##otok
##արհ
amam
##jian
සැ
##енин
แท
##իվ
neur
informacje
ⵉⵜⵜⵓⵙ
##માન
mfe
shani
##ສດ
##entie
kumanya
chel
##اوا
declara
##futa
##фа
##hak
dike
fællesskab
kʊ
ເຖ
##yksen
yng
бә
108
मनदिर
##ვილ
umutima
##ோடு
##κεκρι
alternativ
нови
##ാഹ
##하지않
regime
##חים
महारा
արդ
##నను
##بن
زندان
sydd
##үш
baleta
مشار
نظری
fogl
##তব
χορη
yaba
གནང
یتھ
ᱥᱚᱨ
alioze
niki
ከእ
##щиеся
financiele
шы
##esie
##tures
bran
nustatyti
iskait
suppl
ngisho
##ारो
வேணடும
kith
1963
kopienas
जकरा
atz
##asiya
##습니까
zus
##گای
वश
##omenu
rito
##වට
##ٽر
##otni
direktor
objav
يەنى
ⵜⵡ
##forme
ingong
##qana
زیادہ
##adila
awtoritajiet
##ιστα
زره
لەو
xalqaro
преми
tutto
east
мора
##ograph
ні
##tionen
muass
している
##شاھ
සඳහන
##போது
કરતા
اوا
##λον
परदान
heorpa
μονο
حمله
##neadh
##فاء
mine
bots
##ပၢး
우리는
walla
eszkoz
पट
##иро
seria
gente
అను
jimb
##unyi
kooskol
##agem
##tima
akal
bangsa
iestade
premier
##련
υποχρε
ཁམ
##قراط
vakale
امام
ⵉⴱ
korint
livell
deklara
##ရပ
##ልን
##fundi
gord
tizim
سرت
podatkov
esemp
##tub
##uhla
kumona
kelompok
dago
duc
##hanna
##설
##ყოფ
ks
ubo
kader
##zie
##ማት
##nike
##fina
wanga
jechuun
##აქ
внут
##ञज
పరజ
ڤي
##erar
##adze
##कषित
البشر
##ວນ
kennis
faale
хоҳ
ді
ኣን
ไบ
##λεκ
сок
##umm
մեջ
##ivua
##imali
सथिति
lhe
wont
##ىدى
wende
ክርስቲ
यरोप
uplatn
citt
sporazuma
##يلة
##ughi
rawng
xod
##왕
قاي
nouv
umun
manchester
##nge
которая
etmək
ljudi
ዓይነት
##ukseen
ivinda
لور
##شنبه
nacr
gwo
##dep
##সা
##addes
##ирани
##ません
##ಡಯ
##ovwira
attr
మర
digital
конфлик
##ҙәр
1952
israa
ichaqa
rann
cao
στους
شاو
##ারের
يۇنى
බැ
##иды
ཅང
geral
༡༩
kjo
yiic
##পী
ordu
кандид
##inatu
##تىپ
ishtirok
unit
ਮਰ
##روت
ګوند
sprz
حتی
##යෙක
##وسی
phi
##fang
nara
ځینې
ገሊ
##antin
rekwiz
yardım
tand
##wanya
podnik
જવા
##bea
##ێکە
hinkwa
##igin
miingon
asjako
##ทย
##ூட
##arp
edib
fels
þe
பா
##قاد
བསལ
luzingu
##yte
##ందన
जिलला
สน
tʊ
કામ
simba
##uhle
hers
લા
အပ
ویاند
рекомендации
پکې
##usaga
साहितय
##qank
འགལ
bern
##ipan
bull
booda
منظمة
कदर
investe
bind
##iep
පෙන
वरतमान
dominio
##لاحظ
eil
манд
जारी
joiden
oju
kristot
##ၶဝႈ
صاحب
njen
jacob
##شنبې
फिलम
պետք
##ەڕ
परन
kwali
##현
भनद
nazzjonali
##ⵓⵏⵜ
##igheten
##اعة
##ikita
olema
borwa
चितर
##62
වණා
414
##აწ
##amiseen
ðo
பைப
سد
الحد
sentido
##னப
##alom
endast
great
binh
niniejszego
##yano
##पनन
##있다
nosacij
الصلة
##ithiwa
##ৱা
บาง
دفتر
uto
ext
najma
распростран
##ськ
muhammad
##gari
يوغ
འདས
tayon
υπαρ
uud
##antwana
түш
##ᆯ라
##بين
maior
калі
wyt
##тары
assim
##ঞজ
разб
nyate
##واج
kapcsolatos
dejavnosti
பைபிள
হচছে
eivat
##ركز
hieu
##inrin
##үүгө
##enj
خٲطر
demp
устоичив
kenku
rabb
ɛwɔ
overeenkomst
##ottes
altri
##eseen
መካ
ecc
##adc
kyau
godimo
하지만
phil
##อม
##عى
pagd
##uze
##ⵉⵛ
##ituwa
indir
เต
##なった
چۈنكى
family
##ையை
##iyati
sunga
ብኸ
terjadi
qol
جمهورية
extrem
meth
nodig
tuman
piln
јав
அது
##igna
##nikow
##รณ
##joj
oth
ceny
##לות
namp
warga
реч
ဟာ
##ята
##තන
መገ
##lho
povol
hah
ngopfu
طریق
##μια
ⴰⴾ
sampun
##ancis
રહયા
teknik
##orac
ཞབ
##lec
emhlabeni
##uther
зор
меро
republic
ಸು
იქ
labi
fase
жел
מב
beibel
bunga
รา
donald
wenten
αναπ
yaly
##buje
##ekisa
esika
المط
damba
tanggal
itsh
रपम
गति
##atanga
ਤਹਾ
##itangi
azok
posta
action
##eachta
vajad
verden
bland
esas
арт
kenkuana
həm
yankaka
jeden
linn
teav
punkti
##ilise
raica
plast
##асын
કટ
ingi
инф
sisal
##wul
##arani
യേശ
בת
zot
##ðir
hela
mellom
##aller
##usele
##ells
இயேசு
##zeka
arið
прогр
แส
##qondo
тя
لش
##ayt
##이렇게
වස
##vati
##ныя
dets
සෙව
karya
tulem
ним
असप
adv
kalimantan
mamlakat
##ҙе
kaku
др
расшир
ਸਬ
enw
আমরা
##ʻoga
##하였습니다
premij
जवन
परकरिया
##ovana
grupp
ⴰⵡ
##ukom
alles
##ಬಲ
kwik
մեզ
##ottu
grundlag
xor
kwake
ministro
change
mamb
aver
planet
vakay
consegu
ға
१९९
elettr
##47
случ
gig
گرو
##еде
الوارد
கே
བལ
besta
ontvang
prox
אבל
يەھ
##igugma
tait
##ાજ
میش
##agalo
gyn
جانب
vanda
##ነን
##үк
##어떤
leny
##ᱪᱷ
##vere
arist
##ително
rund
иөр
##udell
##сәт
عقد
poziom
کورونا
laikotarpi
حساب
##yari
##ାଧ
##heds
##φυ
##ေႃႇ
rhai
##yashi
ਸਿਖ
bhith
ไบเบล
གཞང
##पय
##aruri
##seende
jalq
##دۇر
konformita
atveju
икән
واد
សរ
##isee
เหต
standart
groz
اصلاح
eliz
вър
##희
##usse
nurodyta
##ᅣᆼ
rizika
လင
procedur
keluarga
මා
##ਸਲ
بموجب
##stad
karon
резул
seal
darfor
hakk
##يره
##திர
deus
rs
##akang
був
##ණෙ
##ibalo
##estra
woo
magan
тог
ጳውሎስ
##ikhulu
##jaa
приб
direktiva
paonan
reac
தன
municipal
##aler
کمې
##ጣም
kumenya
conser
##ାଲ
foresk
unions
##ിരികകനന
իրենց
आता
##ric
ներ
bring
##chang
##eliti
prome
ilo
алган
##dem
заед
түүн
##itain
सकता
##ᅩᆨ
vaq
وحد
voorwa
##semmija
##wun
##андар
مند
##ことか
eca
ಕಾರ
əl
λαμβαν
senor
##শন
विशवविदयालय
##lere
##tap
##ληρω
уровня
##woe
هغە
##ɛi
none
##idhm
ចពោះ
हद
nukle
##xana
##ıst
pitit
##vod
molto
nade
piemero
##ۋەت
محدود
சம
ከፍ
مالی
magħ
vuoksi
raitim
poslov
hj
nagl
##osas
##estion
benar
hatal
##عوب
220
##जनिक
बीबीसी
##ansin
##লিবা
izd
##ግዚአ
##وقع
һәр
##ቸዋል
haren
spør
ምኽ
sult
marang
keke
١٨
##ାଉ
##itek
сим
tanzania
##үнө
##edonia
afgørelse
##өх
##arju
могу
##inyo
##anair
tilb
malembe
bepaalde
млн
veiklos
##shem
##ङक
##iac
klase
misava
hoog
sejak
vyd
الجنس
primeru
##ецца
инвести
certa
##andika
federa
fiafia
##ታቸው
disp
мероприят
fest
গী
ጽሑ
##alil
ᱟᱡᱟᱜ
##िली
toimivalta
termekek
##ева
##sao
##образ
държав
##aları
ليش
restruktur
დიდ
չէ
1959
soran
##부터
salomo
oldugu
ге
propinsi
بلو
astronom
##nacz
##ipu
##ardan
##orra
##ⵂⴰⵏ
peremp
परशन
διαχει
##enan
##מצ
##ግዚአብሔ
condicoes
hka
xwede
якщо
fogu
මත
ເວ
זו
tert
molt
diam
peyi
दवा
##పయ
nirqa
ولسوال
##alua
##amagitan
तथ
##tiya
##اقة
loikes
deri
نوی
##zod
##शास
##چا
##sted
сох
язмалар
##etah
maarit
poja
##өг
ਲਕ
##еки
##nyje
trata
حرف
##سند
iskaitant
beidh
wawo
projektu
आदि
клас
ਆਪਣੀ
څلور
uden
##лыҡ
منه
muqədd
tegishli
نتی
помощь
lær
الاور
esku
acum
daan
деи
pozyc
##ینګ
үш
жиз
women
##ચાર
diko
##ାକ
##لىكى
zoz
anm
##reh
दौर
শান
##ምሮ
څار
##usoro
כך
guvern
##hatha
trh
зь
वाली
##usion
henblik
##ρονται
##зь
gabe
##ры
1943
##vende
واع
راس
##raves
მისი
однако
मास
##ژه
また
##ើត
##lerine
consequ
##שת
##akiwa
wasi
សា
laborator
##נס
гад
##рез
hasil
یع
ውን
club
##σταση
##uet
##alja
issk
والے
இது
ᱮᱛ
بالنسبة
сана
ایا
ве
##ورخ
clanica
uyg
##lertid
scotland
पिता
amad
ဢၼမး
바
uitge
पहिलो
##သၢ
efeso
##ધાન
εφαρμογη
##غۇچى
potencial
कठ
##vangin
ادم
duw
اروپا
tort
##ишт
ինչպ
##ilung
सरकारी
##vens
muqəddəs
##ɔp
##nuje
predmet
fastsat
հաս
##etos
maur
баина
##onana
##يى
##ښه
maʼ
ndik
دوران
green
уст
death
прв
##integ
حضور
লা
##િગ
निष
سوال
##уса
##ⴰⵔⴰ
##əsində
برنامه
srodki
କଲେ
##rum
##ڬاي
##விட
ogg
ຫຍງ
##imbawa
##ርድ
naiz
etmek
الحق
წინ
##දෙ
##okuwa
##erika
##unkwe
##elov
sold
majandus
##unti
pasukan
ndai
ⵜⵏ
elfog
##еро
##σουν
##areig
##aghi
##anzi
##परति
культур
against
fuqarol
besk
ಹಚಚ
तयसको
kash
##നധ
odst
##ጥር
сэт
spirit
توغ
bago
консуль
чест
ထက
المشار
##ута
informacij
ཚང
그리고
۱۸
##usas
mutum
zamest
##кта
##いて
suo
декаб
##inkan
handi
##obozi
белг
جګړې
सिन
sioni
##عدام
тир
ብቻ
boamma
osnov
##ობას
##issen
ڤر
factor
nhl
##igheden
##енд
##lən
##لق
##ungul
##ياجات
nase
zego
izstr
##vind
##سون
##sav
rapid
chinji
##ᱨᱚ
якии
##μους
##ومة
##phezu
تعد
ایالت
irin
cii
ouch
chake
primeiro
##에대해
devam
hle
##вод
maraming
الاقتصادية
dong
۱۱
pard
angga
##نتي
վրա
##လငး
sistemi
مارس
samma
babaye
٢٠١
##ᅳᆨ
##kai
δοκι
buah
дискрим
##ែរ
##ریان
mahimo
umwuka
muthu
##apai
aʻu
болот
ክርስት
реж
মাজ
kwalunkwe
mist
موت
##ଥବା
##واب
##ᱡᱟ
akɔ
ireland
biasa
नगरपालिका
ассамбле
इसतमाल
nyui
विर
academ
населения
འབར
##umedi
مسیح
volta
утверж
rhand
vok
##ەد
##նչ
llam
fix
شدند
##imais
اسلامی
##mynd
فعالیت
trebuie
pwo
##اتها
хур
мегу
কল
##igar
белград
##adura
យេស
paku
##လမ
##ᅥ한
##inz
omuntu
मना
during
rendelkezes
##เข
##ээд
amerik
druh
oportun
##menyek
##ɔɔk
dove
wane
yia
دانی
toege
##lashtirish
##itani
ਮਿਲ
##اتن
##ziu
pamamagitan
सभा
фак
##unji
thlara
nagara
##fico
##この
##itau
sibe
ತಳ
##생각
يۇلارنىڭ
##elserne
بنسټ
तिनीहरल
##дон
##иха
مجموعة
##ezett
aband
مليون
dalibvalstis
pene
##فير
полу
kuko
الال
##قاط
тала
இருககிற
বছর
verstr
##vandaka
mahsulot
##entuk
berlin
avuga
##urus
##လေး
##irir
##реш
nupay
epa
सफल
##laus
situation
nɖɩ
мекунад
komunika
غرب
##နမာ
huong
dometɔ
##କଟ
darba
##عر
##പപെട
meni
biag
wyr
перев
##91
##nict
##டை
alf
apenas
tredjel
सदर
##jenje
যিহোৱাৰ
continua
постоян
##უს
##ъп
nkur
sabuah
تازه
تۇ
اوسه
##حو
بێ
ⵉⵋⵋ
beny
##ፊት
вакыт
##सो
##ಾಗದದ
አካ
kanssa
##예수
confi
emit
bundan
quant
vende
onların
փո
اقد
##ують
කයලා
##କାଶ
жур
##anang
##алан
tarjo
frag
##سمية
comercial
##iya
оно
##ᱮᱭᱟ
proda
tuf
jedna
правам
##ਿਆਰ
kunyange
##алд
mukaddes
kompleks
##رسی
aqui
wamba
##ලන
उतपादन
เวลา
nguyen
##vest
##овых
الدعم
rendsz
interesse
##મી
समरथ
##גי
##ግር
lado
##сын
##ෙම
resul
usaid
gemens
الرو
vahel
власт
dda
اکن
kasance
##തമ
εξετα
tən
##ສາ
uporabo
өт
##irau
drog
dhex
التش
dzɔ
##ратив
เกด
لڳ
সবা
toshkent
##दक
tue
##amac
daghang
##ebuerg
شاوخوا
دوب
herunder
ဆောင
angin
irraa
nibak
degil
exemple
গে
pendidikan
చపప
kwakhe
acık
endzh
aige
##کرا
विन
enam
yerusal
предпр
کمپ
nennia
##ဖြင
##ambura
##তরে
ngbanga
##권
ƒo
##mət
##ijoje
كمان
##ڪري
parsk
##افظ
rive
مقام
##onye
метод
hitel
epi
osi
మరయు
njihov
dotyczacych
ادارې
وعد
zola
sunnu
nisu
##رێت
मक
csak
upu
سیندن
##iteten
##jams
1955
##ahoz
1935
##бар
##intang
асп
erityisesti
##vida
forvalt
prilohe
##កម
##ҡа
सहयोग
producten
باغ
##ڼې
##ikom
balkan
پال
kuno
akyi
אנו
ਰਹਿ
ngeri
eman
tempor
##ڪر
##ॉन
##ungdan
anlas
1941
siawo
மறறும
##চাৰ
##uoja
instytu
персон
остр
##যৰ
كات
##utes
estes
세
اجازه
бэ
reprezent
ijambo
##cius
embargo
priedo
diken
##rza
##lingen
##말ᄊ
интег
##ድሚ
##esema
ہر
ote
##디
##indlela
flere
research
sementara
perlu
mision
samtang
දෙවගෙ
##sɛ
##itin
##adtong
cyo
##जो
عرض
komissi
##վեց
вона
##deel
هایی
цели
परिणाम
ကာ
orc
veel
##oly
##instr
##genomen
jednak
heer
jire
ubwami
marekani
hivyo
##ън
##isg
ivi
##သၼ
fii
corres
##onos
lez
രാജ
tanpa
ښک
##သမး
##абыз
dare
scha
##번
nagd
تاپ
chayn
##gt
ngoko
##aroon
ŋuan
whare
دېدى
mlad
করার
##elling
ular
##ისა
##ⵓⵣ
რომელიც
##kelig
vaart
vala
##nir
##ळा
रहन
ယေရ
sʋ
##icno
እው
##kuta
korxon
donc
uo
جدید
##ropa
##ითხ
siti
lete
nangg
##온
iznem
pamar
когда
monene
##rt
##esan
dii
know
ankasa
រក
marco
سەن
compar
rapporter
පද
economie
##יתה
##ርትራ
omfat
tendo
القي
परान
ultimo
cuid
ਸਾਲ
kristus
##xona
##ols
uzer
##필요
aliment
##әргә
programas
შეი
##esar
denn
kunjamsa
gwe
zonse
pelos
এম
اتاو
##φορας
zone
##არგ
εξο
##ingal
##సుకు
мн
##fɛ
##ភាព
##োট
ieguld
جهان
##ело
digunakan
gelo
nenniyya
##როს
alɩwaatʋ
пости
както
ginn
tasa
##skega
##uya
मलाई
melhor
##ھے
##বিত
##શવર
fuu
nhien
##ekana
транспорт
nena
فا
منذ
##받아
##لاه
eternulo
ານ
##ەز
النامية
དཔལ
ٲس
##ikaka
paano
אחד
lata
##কৈ
##ธอ
yao
europea
nacin
βο
వరు
vaid
ಸವ
vysled
दिए
##माथि
الاص
bonke
boammaaruri
działal
иници
##වෙන
ahora
घत
##दधि
ചെയത
##חת
ebyo
##망
lokhu
##kih
##ાળ
##akati
matul
##ବସ
sababu
هغوي
programma
##ାହାର
primeira
siad
##yenera
அவன
eder
والس
##адан
সমপর
##ків
мене
tutu
##wama
[...]
